<unk>	0
<s>	0
</s>	0
er	-0
en	-1
▁d	-2
ch	-3
in	-4
00	-5
▁s	-6
▁a	-7
ie	-8
un	-9
st	-10
ei	-11
▁b	-12
an	-13
▁00	-14
▁w	-15
on	-16
ein	-17
▁der	-18
sch	-19
te	-20
ge	-21
▁m	-22
▁v	-23
▁un	-24
ar	-25
▁0000	-26
▁i	-27
▁in	-28
▁f	-29
or	-30
es	-31
ur	-32
▁die	-33
▁und	-34
al	-35
it	-36
▁ein	-37
▁k	-38
de	-39
▁er	-40
▁n	-41
▁z	-42
at	-43
▁h	-44
ich	-45
▁au	-46
▁p	-47
el	-48
▁l	-49
em	-50
as	-51
isch	-52
gen	-53
ter	-54
hr	-55
▁r	-56
ol	-57
▁ge	-58
am	-59
au	-60
▁t	-61
▁g	-62
ten	-63
▁j	-64
is	-65
▁von	-66
ung	-67
il	-68
▁im	-69
der	-70
den	-71
ber	-72
▁an	-73
▁(	-74
ach	-75
▁st	-76
um	-77
▁al	-78
et	-79
▁mit	-80
▁den	-81
▁ist	-82
ier	-83
▁ver	-84
and	-85
▁"	-86
ig	-87
▁des	-88
om	-89
▁be	-90
us	-91
▁wur	-92
le	-93
lich	-94
ür	-95
ion	-96
▁das	-97
eit	-98
ir	-99
ra	-100
▁sch	-101
▁o	-102
ent	-103
▁wurde	-104
▁war	-105
ann	-106
ischen	-107
ro	-108
▁c	-109
▁auf	-110
ck	-111
ut	-112
rei	-113
ik	-114
▁als	-115
re	-116
ft	-117
▁dem	-118
ahr	-119
▁aus	-120
iel	-121
▁für	-122
▁bei	-123
▁zu	-124
▁00.	-125
▁sein	-126
▁am	-127
ben	-128
▁sp	-129
▁sie	-130
▁eine	-131
▁nach	-132
▁0	-133
ien	-134
se	-135
sen	-136
hn	-137
sp	-138
▁e	-139
▁de	-140
ist	-141
ad	-142
kt	-143
scha	-144
ver	-145
▁jahr	-146
▁bis	-147
wei	-148
ort	-149
ster	-150
he	-151
hl	-152
ul	-153
▁sich	-154
▁re	-155
ger	-156
os	-157
ell	-158
ff	-159
▁ab	-160
ün	-161
än	-162
▁so	-163
eich	-164
ab	-165
schaft	-166
men	-167
ation	-168
eil	-169
sten	-170
ern	-171
▁unter	-172
ot	-173
▁fr	-174
▁ar	-175
ag	-176
lie	-177
▁auch	-178
ische	-179
ri	-180
icht	-181
ne	-182
▁zum	-183
ing	-184
ste	-185
ru	-186
ät	-187
ind	-188
och	-189
ör	-190
▁0.	-191
all	-192
op	-193
▁ne	-194
über	-195
und	-196
tel	-197
▁vor	-198
rie	-199
ang	-200
▁le	-201
▁ber	-202
be	-203
utsch	-204
▁ch	-205
mein	-206
urch	-207
▁über	-208
im	-209
▁me	-210
la	-211
▁pro	-212
▁um	-213
ser	-214
gt	-215
▁es	-216
ord	-217
▁wir	-218
▁ent	-219
▁gr	-220
▁se	-221
▁einer	-222
ic	-223
▁durch	-224
▁deutsch	-225
▁zur	-226
art	-227
etz	-228
aus	-229
og	-230
we	-231
▁000	-232
ischer	-233
end	-234
adt	-235
ers	-236
ud	-237
ap	-238
ungen	-239
ierte	-240
▁zwei	-241
ungs	-242
reich	-243
0000	-244
iv	-245
▁wer	-246
▁we	-247
hm	-248
▁(*	-249
▁ihr	-250
itz	-251
▁hat	-252
igen	-253
gr	-254
▁sind	-255
▁br	-256
det	-257
uch	-258
wa	-259
är	-260
hen	-261
ia	-262
tet	-263
ler	-264
▁ma	-265
land	-266
ts	-267
anz	-268
ige	-269
).	-270
gel	-271
urg	-272
▁gemein	-273
▁fol	-274
▁land	-275
▁wie	-276
▁lie	-277
rä	-278
spiel	-279
▁spiel	-280
wer	-281
▁kon	-282
her	-283
▁wird	-284
▁einem	-285
iver	-286
ze	-287
eister	-288
▁wei	-289
geb	-290
▁„	-291
qu	-292
iert	-293
▁her	-294
elt	-295
pp	-296
▁seit	-297
ed	-298
ant	-299
lin	-300
▁en	-301
nen	-302
stell	-303
sel	-304
rat	-305
ht	-306
hal	-307
uss	-308
dem	-309
ov	-310
mal	-311
wie	-312
lichen	-313
▁gew	-314
id	-315
ug	-316
▁geb	-317
ück	-318
auf	-319
▁sü	-320
bei	-321
ak	-322
ges	-323
ho	-324
ühr	-325
che	-326
ame	-327
▁kl	-328
ohn	-329
ess	-330
iz	-331
▁zw	-332
reis	-333
▁stadt	-334
▁mar	-335
▁fl	-336
chen	-337
amm	-338
▁einen	-339
atz	-340
ub	-341
▁sa	-342
ard	-343
ivers	-344
),	-345
▁werden	-346
▁oder	-347
ill	-348
▁seine	-349
ational	-350
burg	-351
omm	-352
ass	-353
iversit	-354
oll	-355
del	-356
▁teil	-357
fl	-358
ner	-359
ust	-360
hör	-361
▁da	-362
▁bes	-363
pt	-364
tern	-365
tete	-366
ok	-367
annt	-368
▁folgen	-369
od	-370
na	-371
fol	-372
ank	-373
ften	-374
ow	-375
alt	-376
▁vom	-377
zeich	-378
▁or	-379
▁fe	-380
tem	-381
▁reg	-382
▁nicht	-383
ahl	-384
berg	-385
sk	-386
ähr	-387
",	-388
stand	-389
▁süd	-390
▁ort	-391
▁he	-392
pf	-393
rit	-394
▁gemeinde	-395
▁gen	-396
▁pol	-397
▁et	-398
glie	-399
uf	-400
att	-401
ön	-402
▁sowie	-403
▁seiner	-404
ke	-405
ember	-406
▁(0000	-407
▁mus	-408
▁universit	-409
orm	-410
".	-411
▁ste	-412
▁gro	-413
▁stud	-414
▁wurden	-415
ium	-416
tes	-417
ilm	-418
▁ei	-419
▁zeit	-420
rich	-421
io	-422
▁gehör	-423
▁wo	-424
000	-425
äl	-426
enn	-427
▁pl	-428
amil	-429
liche	-430
▁bet	-431
▁jahre	-432
ob	-433
ha	-434
mann	-435
ßen	-436
▁beg	-437
ib	-438
ian	-439
zeit	-440
net	-441
▁sta	-442
▁bef	-443
▁ander	-444
ay	-445
▁mehr	-446
▁us	-447
amen	-448
ekt	-449
▁gl	-450
ße	-451
▁†	-452
▁zwischen	-453
▁dar	-454
eter	-455
▁te	-456
▁liegt	-457
▁weiter	-458
hei	-459
meister	-460
▁ro	-461
▁nord	-462
ick	-463
onen	-464
pl	-465
orf	-466
hmen	-467
äch	-468
▁pers	-469
pr	-470
schl	-471
▁hau	-472
ym	-473
ast	-474
üt	-475
du	-476
▁gegen	-477
ild	-478
▁the	-479
schaften	-480
▁na	-481
ahn	-482
ph	-483
▁of	-484
▁jo	-485
iet	-486
oren	-487
zen	-488
ikan	-489
ss	-490
ute	-491
gl	-492
▁ho	-493
▁zus	-494
per	-495
ammen	-496
cht	-497
arl	-498
arb	-499
tra	-500
▁erst	-501
▁famil	-502
ark	-503
▁bek	-504
ale	-505
▁neu	-506
if	-507
hem	-508
ließ	-509
▁mitglie	-510
▁jahren	-511
iger	-512
▁drei	-513
iker	-514
▁welt	-515
▁el	-516
▁man	-517
▁verb	-518
gte	-519
ater	-520
▁hatte	-521
ähl	-522
▁u	-523
")	-524
ied	-525
▁spä	-526
▁gesch	-527
teil	-528
▁dort	-529
olog	-530
utz	-531
ac	-532
rach	-533
▁jan	-534
aut	-535
▁qu	-536
öff	-537
▁schl	-538
▁ges	-539
▁ersten	-540
wohn	-541
mer	-542
▁beim	-543
▁ausge	-544
eits	-545
▁ober	-546
ktion	-547
,0	-548
ßer	-549
issen	-550
atur	-551
▁dies	-552
amer	-553
▁ha	-554
▁arbei	-555
▁jun	-556
▁später	-557
▁bl	-558
ial	-559
▁lei	-560
stlich	-561
stra	-562
▁fin	-563
ober	-564
▁je	-565
▁eines	-566
ks	-567
▁verw	-568
▁bau	-569
▁all	-570
arr	-571
▁personen	-572
undes	-573
öl	-574
▁nur	-575
▁hei	-576
▁y	-577
vor	-578
▁noch	-579
ont	-580
änd	-581
spieler	-582
ball	-583
▁zusammen	-584
ett	-585
fen	-586
führ	-587
ison	-588
▁etwa	-589
▁vier	-590
▁0000/	-591
bar	-592
▁kir	-593
▁kön	-594
▁pr	-595
▁wieder	-596
▁hin	-597
▁folgender	-598
etzt	-599
▁mitglied	-600
our	-601
ule	-602
uar	-603
▁ph	-604
▁film	-605
▁ins	-606
▁ger	-607
▁dieser	-608
ine	-609
ös	-610
rupp	-611
under	-612
ip	-613
▁0000.	-614
iss	-615
▁verein	-616
▁erfol	-617
kl	-618
fer	-619
▁juni	-620
▁mär	-621
▁aug	-622
bru	-623
dete	-624
▁waren	-625
bau	-626
▁universität	-627
▁aber	-628
gesch	-629
ce	-630
▁verl	-631
▁kom	-632
fr	-633
▁januar	-634
mit	-635
ingen	-636
uß	-637
grün	-638
▁mo	-639
▁erh	-640
▁franz	-641
▁national	-642
elle	-643
ron	-644
▁jul	-645
urop	-646
olle	-647
ult	-648
▁km	-649
▁la	-650
aten	-651
haus	-652
ma	-653
▁deutscher	-654
▁ur	-655
oss	-656
▁märz	-657
äu	-658
▁haupt	-659
▁ben	-660
ieder	-661
amt	-662
▁einwohn	-663
▁co	-664
zeichnet	-665
▁name	-666
▁seinem	-667
stadt	-668
gemein	-669
▁–	-670
ätig	-671
itel	-672
ielt	-673
▁august	-674
ald	-675
▁diese	-676
kte	-677
▁dan	-678
▁bo	-679
▁kur	-680
orden	-681
ton	-682
▁hö	-683
dern	-684
▁polit	-685
▁dam	-686
inz	-687
ans	-688
me	-689
–0000	-690
räs	-691
▁0000/00	-692
▁berlin	-693
▁was	-694
hol	-695
iga	-696
enz	-697
▁mai	-698
hunder	-699
▁okt	-700
▁bundes	-701
fe	-702
▁nov	-703
ieren	-704
cke	-705
▁einz	-706
▁saison	-707
kreis	-708
sta	-709
▁0000)	-710
▁juli	-711
ierung	-712
▁oktober	-713
ka	-714
rieb	-715
fel	-716
▁sel	-717
▁führ	-718
▁jahrhunder	-719
▁seinen	-720
▁klein	-721
▁dass	-722
▁("	-723
▁grün	-724
pro	-725
▁befin	-726
▁steht	-727
fahr	-728
lung	-729
▁gra	-730
▁studierte	-731
▁kam	-732
ens	-733
stein	-734
▁bel	-735
min	-736
▁gel	-737
öffent	-738
▁ol	-739
tal	-740
of	-741
▁mün	-742
anden	-743
name	-744
▁sep	-745
▁gewann	-746
▁dez	-747
▁mal	-748
▁mann	-749
keit	-750
az	-751
▁ange	-752
▁deutschen	-753
▁währ	-754
▁apr	-755
iele	-756
▁dezember	-757
rieg	-758
▁ex	-759
▁eben	-760
▁april	-761
bach	-762
br	-763
ou	-764
entr	-765
▁tr	-766
tember	-767
▁während	-768
hau	-769
▁prof	-770
▁september	-771
▁neben	-772
▁for	-773
zer	-774
▁intern	-775
▁nieder	-776
▁familien	-777
bl	-778
ken	-779
▁ihre	-780
▁spielte	-781
ieden	-782
ina	-783
▁0000,	-784
str	-785
th	-786
▁region	-787
ats	-788
▁jed	-789
spr	-790
▁november	-791
mus	-792
chsel	-793
▁platz	-794
ichte	-795
ommen	-796
▁stel	-797
▁eigen	-798
iden	-799
▁ka	-800
▁namen	-801
▁ra	-802
▁schw	-803
da	-804
▁konn	-805
▁erste	-806
▁min	-807
nung	-808
zu	-809
▁par	-810
schule	-811
rift	-812
gan	-813
▁tätig	-814
iste	-815
orn	-816
fall	-817
dr	-818
▁tra	-819
▁erhielt	-820
ffen	-821
amerikan	-822
tschaft	-823
▁chr	-824
sterreich	-825
bruar	-826
▁gleich	-827
nahm	-828
▁februar	-829
ite	-830
▁di	-831
▁heute	-832
▁th	-833
▁versch	-834
▁frei	-835
▁musik	-836
iere	-837
ition	-838
▁vert	-839
▁hoch	-840
▁erreich	-841
▁part	-842
form	-843
▁europ	-844
yn	-845
▁komm	-846
old	-847
als	-848
▁son	-849
weise	-850
bt	-851
▁zurück	-852
glich	-853
▁Ü	-854
urn	-855
gend	-856
zir	-857
▁ehem	-858
ys	-859
▁französ	-860
▁stra	-861
alen	-862
▁begann	-863
▁(0000–0000	-864
▁jedoch	-865
unde	-866
pen	-867
▁aut	-868
▁dann	-869
heit	-870
▁rech	-871
je	-872
nis	-873
ander	-874
▁beste	-875
ker	-876
▁mon	-877
hof	-878
▁international	-879
up	-880
▁entw	-881
öffentlich	-882
isten	-883
ille	-884
▁best	-885
ählt	-886
▁ersch	-887
▁wechsel	-888
▁groß	-889
man	-890
geben	-891
▁fuß	-892
▁lu	-893
unden	-894
assen	-895
unt	-896
▁frank	-897
▁bekannt	-898
▁leben	-899
▁fern	-900
▁befindet	-901
▁grö	-902
bert	-903
ilom	-904
lo	-905
▁em	-906
bahn	-907
▁ob	-908
inn	-909
▁ende	-910
▁vol	-911
▁ihm	-912
▁ihn	-913
ren	-914
ischof	-915
bild	-916
co	-917
eiten	-918
▁prov	-919
▁arbeitete	-920
ologie	-921
▁gegrün	-922
ubl	-923
▁statt	-924
▁Ö	-925
▁ö	-926
issenschaft	-927
aum	-928
▁landes	-929
▁hier	-930
▁hal	-931
▁zweiten	-932
ächst	-933
▁ehemal	-934
ost	-935
▁fün	-936
▁bezeichnet	-937
ruppe	-938
unter	-939
▁außer	-940
▁new	-941
gar	-942
zw	-943
imm	-944
▁sohn	-945
ister	-946
mar	-947
äd	-948
nehmen	-949
▁konnte	-950
▁form	-951
▁familienname	-952
▁produ	-953
▁kin	-954
▁is	-955
stellt	-956
▁erz	-957
ond	-958
▁könig	-959
▁lang	-960
▁titel	-961
andel	-962
mals	-963
▁ad	-964
▁zun	-965
schen	-966
▁frü	-967
wir	-968
▁lehr	-969
▁bereits	-970
▁trat	-971
ue	-972
bst	-973
▁abge	-974
igt	-975
▁mehrer	-976
heim	-977
▁and	-978
licher	-979
hann	-980
halten	-981
chn	-982
▁mittel	-983
▁Über	-984
▁ant	-985
lage	-986
unst	-987
auer	-988
▁west	-989
änger	-990
ive	-991
cher	-992
dorf	-993
lei	-994
sitz	-995
ock	-996
▁meister	-997
int	-998
▁ser	-999
dien	-1000
ga	-1001
ct	-1002
par	-1003
▁gehört	-1004
▁veröffentlich	-1005
▁kilom	-1006
halb	-1007
▁nahm	-1008
▁einwohner	-1009
ore	-1010
▁einge	-1011
ott	-1012
straße	-1013
▁wel	-1014
gebiet	-1015
son	-1016
werk	-1017
▁bil	-1018
asse	-1019
▁schau	-1020
▁kr	-1021
ymp	-1022
eine	-1023
acht	-1024
▁gab	-1025
▁phil	-1026
kon	-1027
reg	-1028
▁0,0	-1029
reu	-1030
▁fußball	-1031
▁wahl	-1032
len	-1033
ca	-1034
▁deutschland	-1035
sh	-1036
essor	-1037
onder	-1038
▁dir	-1039
fas	-1040
ve	-1041
▁pf	-1042
▁besch	-1043
▁erw	-1044
▁kann	-1045
ürger	-1046
bo	-1047
hin	-1048
kmal	-1049
▁verschieden	-1050
schließ	-1051
▁ern	-1052
▁gehörte	-1053
▁dessen	-1054
▁reich	-1055
▁ital	-1056
cl	-1057
▁fünf	-1058
▁rei	-1059
▁dr	-1060
ert	-1061
ellen	-1062
▁kreis	-1063
▁wechselte	-1064
istor	-1065
▁johann	-1066
▁zunächst	-1067
welt	-1068
ierten	-1069
annte	-1070
band	-1071
ius	-1072
org	-1073
räsiden	-1074
wahl	-1075
▁fried	-1076
itt	-1077
ibt	-1078
▁lan	-1079
▁at	-1080
▁danach	-1081
ogra	-1082
▁siehe	-1083
▁art	-1084
▁ihrer	-1085
stit	-1086
▁stand	-1087
▁provinz	-1088
feld	-1089
▁kilometer	-1090
▁cl	-1091
▁schwei	-1092
▁ju	-1093
sa	-1094
kr	-1095
▁kant	-1096
▁alle	-1097
▁rom	-1098
▁frau	-1099
▁akt	-1100
ül	-1101
cken	-1102
iff	-1103
alif	-1104
off	-1105
▁band	-1106
ähn	-1107
▁ind	-1108
sche	-1109
ator	-1110
▁zahl	-1111
▁wien	-1112
bes	-1113
▁jahrhundert	-1114
▁lin	-1115
chs	-1116
▁besuch	-1117
ritt	-1118
aul	-1119
▁italien	-1120
▁dab	-1121
trag	-1122
yp	-1123
yst	-1124
▁bas	-1125
▁olymp	-1126
▁grund	-1127
ieg	-1128
ütz	-1129
▁entwick	-1130
ate	-1131
▁letz	-1132
zial	-1133
üs	-1134
▁bede	-1135
▁dabei	-1136
unkt	-1137
fin	-1138
▁abs	-1139
▁anderem	-1140
▁university	-1141
▁vers	-1142
eid	-1143
ings	-1144
äft	-1145
▁berg	-1146
ält	-1147
▁mei	-1148
yl	-1149
wo	-1150
▁ta	-1151
weg	-1152
ultur	-1153
ossen	-1154
▁weitere	-1155
arbei	-1156
äuf	-1157
▁erfolg	-1158
▁rund	-1159
hel	-1160
▁kün	-1161
gang	-1162
amp	-1163
▁deutsche	-1164
▁kirche	-1165
osten	-1166
▁soll	-1167
▁pri	-1168
olf	-1169
▁wasser	-1170
mä	-1171
▁natur	-1172
▁län	-1173
kir	-1174
▁arch	-1175
▁ii	-1176
▁kunst	-1177
▁kanton	-1178
hein	-1179
tr	-1180
▁komp	-1181
▁alb	-1182
▁gibt	-1183
satz	-1184
▁stell	-1185
▁ba	-1186
,00	-1187
▁liste	-1188
▁brit	-1189
ta	-1190
▁gef	-1191
▁bar	-1192
▁gegründet	-1193
ath	-1194
▁lit	-1195
arriere	-1196
▁beiden	-1197
▁christ	-1198
äm	-1199
▁arb	-1200
ständ	-1201
the	-1202
▁diesem	-1203
falls	-1204
▁sk	-1205
jahr	-1206
▁erstmals	-1207
legen	-1208
gew	-1209
führt	-1210
▁sc	-1211
▁wen	-1212
are	-1213
die	-1214
rieben	-1215
▁anderen	-1216
▁fest	-1217
▁dien	-1218
rad	-1219
ork	-1220
kehr	-1221
eite	-1222
av	-1223
oph	-1224
ationen	-1225
uten	-1226
pel	-1227
ichtung	-1228
iner	-1229
so	-1230
reten	-1231
hne	-1232
▁%	-1233
▁-	-1234
▁haben	-1235
▁amt	-1236
▁einzel	-1237
ender	-1238
▁mil	-1239
▁mannschaft	-1240
▁bay	-1241
▁selbst	-1242
steller	-1243
▁sitz	-1244
achsen	-1245
schluss	-1246
fang	-1247
▁wil	-1248
for	-1249
ystem	-1250
▁dorf	-1251
weil	-1252
▁schwe	-1253
▁familie	-1254
▁rad	-1255
▁rechts	-1256
▁fernse	-1257
▁men	-1258
▁professor	-1259
▁vi	-1260
▁san	-1261
omp	-1262
olv	-1263
▁landkreis	-1264
krieg	-1265
unk	-1266
▁außerdem	-1267
äude	-1268
▁sport	-1269
▁ze	-1270
setz	-1271
▁politiker	-1272
ies	-1273
▁heim	-1274
schn	-1275
▁hol	-1276
▁fre	-1277
▁verwalt	-1278
▁kurz	-1279
tag	-1280
▁per	-1281
van	-1282
▁damit	-1283
▁gewählt	-1284
▁besitz	-1285
tragen	-1286
uer	-1287
▁00.000	-1288
▁tour	-1289
▁kan	-1290
▁haus	-1291
▁russ	-1292
ogen	-1293
▁rück	-1294
▁bzw	-1295
zirk	-1296
ika	-1297
▁ging	-1298
örd	-1299
igkeit	-1300
film	-1301
▁schloss	-1302
ordne	-1303
▁gener	-1304
▁bürger	-1305
ek	-1306
tt	-1307
▁histor	-1308
liga	-1309
▁erschien	-1310
ipp	-1311
▁nörd	-1312
▁ham	-1313
▁dav	-1314
stellung	-1315
ellschaft	-1316
▁kinder	-1317
▁ebenfalls	-1318
▁buch	-1319
▁con	-1320
oc	-1321
▁kat	-1322
ire	-1323
ende	-1324
▁stamm	-1325
▁norden	-1326
schließend	-1327
grund	-1328
▁unternehmen	-1329
rägt	-1330
▁schul	-1331
▁deren	-1332
▁ca	-1333
▁ru	-1334
▁prom	-1335
▁nachdem	-1336
mannschaft	-1337
▁ost	-1338
▁karl	-1339
▁meter	-1340
▁anschließend	-1341
urt	-1342
stitut	-1343
one	-1344
ament	-1345
mittel	-1346
▁su	-1347
▁sal	-1348
ba	-1349
gesamt	-1350
äche	-1351
els	-1352
ly	-1353
▁schauspieler	-1354
alter	-1355
▁errich	-1356
▁absolv	-1357
▁insel	-1358
schutz	-1359
fern	-1360
▁münchen	-1361
▁ihren	-1362
▁jeweil	-1363
gesetzt	-1364
lagen	-1365
▁bru	-1366
▁allem	-1367
▁zentr	-1368
▁partei	-1369
▁volks	-1370
▁star	-1371
▁kn	-1372
▁rö	-1373
ckt	-1374
▁00,0	-1375
▁ke	-1376
lauf	-1377
▁drit	-1378
▁med	-1379
▁rep	-1380
halt	-1381
▁zahlreich	-1382
▁bischof	-1383
▁handel	-1384
▁john	-1385
▁amer	-1386
enden	-1387
ommer	-1388
▁besteht	-1389
▁direkt	-1390
▁insgesamt	-1391
▁untersch	-1392
▁str	-1393
igten	-1394
▁kar	-1395
igung	-1396
ja	-1397
▁aufge	-1398
zent	-1399
bur	-1400
▁inter	-1401
ex	-1402
▁bahn	-1403
pol	-1404
eg	-1405
innen	-1406
▁beruf	-1407
ublik	-1408
▁nor	-1409
cker	-1410
▁mag	-1411
ations	-1412
▁viel	-1413
isches	-1414
▁aller	-1415
▁eng	-1416
dert	-1417
ums	-1418
▁genannt	-1419
zahl	-1420
▁paris	-1421
▁fahr	-1422
▁mich	-1423
▁will	-1424
abe	-1425
▁port	-1426
räsident	-1427
▁schrift	-1428
iat	-1429
rik	-1430
▁kultur	-1431
buch	-1432
“.	-1433
fach	-1434
auch	-1435
inger	-1436
fte	-1437
ara	-1438
ichts	-1439
▁sil	-1440
ionen	-1441
ula	-1442
▁(0000)	-1443
ice	-1444
eitung	-1445
▁tod	-1446
schrift	-1447
▁süden	-1448
sport	-1449
wirtschaft	-1450
bildung	-1451
meisterschaft	-1452
▁du	-1453
▁do	-1454
▁ren	-1455
▁met	-1456
▁ko	-1457
▁spielen	-1458
tement	-1459
▁geboren	-1460
ität	-1461
▁olympischen	-1462
▁einige	-1463
▁gest	-1464
▁york	-1465
▁künst	-1466
▁hinter	-1467
▁jahres	-1468
partement	-1469
platz	-1470
deutsch	-1471
ochter	-1472
amerikanischer	-1473
▁ortst	-1474
▁0:	-1475
▁alt	-1476
wig	-1477
urm	-1478
▁südwe	-1479
▁staats	-1480
vert	-1481
▁karriere	-1482
▁größ	-1483
▁gemeins	-1484
ana	-1485
▁jugend	-1486
ement	-1487
▁dieses	-1488
▁heraus	-1489
see	-1490
▁win	-1491
▁sol	-1492
vers	-1493
▁krieg	-1494
dung	-1495
ven	-1496
bte	-1497
▁fand	-1498
▁mill	-1499
▁kap	-1500
▁sechs	-1501
▁sprach	-1502
was	-1503
▁sh	-1504
▁nachfol	-1505
▁spe	-1506
gemeinde	-1507
▁friedrich	-1508
büt	-1509
▁urspr	-1510
▁engl	-1511
▁bild	-1512
▁count	-1513
▁Ä	-1514
▁einwohnern	-1515
▁besuchte	-1516
anten	-1517
▁mehrere	-1518
▁verm	-1519
▁gebiet	-1520
▁mach	-1521
▁seines	-1522
▁erreichte	-1523
hö	-1524
essen	-1525
ity	-1526
▁dé	-1527
▁können	-1528
red	-1529
▁peter	-1530
▁flug	-1531
▁x	-1532
▁car	-1533
▁dre	-1534
▁verf	-1535
ons	-1536
zt	-1537
ganis	-1538
▁mö	-1539
▁alter	-1540
▁osten	-1541
▁gu	-1542
use	-1543
oster	-1544
▁team	-1545
▁wohn	-1546
▁verwaltungs	-1547
▁tor	-1548
hausen	-1549
▁studium	-1550
helm	-1551
hält	-1552
endet	-1553
riff	-1554
▁sehr	-1555
hren	-1556
rag	-1557
▁nordwe	-1558
rech	-1559
▁theater	-1560
heira	-1561
▁fach	-1562
▁tochter	-1563
yr	-1564
▁inner	-1565
recht	-1566
ix	-1567
▁neuen	-1568
▁burg	-1569
jähr	-1570
ry	-1571
sprach	-1572
ment	-1573
▁techn	-1574
▁hein	-1575
▁wissenschaft	-1576
▁fluss	-1577
▁westen	-1578
▁anfang	-1579
▁schwer	-1580
▁erl	-1581
▁ass	-1582
zeichnung	-1583
verein	-1584
▁span	-1585
ko	-1586
fasst	-1587
▁sommer	-1588
▁rich	-1589
inen	-1590
zeu	-1591
punkt	-1592
▁denen	-1593
▁stein	-1594
▁000.	-1595
▁ehe	-1596
▁jur	-1597
est	-1598
anc	-1599
ruppen	-1600
ins	-1601
ude	-1602
gleich	-1603
▁weltkrieg	-1604
▁pa	-1605
▁ed	-1606
▁zudem	-1607
ucht	-1608
▁besonder	-1609
oge	-1610
▁tro	-1611
ände	-1612
▁beispiel	-1613
▁bad	-1614
eda	-1615
oten	-1616
▁geschichte	-1617
▁fort	-1618
zie	-1619
▁off	-1620
▁<	-1621
▁département	-1622
kan	-1623
▁paul	-1624
eln	-1625
omin	-1626
▁starb	-1627
gra	-1628
mo	-1629
ure	-1630
▁hand	-1631
lehr	-1632
▁zuge	-1633
nahme	-1634
ign	-1635
ong	-1636
esen	-1637
▁verheira	-1638
▁folgenden	-1639
▁großen	-1640
eile	-1641
genommen	-1642
▁gemeinden	-1643
▁schn	-1644
stre	-1645
▁lauf	-1646
▁bü	-1647
zentr	-1648
▁absolvierte	-1649
▁fc	-1650
▁verk	-1651
uth	-1652
wohl	-1653
▁heut	-1654
▁bereich	-1655
▁mat	-1656
uk	-1657
schlossen	-1658
ica	-1659
bewer	-1660
▁liter	-1661
▁pap	-1662
osition	-1663
meisterschaften	-1664
▁erne	-1665
ammer	-1666
li	-1667
orie	-1668
mäß	-1669
▁schon	-1670
walt	-1671
fluss	-1672
ismus	-1673
verband	-1674
▁jahrhunderts	-1675
äng	-1676
▁gebäude	-1677
▁bele	-1678
▁schweizer	-1679
▁del	-1680
angen	-1681
▁österreich	-1682
nehm	-1683
annten	-1684
wissenschaft	-1685
▁leich	-1686
urnier	-1687
ölker	-1688
▁har	-1689
uren	-1690
demie	-1691
▁jeweils	-1692
äs	-1693
gruppe	-1694
▁keine	-1695
üd	-1696
räsent	-1697
▁führt	-1698
▁aktiv	-1699
zeug	-1700
▁sen	-1701
lig	-1702
▁wirtschaft	-1703
ide	-1704
▁vorsitz	-1705
▁eis	-1706
▁Österreich	-1707
▁darauf	-1708
▁gruppe	-1709
▁(0000–0000)	-1710
▁mor	-1711
▁arbeit	-1712
reuz	-1713
ckey	-1714
▁staaten	-1715
ala	-1716
▁regel	-1717
▁bern	-1718
üb	-1719
▁0.000	-1720
hard	-1721
▁verheiratet	-1722
ondon	-1723
▁staat	-1724
stral	-1725
▁ortsteil	-1726
only	-1727
▁vater	-1728
▁fernseh	-1729
erst	-1730
▁gelegen	-1731
▁forsch	-1732
otor	-1733
issenschaften	-1734
▁jap	-1735
anzen	-1736
▁see	-1737
▁weiteren	-1738
incl	-1739
lieb	-1740
▁ag	-1741
▁qualif	-1742
-00	-1743
▁county	-1744
include	-1745
▁()	-1746
▁ursprün	-1747
▁dis	-1748
▁ir	-1749
▁große	-1750
▁album	-1751
▁os	-1752
▁jose	-1753
▁kommun	-1754
▁spr	-1755
▁bestand	-1756
uchs	-1757
anst	-1758
rep	-1759
▁heimat	-1760
hle	-1761
▁übernahm	-1762
▁folgende	-1763
▁gem	-1764
▁frauen	-1765
onlyinclude	-1766
raum	-1767
isse	-1768
ese	-1769
▁promov	-1770
östlich	-1771
kel	-1772
iam	-1773
▁to	-1774
▁ihrem	-1775
▁london	-1776
legt	-1777
ettbewer	-1778
app	-1779
ski	-1780
ions	-1781
auft	-1782
age	-1783
▁schließ	-1784
ward	-1785
▁general	-1786
azz	-1787
ameister	-1788
▁fel	-1789
minister	-1790
▁höch	-1791
ollen	-1792
ift	-1793
▁kirchen	-1794
▁mart	-1795
▁saint	-1796
▁bra	-1797
▁erwähn	-1798
kirche	-1799
▁)	-1800
gung	-1801
▁erfolgreich	-1802
▁mont	-1803
▁po	-1804
▁künstler	-1805
▁wegen	-1806
bel	-1807
▁erfolgte	-1808
“,	-1809
arten	-1810
igte	-1811
▁niederl	-1812
▁zehn	-1813
tor	-1814
nas	-1815
▁werk	-1816
▁bro	-1817
bet	-1818
▁gil	-1819
▁betrieb	-1820
▁wilhelm	-1821
▁höhe	-1822
▁mark	-1823
ames	-1824
▁frankreich	-1825
▁0000).	-1826
ücke	-1827
raft	-1828
▁austral	-1829
▁japan	-1830
▁archite	-1831
zug	-1832
ument	-1833
kur	-1834
▁män	-1835
▁benannt	-1836
unktion	-1837
▁verschiedenen	-1838
▁vereinigten	-1839
res	-1840
dienst	-1841
▁(0000–0000),	-1842
eum	-1843
▁zog	-1844
▁usa	-1845
▁0:0	-1846
oppel	-1847
▁rel	-1848
▁comm	-1849
▁sieben	-1850
spielen	-1851
jekt	-1852
▁wicht	-1853
▁hamburg	-1854
▁wa	-1855
burger	-1856
utter	-1857
▁orts	-1858
▁as	-1859
▁stre	-1860
▁rhein	-1861
vat	-1862
▁col	-1863
gramm	-1864
ham	-1865
teg	-1866
▁lebens	-1867
scher	-1868
▁denkmal	-1869
ügel	-1870
hlen	-1871
ange	-1872
ktor	-1873
dent	-1874
▁*	-1875
▁chem	-1876
▁errichtet	-1877
▁röm	-1878
▁tex	-1879
▁ter	-1880
▁schwar	-1881
ograph	-1882
▁worden	-1883
▁südlich	-1884
▁herr	-1885
▁zei	-1886
▁aufgrund	-1887
▁pat	-1888
völker	-1889
les	-1890
ktur	-1891
▁acht	-1892
▁&	-1893
▁nördlich	-1894
▁abgeordne	-1895
▁tri	-1896
▁heil	-1897
▁georg	-1898
di	-1899
furt	-1900
▁ohne	-1901
▁entst	-1902
deten	-1903
▁verwendet	-1904
▁end	-1905
▁gast	-1906
▁tür	-1907
▁führte	-1908
▁gut	-1909
jekte	-1910
allen	-1911
▁rot	-1912
▁voll	-1913
sehen	-1914
▁letzten	-1915
▁halb	-1916
▁erhalten	-1917
va	-1918
änder	-1919
enze	-1920
universit	-1921
teilung	-1922
▁hel	-1923
▁wor	-1924
iser	-1925
stern	-1926
för	-1927
▁andere	-1928
▁gründete	-1929
▁beginn	-1930
ise	-1931
gent	-1932
ague	-1933
iges	-1934
wald	-1935
▁mitte	-1936
bung	-1937
edaille	-1938
gestellt	-1939
wert	-1940
▁max	-1941
▁aka	-1942
bezirk	-1943
▁entstand	-1944
▁il	-1945
▁äl	-1946
yd	-1947
▁liga	-1948
▁debüt	-1949
kten	-1950
gress	-1951
utzt	-1952
äus	-1953
arch	-1954
ette	-1955
▁hof	-1956
▁fir	-1957
▁0,00	-1958
preis	-1959
▁institut	-1960
▁sozial	-1961
▁pla	-1962
▁amts	-1963
schul	-1964
anken	-1965
bereich	-1966
ias	-1967
▁gemeinsam	-1968
endete	-1969
▁milit	-1970
▁kanad	-1971
kommen	-1972
▁hans	-1973
ürz	-1974
ley	-1975
▁entfern	-1976
▁kompon	-1977
▁gold	-1978
spiele	-1979
iven	-1980
▁pal	-1981
met	-1982
▁neue	-1983
ae	-1984
ino	-1985
ikanischen	-1986
▁landtag	-1987
▁köl	-1988
dings	-1989
ane	-1990
produ	-1991
▁meist	-1992
keiten	-1993
▁vertrag	-1994
▁städ	-1995
▁rolle	-1996
own	-1997
staat	-1998
emen	-1999
amb	-2000
stru	-2001
▁viele	-2002
▁offiz	-2003
fahren	-2004
▁cor	-2005
▁kloster	-2006
ama	-2007
▁grie	-2008
▁straße	-2009
für	-2010
-0	-2011
denkmal	-2012
▁bot	-2013
ymnas	-2014
serie	-2015
▁colle	-2016
>*	-2017
▁eisen	-2018
▁verst	-2019
ool	-2020
universität	-2021
▁allerdings	-2022
zig	-2023
gten	-2024
▁französischen	-2025
▁bevölker	-2026
esse	-2027
▁liegen	-2028
▁lud	-2029
ael	-2030
▁tal	-2031
▁zweite	-2032
ington	-2033
ps	-2034
rid	-2035
stieg	-2036
▁herz	-2037
no	-2038
stoff	-2039
▁wald	-2040
▁entde	-2041
▁ehemaliger	-2042
ision	-2043
▁kein	-2044
▁silber	-2045
ierungs	-2046
okal	-2047
rug	-2048
hand	-2049
▁mer	-2050
▁lau	-2051
ola	-2052
bs	-2053
▁formula	-2054
▁westlich	-2055
▁produktion	-2056
▁elekt	-2057
ance	-2058
▁syn	-2059
▁nä	-2060
bischof	-2061
▁verfü	-2062
▁carl	-2063
teilt	-2064
▁ku	-2065
ish	-2066
nam	-2067
▁veröffentlicht	-2068
▁graf	-2069
attung	-2070
▁winter	-2071
▁pe	-2072
▁früher	-2073
part	-2074
▁französische	-2075
▁park	-2076
umen	-2077
▁folge	-2078
▁organis	-2079
▁möglich	-2080
▁schließlich	-2081
▁lag	-2082
örper	-2083
▁wobei	-2084
▁heinrich	-2085
▁alten	-2086
▁bruder	-2087
einander	-2088
▁internationalen	-2089
geschichte	-2090
ruck	-2091
gabe	-2092
▁zul	-2093
stag	-2094
▁bron	-2095
▁menschen	-2096
ano	-2097
▁umfasst	-2098
stlichen	-2099
arm	-2100
gaben	-2101
▁blieb	-2102
que	-2103
▁ausgetragen	-2104
kat	-2105
▁nahe	-2106
▁verlie	-2107
▁folgte	-2108
▁nachbar	-2109
▁ernannt	-2110
▁typ	-2111
▁zahlreiche	-2112
▁diesen	-2113
unkte	-2114
▁arbeiten	-2115
frie	-2116
▁einsatz	-2117
▁literatur	-2118
▁kü	-2119
ande	-2120
▁leicht	-2121
ile	-2122
▁alex	-2123
▁schiff	-2124
insel	-2125
▁schriftsteller	-2126
▁bu	-2127
sie	-2128
istischen	-2129
▁lo	-2130
ital	-2131
▁richtung	-2132
▁dazu	-2133
omen	-2134
▁bon	-2135
des	-2136
▁beteil	-2137
▁autor	-2138
▁orte	-2139
han	-2140
▁wal	-2141
▁mos	-2142
ätz	-2143
imeter	-2144
▁gilt	-2145
herr	-2146
▁league	-2147
utt	-2148
schafts	-2149
hemat	-2150
ammlung	-2151
arbeiter	-2152
▁präsident	-2153
üssel	-2154
ville	-2155
haupt	-2156
▁jazz	-2157
▁spieler	-2158
▁res	-2159
▁militär	-2160
eben	-2161
omas	-2162
▁angeb	-2163
▁spielt	-2164
▁maler	-2165
aren	-2166
▁dist	-2167
nehmer	-2168
nahmen	-2169
ätze	-2170
▁bevor	-2171
indung	-2172
▁welche	-2173
besonder	-2174
▁eröff	-2175
▁ps	-2176
▁scha	-2177
▁luft	-2178
zi	-2179
▁europä	-2180
ämpf	-2181
▁dreh	-2182
ennt	-2183
ograf	-2184
izin	-2185
schw	-2186
osoph	-2187
▁ehren	-2188
▁ged	-2189
▁eingesetzt	-2190
▁erb	-2191
▁gehören	-2192
▁ap	-2193
ief	-2194
national	-2195
ari	-2196
do	-2197
port	-2198
▁straßen	-2199
▁häuf	-2200
▁innerhalb	-2201
ase	-2202
▁stark	-2203
sburg	-2204
▁city	-2205
▁rahmen	-2206
utlich	-2207
▁sehen	-2208
zirks	-2209
atten	-2210
").	-2211
ona	-2212
▁lebt	-2213
besondere	-2214
tz	-2215
schnitt	-2216
pe	-2217
▁leiter	-2218
▁kol	-2219
seite	-2220
▁pfl	-2221
iens	-2222
vier	-2223
gebie	-2224
▁hann	-2225
schech	-2226
hung	-2227
▁gelang	-2228
▁neun	-2229
▁leip	-2230
eller	-2231
vangel	-2232
▁gö	-2233
▁gesamt	-2234
▁gi	-2235
▁bach	-2236
gef	-2237
▁go	-2238
ines	-2239
▁sied	-2240
▁hen	-2241
mitglie	-2242
▁gesellschaft	-2243
▁kehr	-2244
▁fer	-2245
▁zweit	-2246
west	-2247
ichten	-2248
pa	-2249
▁bur	-2250
racht	-2251
▁machte	-2252
▁prä	-2253
▁veröffentlichte	-2254
▁erster	-2255
▁kop	-2256
eth	-2257
itter	-2258
riften	-2259
▁sei	-2260
ffel	-2261
▁william	-2262
▁geschäft	-2263
wissenschaften	-2264
▁hil	-2265
▁schm	-2266
▁pre	-2267
▁div	-2268
▁ludwig	-2269
stei	-2270
äuft	-2271
▁insbesondere	-2272
jet	-2273
▁nachfolger	-2274
ymnasium	-2275
alb	-2276
ef	-2277
äten	-2278
abel	-2279
▁heutigen	-2280
▁ursprünglich	-2281
▁klass	-2282
▁immer	-2283
▁erwähnt	-2284
▁doppel	-2285
▁darunter	-2286
▁östlich	-2287
okrat	-2288
▁college	-2289
▁oft	-2290
▁zeich	-2291
omit	-2292
othe	-2293
▁pra	-2294
▁namens	-2295
▁kor	-2296
▁erneut	-2297
endung	-2298
▁heira	-2299
cc	-2300
ient	-2301
geber	-2302
spro	-2303
arbeit	-2304
▁(0	-2305
lang	-2306
schau	-2307
▁evangel	-2308
▁landwirtschaft	-2309
isseur	-2310
park	-2311
klasse	-2312
ingt	-2313
▁spiele	-2314
assung	-2315
▁comp	-2316
aka	-2317
▁robert	-2318
▁erschein	-2319
▁fläche	-2320
▁vorsitzender	-2321
▁enthält	-2322
▁00-	-2323
istik	-2324
▁moder	-2325
▁preis	-2326
etzte	-2327
▁kaiser	-2328
▁ach	-2329
▁objekte	-2330
▁michael	-2331
nete	-2332
▁unterst	-2333
richt	-2334
▁mitt	-2335
▁kal	-2336
rond	-2337
▁bi	-2338
▁schrieb	-2339
vol	-2340
▁on	-2341
▁sow	-2342
▁grenz	-2343
▁schweiz	-2344
ade	-2345
▁verschiedene	-2346
▁stehen	-2347
▁ausbildung	-2348
onnen	-2349
▁tschech	-2350
gesellschaft	-2351
▁auft	-2352
arlament	-2353
▁funktion	-2354
yt	-2355
förm	-2356
▁mel	-2357
vent	-2358
sicht	-2359
▁ehemaligen	-2360
▁bürgermeister	-2361
▁köln	-2362
▁belg	-2363
▁fußballspieler	-2364
▁journ	-2365
▁produz	-2366
▁sant	-2367
“)	-2368
▁val	-2369
▁lange	-2370
gs	-2371
reter	-2372
▁rang	-2373
▁pfarr	-2374
▁beschäft	-2375
igh	-2376
▁poln	-2377
▁werke	-2378
zeitig	-2379
läuf	-2380
▁philosoph	-2381
za	-2382
räger	-2383
▁finden	-2384
▁sowohl	-2385
istum	-2386
▁thomas	-2387
▁(00	-2388
▁bisher	-2389
▁roman	-2390
▁finale	-2391
nisse	-2392
zogen	-2393
häng	-2394
stud	-2395
dell	-2396
▁bor	-2397
▁belegte	-2398
▁stat	-2399
anstalt	-2400
over	-2401
wär	-2402
▁ausgezeichnet	-2403
▁air	-2404
▁wes	-2405
ois	-2406
iw	-2407
▁hochschule	-2408
orge	-2409
▁bezeichnung	-2410
▁heiratete	-2411
ission	-2412
runde	-2413
▁journal	-2414
führung	-2415
esser	-2416
▁lat	-2417
▁entstanden	-2418
▁türk	-2419
ych	-2420
issement	-2421
ii	-2422
▁befinden	-2423
pts	-2424
▁them	-2425
▁0000),	-2426
▁dän	-2427
fert	-2428
ließt	-2429
komm	-2430
▁johannes	-2431
musik	-2432
ordnung	-2433
▁weil	-2434
▁kehrte	-2435
ikation	-2436
▁char	-2437
illa	-2438
plom	-2439
▁beträgt	-2440
▁gei	-2441
▁kateg	-2442
ere	-2443
aliforn	-2444
▁finanz	-2445
wort	-2446
▁schutz	-2447
▁tre	-2448
▁größer	-2449
ón	-2450
hlet	-2451
▁entsch	-2452
yer	-2453
abil	-2454
ches	-2455
▁musste	-2456
▁000.000	-2457
▁sing	-2458
ürt	-2459
▁arrond	-2460
▁stadtteil	-2461
umb	-2462
▁com	-2463
▁arrondissement	-2464
äss	-2465
▁aufgenommen	-2466
richtung	-2467
▁europa	-2468
▁gar	-2469
ologe	-2470
ummer	-2471
▁wenn	-2472
▁seite	-2473
▁kathol	-2474
▁papst	-2475
zy	-2476
ochen	-2477
▁pop	-2478
▁ungar	-2479
▁don	-2480
berger	-2481
gemeinden	-2482
amerikanischen	-2483
cup	-2484
▁weit	-2485
ständig	-2486
▁mex	-2487
ford	-2488
▁0000;	-2489
▁größten	-2490
lands	-2491
▁kleine	-2492
▁fil	-2493
mon	-2494
fahrt	-2495
by	-2496
win	-2497
▁mutter	-2498
▁mathemat	-2499
▁zähl	-2500
ena	-2501
eier	-2502
▁nähe	-2503
ki	-2504
heiten	-2505
kret	-2506
hend	-2507
räsentanten	-2508
wasser	-2509
▁ep	-2510
ole	-2511
▁angel	-2512
bü	-2513
▁bekannte	-2514
erk	-2515
andid	-2516
▁maria	-2517
gericht	-2518
▁kreuz	-2519
ling	-2520
▁serie	-2521
way	-2522
stät	-2523
verb	-2524
▁brei	-2525
▁wirkte	-2526
elte	-2527
▁vo	-2528
▁schwed	-2529
ago	-2530
▁dienst	-2531
immt	-2532
▁wolf	-2533
ata	-2534
▁erziel	-2535
▁haupts	-2536
teten	-2537
▁bildet	-2538
wiesen	-2539
stung	-2540
▁ul	-2541
ical	-2542
ücken	-2543
▁hohen	-2544
▁minister	-2545
▁wahr	-2546
ouver	-2547
▁van	-2548
car	-2549
vo	-2550
ors	-2551
▁leipzig	-2552
räsentantenhaus	-2553
▁unbe	-2554
▁akademie	-2555
▁beide	-2556
▁"(	-2557
▁ddr	-2558
";	-2559
▁ehemalige	-2560
▁kongress	-2561
eig	-2562
▁sowjet	-2563
eiden	-2564
dition	-2565
ustrie	-2566
üter	-2567
)"	-2568
asil	-2569
▁bayer	-2570
▁häufig	-2571
stelle	-2572
▁kleinen	-2573
erin	-2574
▁gleichnam	-2575
▁bezie	-2576
techn	-2577
▁martin	-2578
tlich	-2579
änge	-2580
bundes	-2581
▁sänger	-2582
▁0000–0000	-2583
▁holz	-2584
▁bedeut	-2585
▁davon	-2586
dt	-2587
▁allen	-2588
▁cm	-2589
▁award	-2590
▁sondern	-2591
▁damals	-2592
rhein	-2593
▁fa	-2594
▁nomin	-2595
sweise	-2596
▁kauf	-2597
▁ast	-2598
swahl	-2599
▁stammt	-2600
▁charl	-2601
▁river	-2602
▁parlament	-2603
▁hatten	-2604
▁spitz	-2605
▁ebenda	-2606
ns	-2607
▁lö	-2608
▁phys	-2609
▁kas	-2610
ld	-2611
finale	-2612
▁medizin	-2613
▁begriff	-2614
▁fra	-2615
▁besonders	-2616
obil	-2617
ya	-2618
genden	-2619
▁system	-2620
ächlich	-2621
isiert	-2622
vi	-2623
une	-2624
appen	-2625
▁fast	-2626
fläche	-2627
akte	-2628
dam	-2629
▁li	-2630
▁sand	-2631
inner	-2632
hockey	-2633
▁damal	-2634
▁anton	-2635
lager	-2636
"),	-2637
ene	-2638
derung	-2639
▁wein	-2640
go	-2641
▁mittler	-2642
ake	-2643
▁diplom	-2644
_0	-2645
▁dritten	-2646
▁frankfurt	-2647
▁griech	-2648
▁rat	-2649
▁stu	-2650
▁lou	-2651
▁handelt	-2652
kund	-2653
fest	-2654
system	-2655
▁england	-2656
▁entspr	-2657
▁schule	-2658
▁findet	-2659
▁stellvert	-2660
▁hervor	-2661
medaille	-2662
▁direktor	-2663
▁verkehr	-2664
ativ	-2665
rieges	-2666
▁offiziel	-2667
▁autom	-2668
polit	-2669
▁gebie	-2670
▁dres	-2671
▁geschäfts	-2672
▁ganz	-2673
▁bedeuten	-2674
▁blü	-2675
▁recht	-2676
ace	-2677
wal	-2678
▁rum	-2679
bten	-2680
wand	-2681
upp	-2682
▁kommt	-2683
ären	-2684
fasste	-2685
▁motor	-2686
fter	-2687
stens	-2688
▁fo	-2689
▁andre	-2690
▁besitzt	-2691
▁zent	-2692
rechen	-2693
▁zuvor	-2694
riester	-2695
rennen	-2696
▁nun	-2697
▁stil	-2698
▁school	-2699
▁hauptstadt	-2700
erg	-2701
▁früh	-2702
▁französischer	-2703
ican	-2704
ico	-2705
▁meer	-2706
-,	-2707
fäl	-2708
nungen	-2709
schuss	-2710
ival	-2711
mö	-2712
ime	-2713
uel	-2714
▁mannschaften	-2715
kop	-2716
▁unterschied	-2717
weit	-2718
▁regierung	-2719
▁joseph	-2720
lau	-2721
icher	-2722
wiegend	-2723
bro	-2724
▁herren	-2725
▁länge	-2726
▁est	-2727
rom	-2728
▁turnier	-2729
▁sam	-2730
stellen	-2731
ci	-2732
▁bestehen	-2733
stu	-2734
▁ja	-2735
lungen	-2736
▁pass	-2737
▁arten	-2738
alz	-2739
achen	-2740
▁kriegs	-2741
▁sicher	-2742
▁post	-2743
▁hor	-2744
▁ließ	-2745
▁eigenen	-2746
▁ak	-2747
▁unterstütz	-2748
orben	-2749
chester	-2750
wak	-2751
▁christian	-2752
▁hör	-2753
▁sachsen	-2754
▁ott	-2755
fried	-2756
mäßig	-2757
etten	-2758
▁entfernt	-2759
▁ziel	-2760
com	-2761
▁seiten	-2762
▁gleichen	-2763
▁uk	-2764
iegel	-2765
▁kirch	-2766
gebaut	-2767
▁bezirks	-2768
ziel	-2769
ennen	-2770
ichtet	-2771
▁beendete	-2772
▁grenze	-2773
▁schrei	-2774
▁raum	-2775
."	-2776
▁verband	-2777
▁verläuft	-2778
▁gattung	-2779
▁tem	-2780
▁mehreren	-2781
öst	-2782
ates	-2783
▁eur	-2784
denk	-2785
fs	-2786
wehr	-2787
ächen	-2788
ettbewerb	-2789
▁nordosten	-2790
▁bilden	-2791
strecke	-2792
rang	-2793
▁inform	-2794
▁los	-2795
los	-2796
▁bezirk	-2797
▁tur	-2798
gesetz	-2799
▁brasil	-2800
▁oper	-2801
bin	-2802
weiter	-2803
hafen	-2804
▁reichs	-2805
unn	-2806
mark	-2807
▁zür	-2808
▁portug	-2809
äre	-2810
▁dom	-2811
vel	-2812
▁studien	-2813
aler	-2814
famil	-2815
ship	-2816
▁vize	-2817
▁gre	-2818
▁zuletzt	-2819
▁verlag	-2820
▁genutzt	-2821
lit	-2822
kau	-2823
▁hinaus	-2824
itur	-2825
▁jün	-2826
▁leitete	-2827
dig	-2828
▁0-	-2829
lex	-2830
forsch	-2831
ändischen	-2832
▁mitarbeiter	-2833
▁club	-2834
▁empf	-2835
▁weiß	-2836
ars	-2837
▁museum	-2838
▁spielzeit	-2839
▁lebte	-2840
serv	-2841
▁open	-2842
▁hannover	-2843
inal	-2844
▁dat	-2845
hi	-2846
▁daneben	-2847
▁entwicklung	-2848
▁erreicht	-2849
ua	-2850
▁südwesten	-2851
▁somit	-2852
ikt	-2853
frau	-2854
jo	-2855
leben	-2856
heits	-2857
▁pflanzen	-2858
▁sim	-2859
▁mad	-2860
▁.	-2861
▁franc	-2862
por	-2863
▁wuchs	-2864
▁stelle	-2865
▁bank	-2866
▁(0000),	-2867
▁tradition	-2868
kun	-2869
▁millionen	-2870
▁außen	-2871
▁not	-2872
schlag	-2873
▁sl	-2874
schriften	-2875
ini	-2876
án	-2877
utet	-2878
▁welches	-2879
schiff	-2880
▁startete	-2881
▁bevölkerung	-2882
folge	-2883
ließen	-2884
ull	-2885
▁aufgel	-2886
▁schauspielerin	-2887
setzt	-2888
get	-2889
zentrum	-2890
▁offen	-2891
üler	-2892
immen	-2893
abhäng	-2894
▁för	-2895
akt	-2896
▁gesam	-2897
▁ton	-2898
▁dok	-2899
mel	-2900
▁qualifiz	-2901
▁arbeitet	-2902
▁david	-2903
▁salz	-2904
▁,	-2905
ühl	-2906
setzung	-2907
▁super	-2908
fra	-2909
iken	-2910
ike	-2911
▁philipp	-2912
▁kategorie	-2913
con	-2914
▁privat	-2915
orth	-2916
▁wirtschafts	-2917
▁got	-2918
▁exist	-2919
▁bie	-2920
▁erd	-2921
▁darüber	-2922
▁sieg	-2923
ds	-2924
▁schauspiel	-2925
▁zusätz	-2926
▁lig	-2927
▁cal	-2928
zehn	-2929
▁fanden	-2930
▁bö	-2931
sur	-2932
▁friedhof	-2933
nes	-2934
gegen	-2935
ney	-2936
hington	-2937
temberg	-2938
ios	-2939
▁weg	-2940
▁diente	-2941
lowak	-2942
▁rein	-2943
▁geht	-2944
▁fot	-2945
reise	-2946
ürttemberg	-2947
schein	-2948
lingen	-2949
▁reihe	-2950
▁fu	-2951
▁grab	-2952
▁my	-2953
europ	-2954
▁nordwesten	-2955
▁stellte	-2956
▁fließt	-2957
führer	-2958
arts	-2959
▁britischen	-2960
▁top	-2961
ited	-2962
▁meisterschaft	-2963
gangen	-2964
ues	-2965
▁markt	-2966
wick	-2967
▁südosten	-2968
lag	-2969
▁ähn	-2970
ibli	-2971
▁republik	-2972
▁priester	-2973
handel	-2974
ildet	-2975
dens	-2976
irekt	-2977
leiter	-2978
▁kommen	-2979
schaffen	-2980
▁sollte	-2981
▁selben	-2982
▁nr	-2983
▁männ	-2984
flug	-2985
spielt	-2986
klär	-2987
▁arbeits	-2988
ec	-2989
▁regierungs	-2990
▁eishockey	-2991
▁pet	-2992
werke	-2993
▁stutt	-2994
ört	-2995
▁promoviert	-2996
▁programm	-2997
ühle	-2998
▁washington	-2999
ider	-3000
▁zwöl	-3001
▁entdeckt	-3002
▁prozent	-3003
▁bedeutung	-3004
▁braun	-3005
▁tenn	-3006
▁ortschaft	-3007
▁setzte	-3008
▁albert	-3009
kam	-3010
▁main	-3011
▁mitglieder	-3012
▁lehrer	-3013
ech	-3014
▁ans	-3015
lehrer	-3016
▁tag	-3017
▁öffent	-3018
▁bayern	-3019
ima	-3020
gart	-3021
falen	-3022
ächs	-3023
▁jähr	-3024
▁europäischen	-3025
akter	-3026
▁feld	-3027
▁allgemein	-3028
▁verliehen	-3029
▁bed	-3030
▁high	-3031
▁zerst	-3032
ession	-3033
team	-3034
▁einigen	-3035
▁schott	-3036
▁preuß	-3037
orte	-3038
ith	-3039
▁berliner	-3040
▁fert	-3041
▁zeitschrift	-3042
▁innen	-3043
istische	-3044
kretär	-3045
ikel	-3046
▁anw	-3047
▁zeigt	-3048
sem	-3049
kathol	-3050
▁erzielte	-3051
iment	-3052
▁boden	-3053
▁letzte	-3054
eren	-3055
▁vertrat	-3056
▁abitur	-3057
▁cup	-3058
▁get	-3059
▁sprache	-3060
▁wahlkreis	-3061
räge	-3062
ätzen	-3063
▁gruppen	-3064
gers	-3065
▁teilweise	-3066
▁daher	-3067
▁jüd	-3068
gro	-3069
▁naturschutz	-3070
iums	-3071
▁hauptsächlich	-3072
hoch	-3073
▁königs	-3074
▁abschluss	-3075
▁james	-3076
▁richard	-3077
denkmale	-3078
bürger	-3079
▁brach	-3080
▁no	-3081
▁ernst	-3082
last	-3083
▁regisseur	-3084
▁gebaut	-3085
ligisten	-3086
▁entste	-3087
▁(0000).	-3088
▁nat	-3089
bruch	-3090
law	-3091
▁baden	-3092
ufer	-3093
zwei	-3094
pfer	-3095
wagen	-3096
▁beteiligt	-3097
ädag	-3098
▁can	-3099
▁forschungs	-3100
▁00,	-3101
ora	-3102
▁mm	-3103
äuser	-3104
von	-3105
▁lok	-3106
▁rec	-3107
rolle	-3108
ada	-3109
▁gleichnamigen	-3110
▁(„	-3111
mb	-3112
▁polen	-3113
such	-3114
▁wiener	-3115
▁gol	-3116
▁eigene	-3117
strahl	-3118
schrei	-3119
▁stellvertreten	-3120
▁0000/0000	-3121
▁beispielsweise	-3122
▁stern	-3123
▁rud	-3124
▁ergeb	-3125
ura	-3126
altet	-3127
▁erreichen	-3128
lech	-3129
▁entsp	-3130
▁zentrum	-3131
oper	-3132
ita	-3133
▁metern	-3134
räsidenten	-3135
▁rock	-3136
ologischen	-3137
▁runde	-3138
itten	-3139
▁red	-3140
▁tran	-3141
▁bundesstaat	-3142
▁sub	-3143
▁finn	-3144
athlet	-3145
▁selten	-3146
titel	-3147
val	-3148
▁bud	-3149
▁zürich	-3150
ierter	-3151
▁einzige	-3152
▁dresden	-3153
kap	-3154
▁firma	-3155
▁kandid	-3156
▁iii	-3157
▁position	-3158
ieur	-3159
"-	-3160
rau	-3161
▁erzbischof	-3162
▁jer	-3163
namen	-3164
neur	-3165
▁gleichzeitig	-3166
aters	-3167
fre	-3168
▁var	-3169
▁vereins	-3170
▁far	-3171
beck	-3172
▁internationale	-3173
▁abgeordneter	-3174
ão	-3175
▁assist	-3176
amerikanische	-3177
▁00,00	-3178
▁promovierte	-3179
inc	-3180
mee	-3181
iller	-3182
lungs	-3183
kar	-3184
▁real	-3185
▁krit	-3186
mitglied	-3187
▁publ	-3188
hang	-3189
▁song	-3190
ätter	-3191
iko	-3192
▁konzer	-3193
▁näch	-3194
maler	-3195
▁gründung	-3196
pfel	-3197
▁george	-3198
▁damaligen	-3199
▁jean	-3200
▁zentimeter	-3201
autor	-3202
▁plan	-3203
▁eisenbahn	-3204
ibliothe	-3205
▁wohl	-3206
sg	-3207
▁otto	-3208
zeuge	-3209
ässer	-3210
ktionen	-3211
▁mass	-3212
iana	-3213
▁zug	-3214
stat	-3215
▁leg	-3216
zeichen	-3217
▁op	-3218
▁besten	-3219
kunft	-3220
▁leitung	-3221
▁cr	-3222
▁erweiter	-3223
uter	-3224
▁wol	-3225
▁sech	-3226
▁länder	-3227
▁(,	-3228
illen	-3229
▁einmal	-3230
▁unabhäng	-3231
▁philosophie	-3232
▁pil	-3233
▁erg	-3234
▁world	-3235
ordnet	-3236
frei	-3237
▁mündet	-3238
▁vertreter	-3239
anischen	-3240
▁körper	-3241
▁south	-3242
ij	-3243
itsch	-3244
selben	-3245
▁komponist	-3246
▁0,	-3247
ords	-3248
▁miss	-3249
familie	-3250
▁kla	-3251
▁meisten	-3252
▁stieg	-3253
▁schwarz	-3254
sv	-3255
▁stammen	-3256
nach	-3257
▁verbunden	-3258
▁kind	-3259
ella	-3260
▁tab	-3261
▁ros	-3262
▁turm	-3263
▁sem	-3264
▁größte	-3265
▁kammer	-3266
▁staffel	-3267
etter	-3268
▁doch	-3269
▁punkt	-3270
▁vielen	-3271
gende	-3272
▁bahnhof	-3273
▁stift	-3274
▁rennen	-3275
▁adel	-3276
how	-3277
rain	-3278
▁volk	-3279
▁fall	-3280
kung	-3281
▁stock	-3282
▁also	-3283
▁aktu	-3284
hnen	-3285
liches	-3286
zähl	-3287
:00	-3288
▁vorstand	-3289
▁sogen	-3290
▁demokrat	-3291
▁alexander	-3292
schließlich	-3293
▁gegenüber	-3294
▁italienischen	-3295
▁älte	-3296
▁sin	-3297
▁folgten	-3298
.,	-3299
▁erbaut	-3300
▁europameister	-3301
kürz	-3302
▁erschienen	-3303
licht	-3304
▁verbrei	-3305
▁wichtig	-3306
schinen	-3307
▁entwickelte	-3308
▁psych	-3309
schloss	-3310
▁umgeben	-3311
▁gep	-3312
verwalt	-3313
uc	-3314
▁erstes	-3315
gebäude	-3316
ffe	-3317
grö	-3318
▁bal	-3319
recher	-3320
▁prem	-3321
any	-3322
mund	-3323
▁schles	-3324
▁soc	-3325
▁ac	-3326
album	-3327
weihe	-3328
▁junioren	-3329
▁louis	-3330
üf	-3331
abilit	-3332
anlage	-3333
▁=	-3334
ston	-3335
▁rumän	-3336
-000	-3337
▁mittelalter	-3338
bis	-3339
ric	-3340
▁römisch	-3341
üsseldorf	-3342
don	-3343
lichkeit	-3344
▁stuttgart	-3345
geführt	-3346
▁division	-3347
ash	-3348
▁schüler	-3349
bra	-3350
linie	-3351
gemeinschaft	-3352
▁arm	-3353
verkehr	-3354
anwalt	-3355
▁kamer	-3356
▁erhe	-3357
itte	-3358
ight	-3359
prof	-3360
▁vorh	-3361
eist	-3362
.)	-3363
ux	-3364
minton	-3365
zo	-3366
▁berufen	-3367
cel	-3368
▁kamen	-3369
ouverneur	-3370
▁verbindung	-3371
▁einfach	-3372
glichen	-3373
▁verteid	-3374
asen	-3375
ones	-3376
▁dokument	-3377
test	-3378
fahrer	-3379
sdorf	-3380
kor	-3381
▁grand	-3382
▁weiterhin	-3383
fa	-3384
.:	-3385
▁ebenso	-3386
ble	-3387
▁les	-3388
▁bew	-3389
▁vir	-3390
fred	-3391
funk	-3392
▁champ	-3393
servator	-3394
▁zahlreichen	-3395
üsse	-3396
üste	-3397
▁kab	-3398
▁hall	-3399
▁legte	-3400
das	-3401
ome	-3402
▁commun	-3403
▁bonn	-3404
▁langen	-3405
ffer	-3406
ida	-3407
▁verkauf	-3408
▁konnten	-3409
▁düsseldorf	-3410
▁wind	-3411
abrik	-3412
meter	-3413
▁sym	-3414
ary	-3415
▁gymnasium	-3416
▁kaliforn	-3417
▁roy	-3418
▁älter	-3419
▁etwas	-3420
▁tätigkeit	-3421
fan	-3422
äh	-3423
schwei	-3424
zip	-3425
▁zentral	-3426
enzen	-3427
öt	-3428
▁badminton	-3429
▁chines	-3430
▁männer	-3431
üssen	-3432
süd	-3433
▁distrik	-3434
zern	-3435
rick	-3436
▁american	-3437
▁erf	-3438
arn	-3439
▁heiligen	-3440
▁regie	-3441
ager	-3442
▁trainer	-3443
ennung	-3444
ain	-3445
▁gez	-3446
▁ritter	-3447
▁regen	-3448
▁schied	-3449
▁bestimm	-3450
betrieb	-3451
▁siedlung	-3452
▁nominiert	-3453
stellungen	-3454
▁hermann	-3455
▁südöstlich	-3456
atte	-3457
wegen	-3458
▁stad	-3459
▁blüten	-3460
anne	-3461
▁mot	-3462
▁start	-3463
▁laut	-3464
▁persön	-3465
▁sv	-3466
▁fal	-3467
auen	-3468
gn	-3469
rats	-3470
druck	-3471
▁north	-3472
▁gött	-3473
po	-3474
▁nutz	-3475
▁mount	-3476
▁united	-3477
vis	-3478
stero	-3479
▁nordwestlich	-3480
▁stellt	-3481
▁ga	-3482
▁radio	-3483
▁charles	-3484
ros	-3485
lern	-3486
rim	-3487
▁üb	-3488
▁bir	-3489
▁bestritt	-3490
▁zwölf	-3491
▁china	-3492
▁königreich	-3493
▁politik	-3494
su	-3495
▁leichtathlet	-3496
▁höchsten	-3497
▁fran	-3498
arkt	-3499
▁aufstieg	-3500
▁südwestlich	-3501
▁hu	-3502
▁flor	-3503
▁projekt	-3504
geschoss	-3505
▁hockey	-3506
mbh	-3507
▁nordöstlich	-3508
▁weib	-3509
▁urkund	-3510
▁punkte	-3511
▁vorhanden	-3512
ér	-3513
▁town	-3514
▁raj	-3515
to	-3516
▁daten	-3517
eis	-3518
▁mül	-3519
▁fiel	-3520
hoben	-3521
▁bundesliga	-3522
gebung	-3523
▁verließ	-3524
▁vermutlich	-3525
isierung	-3526
rigen	-3527
▁lü	-3528
stück	-3529
▁spezial	-3530
sper	-3531
aterial	-3532
▁(0000–0000).	-3533
▁befand	-3534
▁german	-3535
akult	-3536
mittelbar	-3537
▁tö	-3538
aud	-3539
▁sö	-3540
▁nie	-3541
▁lab	-3542
jährigen	-3543
unternehmen	-3544
ichter	-3545
frika	-3546
las	-3547
aub	-3548
▁mu	-3549
bank	-3550
▁eltern	-3551
▁samm	-3552
▁anschluss	-3553
änden	-3554
▁derzeit	-3555
ösung	-3556
▁eins	-3557
reibt	-3558
▁mc	-3559
▁nik	-3560
▁maxim	-3561
▁ball	-3562
▁ang	-3563
▁bayerischen	-3564
alten	-3565
ders	-3566
kirchen	-3567
▁gesetz	-3568
▁jac	-3569
echt	-3570
liste	-3571
▁lied	-3572
▁chor	-3573
▁state	-3574
▁wid	-3575
union	-3576
ierungen	-3577
▁(000	-3578
▁island	-3579
weis	-3580
▁bewohn	-3581
▁südlichen	-3582
ume	-3583
▁hart	-3584
▁drehbuch	-3585
▁frühen	-3586
ces	-3587
bil	-3588
▁wall	-3589
▁russischen	-3590
akteur	-3591
▁knapp	-3592
ots	-3593
▁angeles	-3594
ution	-3595
neten	-3596
etzung	-3597
▁strecke	-3598
▁rand	-3599
▁maß	-3600
enk	-3601
kampf	-3602
hagen	-3603
▁halle	-3604
▁verlauf	-3605
ache	-3606
ics	-3607
▁höher	-3608
▁habilit	-3609
tin	-3610
▁bul	-3611
gliedert	-3612
iers	-3613
▁grenzt	-3614
gänger	-3615
har	-3616
▁wenig	-3617
▁teilnehmer	-3618
nord	-3619
▁muss	-3620
▁walter	-3621
▁seitdem	-3622
▁ihres	-3623
österreich	-3624
▁trägt	-3625
lt	-3626
gebir	-3627
ped	-3628
vorsitz	-3629
▁chef	-3630
▁unmittelbar	-3631
▁cast	-3632
ßt	-3633
wertung	-3634
ani	-3635
▁af	-3636
hil	-3637
fekt	-3638
▁gmbh	-3639
▁umben	-3640
älfte	-3641
ska	-3642
westfalen	-3643
▁übern	-3644
▁scien	-3645
iew	-3646
uck	-3647
▁kalifornien	-3648
▁alte	-3649
ose	-3650
▁vergleich	-3651
plan	-3652
▁astron	-3653
▁brü	-3654
▁vic	-3655
▁brun	-3656
▁latein	-3657
▁gott	-3658
▁zusätzlich	-3659
▁historischen	-3660
▁music	-3661
▁gerichts	-3662
▁jung	-3663
arbeiten	-3664
▁matt	-3665
▁erwarb	-3666
▁É	-3667
▁dach	-3668
präsident	-3669
wegung	-3670
▁laufbahn	-3671
▁industrie	-3672
nitz	-3673
▁mol	-3674
ässt	-3675
direkt	-3676
▁modell	-3677
▁heidel	-3678
▁kraft	-3679
dar	-3680
▁teile	-3681
rop	-3682
▁nordrhein	-3683
▁musiker	-3684
▁entwickelt	-3685
europameister	-3686
zem	-3687
altung	-3688
staur	-3689
cadem	-3690
athon	-3691
republik	-3692
antwort	-3693
▁han	-3694
▁theologie	-3695
ützen	-3696
din	-3697
▁hochschul	-3698
sc	-3699
▁zählt	-3700
▁kern	-3701
▁freund	-3702
▁späteren	-3703
▁rheinland	-3704
lor	-3705
▁dad	-3706
ye	-3707
institut	-3708
geschütz	-3709
kord	-3710
iode	-3711
messer	-3712
ünd	-3713
▁versuch	-3714
mäler	-3715
▁union	-3716
ernte	-3717
▁nationalen	-3718
izei	-3719
onym	-3720
▁jährlich	-3721
▁dor	-3722
▁glas	-3723
▁nieders	-3724
▁moskau	-3725
acher	-3726
▁bistum	-3727
ah	-3728
stock	-3729
▁argent	-3730
immer	-3731
▁cap	-3732
zel	-3733
▁britischer	-3734
▁/	-3735
mat	-3736
▁hy	-3737
▁organ	-3738
▁josef	-3739
▁wert	-3740
▁richter	-3741
ai	-3742
▁bla	-3743
▁wh	-3744
▁person	-3745
dy	-3746
▁sor	-3747
▁camp	-3748
▁elf	-3749
▁text	-3750
▁journalist	-3751
minist	-3752
stätte	-3753
▁zweiter	-3754
▁astero	-3755
üm	-3756
igur	-3757
▁verlor	-3758
organis	-3759
▁pan	-3760
ays	-3761
akademie	-3762
eitet	-3763
ny	-3764
▁armee	-3765
gegeben	-3766
ufen	-3767
reform	-3768
▁bus	-3769
▁bill	-3770
▁station	-3771
▁breit	-3772
▁produziert	-3773
▁betrug	-3774
▁politische	-3775
▁kult	-3776
▁inne	-3777
▁wander	-3778
▁hum	-3779
eton	-3780
haber	-3781
richter	-3782
ction	-3783
lan	-3784
▁tom	-3785
▁beit	-3786
▁ly	-3787
endorf	-3788
zü	-3789
▁engag	-3790
ox	-3791
▁sur	-3792
▁spd	-3793
▁train	-3794
▁leist	-3795
▁bronze	-3796
▁priv	-3797
▁sw	-3798
▁git	-3799
ächsischen	-3800
äußer	-3801
kürzung	-3802
iziert	-3803
sozial	-3804
▁francis	-3805
▁just	-3806
▁fakult	-3807
lant	-3808
cy	-3809
▁herzog	-3810
iedel	-3811
aux	-3812
▁kg	-3813
rand	-3814
motor	-3815
▁dritte	-3816
▁untersuch	-3817
schafter	-3818
kreuz	-3819
▁daraufhin	-3820
▁bald	-3821
▁publik	-3822
andenburg	-3823
▁dient	-3824
mag	-3825
bi	-3826
▁jak	-3827
ative	-3828
▁belie	-3829
▁hohe	-3830
▁mehrerer	-3831
ürn	-3832
▁eigent	-3833
▁trans	-3834
krieges	-3835
jahren	-3836
kom	-3837
bol	-3838
▁kro	-3839
▁jünger	-3840
zept	-3841
stellte	-3842
▁tier	-3843
▁quad	-3844
2.	-3845
▁denkmalgeschütz	-3846
▁medien	-3847
rachte	-3848
▁ernannte	-3849
med	-3850
ritten	-3851
▁fernsehen	-3852
eiter	-3853
ular	-3854
blem	-3855
▁städte	-3856
sl	-3857
fiel	-3858
iten	-3859
▁bre	-3860
▁geführt	-3861
▁beschäftigt	-3862
komp	-3863
▁basis	-3864
▁orgel	-3865
region	-3866
▁tore	-3867
mont	-3868
obahn	-3869
▁0000:	-3870
▁höhen	-3871
▁records	-3872
▁mun	-3873
▁steuer	-3874
▁dadurch	-3875
▁apost	-3876
▁eröffnet	-3877
▁meda	-3878
ele	-3879
öm	-3880
reifen	-3881
▁cro	-3882
▁ortes	-3883
▁jos	-3884
▁mand	-3885
▁tau	-3886
▁golden	-3887
▁mehrfach	-3888
unkten	-3889
gu	-3890
umm	-3891
▁klasse	-3892
hu	-3893
▁energ	-3894
mor	-3895
▁minde	-3896
▁öffentlichen	-3897
ware	-3898
rael	-3899
histor	-3900
▁zweimal	-3901
bus	-3902
kraft	-3903
▁verbr	-3904
▁bremen	-3905
▁höchste	-3906
studium	-3907
gerichts	-3908
▁erk	-3909
▁relig	-3910
▁trotz	-3911
▁archä	-3912
▁bekam	-3913
▁lebten	-3914
forschung	-3915
▁gemeindegebiet	-3916
▁prakt	-3917
gest	-3918
▁tie	-3919
▁dafür	-3920
▁hälfte	-3921
wind	-3922
▁hell	-3923
brit	-3924
▁ledig	-3925
kn	-3926
▁schnell	-3927
irol	-3928
seit	-3929
▁bol	-3930
▁verz	-3931
gin	-3932
▁bietet	-3933
möglich	-3934
▁betrieben	-3935
line	-3936
▁renn	-3937
▁rh	-3938
engl	-3939
wahlen	-3940
▁schön	-3941
▁verpf	-3942
▁münster	-3943
▁tel	-3944
▁wappen	-3945
▁bezeich	-3946
tens	-3947
▁ve	-3948
▁eu	-3949
zess	-3950
wärts	-3951
▁heidelberg	-3952
▁automobil	-3953
far	-3954
grenz	-3955
▁baum	-3956
onie	-3957
ugu	-3958
▁fäl	-3959
▁ven	-3960
▁sä	-3961
▁wenige	-3962
▁academ	-3963
▁technischen	-3964
rab	-3965
▁endete	-3966
ory	-3967
▁wehr	-3968
▁uhr	-3969
▁bedeutet	-3970
▁wort	-3971
▁(;	-3972
▁argentin	-3973
▁karls	-3974
▁freien	-3975
▁freiburg	-3976
hauer	-3977
deutschen	-3978
wood	-3979
▁kre	-3980
▁vorge	-3981
▁schaff	-3982
▁restaur	-3983
▁tv	-3984
▁wesent	-3985
▁tit	-3986
ique	-3987
sto	-3988
zeiten	-3989
omot	-3990
▁schlag	-3991
▁artikel	-3992
ieß	-3993
▁flughafen	-3994
gehend	-3995
▁charakter	-3996
▁thür	-3997
ologische	-3998
klass	-3999
alität	-4000
stuhl	-4001
isl	-4002
▁kard	-4003
ridge	-4004
ministerium	-4005
▁bücher	-4006
etts	-4007
▁bein	-4008
spitz	-4009
▁app	-4010
▁regelmäßig	-4011
▁italienischer	-4012
▁lediglich	-4013
voll	-4014
stil	-4015
▁hir	-4016
ota	-4017
istet	-4018
▁ruhe	-4019
▁assoc	-4020
bu	-4021
▁zeitung	-4022
ateur	-4023
▁unterrich	-4024
–00	-4025
▁ihnen	-4026
abeth	-4027
iland	-4028
▁obwohl	-4029
ink	-4030
volution	-4031
▁norweg	-4032
▁stück	-4033
▁englischen	-4034
ju	-4035
wesen	-4036
▁parall	-4037
uther	-4038
▁vil	-4039
▁dör	-4040
siehe	-4041
wechsel	-4042
▁brand	-4043
gefähr	-4044
▁orient	-4045
▁vorder	-4046
/00	-4047
▁überwiegend	-4048
württemberg	-4049
▁wern	-4050
▁themen	-4051
ding	-4052
stad	-4053
▁ann	-4054
▁wür	-4055
cu	-4056
▁verantwort	-4057
ugh	-4058
otte	-4059
▁abkürzung	-4060
▁lim	-4061
wart	-4062
▁physik	-4063
▁wahrschein	-4064
ädagog	-4065
▁it	-4066
▁nördlichen	-4067
spart	-4068
ausschuss	-4069
▁nummer	-4070
gut	-4071
▁zwar	-4072
denten	-4073
ria	-4074
ieger	-4075
act	-4076
▁angehör	-4077
inar	-4078
▁enthalten	-4079
cks	-4080
▁sat	-4081
▁schlacht	-4082
▁dür	-4083
▁chemie	-4084
▁wolfgang	-4085
ängen	-4086
▁auftrag	-4087
fil	-4088
▁nachfolge	-4089
▁euro	-4090
sprache	-4091
▁entlang	-4092
pfalz	-4093
ierenden	-4094
landes	-4095
▁wochen	-4096
läufer	-4097
▁hub	-4098
▁domin	-4099
▁blatt	-4100
▁societ	-4101
▁pau	-4102
▁aust	-4103
ustr	-4104
▁flü	-4105
.-	-4106
▁tim	-4107
icago	-4108
ey	-4109
▁prag	-4110
▁av	-4111
▁mas	-4112
▁wand	-4113
▁anal	-4114
anien	-4115
▁single	-4116
▁schwester	-4117
▁gal	-4118
auff	-4119
▁instit	-4120
▁spanien	-4121
lu	-4122
▁jurist	-4123
lieben	-4124
▁urkundlich	-4125
▁israel	-4126
▁anerk	-4127
abteilung	-4128
una	-4129
▁fakultät	-4130
ült	-4131
osa	-4132
▁bronzem	-4133
▁anna	-4134
▁wider	-4135
gerichtet	-4136
▁fertig	-4137
eta	-4138
▁jack	-4139
itzer	-4140
▁sold	-4141
eien	-4142
elli	-4143
▁zer	-4144
▁verfügt	-4145
iegen	-4146
ado	-4147
▁macht	-4148
oder	-4149
-00-	-4150
holz	-4151
▁übernommen	-4152
▁zusammenge	-4153
verbandes	-4154
▁kanada	-4155
ket	-4156
rück	-4157
▁aufl	-4158
zwischen	-4159
▁nationale	-4160
vin	-4161
▁mur	-4162
krank	-4163
▁entspringt	-4164
▁erstre	-4165
▁weniger	-4166
ünst	-4167
▁viertel	-4168
km	-4169
▁russland	-4170
▁tu	-4171
blätter	-4172
▁eint	-4173
▁kron	-4174
▁gespielt	-4175
ütte	-4176
▁geograph	-4177
▁stru	-4178
▁gewinnen	-4179
▁äußer	-4180
gy	-4181
agt	-4182
ziplin	-4183
museum	-4184
bas	-4185
ère	-4186
var	-4187
▁komposition	-4188
sekretär	-4189
jap	-4190
▁q	-4191
oche	-4192
wissenschaftler	-4193
dach	-4194
▁preußischen	-4195
▁(†	-4196
dungs	-4197
▁ster	-4198
▁kra	-4199
▁architekt	-4200
▁ker	-4201
geordne	-4202
▁verfasste	-4203
▁vertreten	-4204
▁klavier	-4205
lecht	-4206
▁cas	-4207
▁ehr	-4208
▁quadrat	-4209
verwaltung	-4210
fuß	-4211
▁amerikan	-4212
▁lake	-4213
▁qualifikation	-4214
flächen	-4215
▁rechte	-4216
▁gehörten	-4217
lat	-4218
▁vik	-4219
ior	-4220
wen	-4221
▁fehl	-4222
▁fen	-4223
stift	-4224
reisen	-4225
▁musikal	-4226
zählung	-4227
▁royal	-4228
sd	-4229
▁politisch	-4230
ommern	-4231
enter	-4232
▁daniel	-4233
▁kiel	-4234
▁feuer	-4235
nieder	-4236
▁welcher	-4237
col	-4238
hungs	-4239
▁sieger	-4240
▁bischofs	-4241
▁tage	-4242
gau	-4243
chan	-4244
iano	-4245
▁amerikanischen	-4246
▁leichtathletik	-4247
▁ram	-4248
▁rudolf	-4249
bay	-4250
sex	-4251
▁lehrte	-4252
eigt	-4253
azin	-4254
▁stet	-4255
anze	-4256
▁wild	-4257
eidung	-4258
theater	-4259
station	-4260
war	-4261
küste	-4262
▁architektur	-4263
00-	-4264
▁tele	-4265
▁ausschließlich	-4266
eins	-4267
▁geschütz	-4268
weiht	-4269
▁kopf	-4270
▁regional	-4271
▁gebir	-4272
hor	-4273
▁hill	-4274
kin	-4275
▁städt	-4276
ständige	-4277
▁pu	-4278
technik	-4279
▁landschafts	-4280
▁dur	-4281
▁carol	-4282
▁schulen	-4283
grenze	-4284
▁verwaltung	-4285
▁nürn	-4286
tels	-4287
▁festival	-4288
▁blei	-4289
▁tief	-4290
▁orig	-4291
▁kampf	-4292
▁lässt	-4293
angs	-4294
lad	-4295
▁nationalsozial	-4296
▁vierten	-4297
▁iv	-4298
▁speziel	-4299
wil	-4300
▁verstarb	-4301
▁society	-4302
▁politischen	-4303
▁parallel	-4304
▁lassen	-4305
▁universitäten	-4306
▁thr	-4307
haft	-4308
▁hessen	-4309
▁veranstalt	-4310
▁ther	-4311
ibliothek	-4312
▁mac	-4313
sberg	-4314
af	-4315
ierre	-4316
én	-4317
verteid	-4318
programm	-4319
▁emer	-4320
spielerin	-4321
▁anlage	-4322
▁heutige	-4323
▁polnischen	-4324
▁denn	-4325
▁göttingen	-4326
▁verbreitet	-4327
kultur	-4328
▁einzelnen	-4329
usion	-4330
▁diver	-4331
▁dauer	-4332
▁weltweit	-4333
▁aufgeführt	-4334
▁abgeordneten	-4335
lege	-4336
eisen	-4337
▁chicago	-4338
▁bem	-4339
▁gegründeten	-4340
▁erlang	-4341
oth	-4342
▁muse	-4343
▁jeder	-4344
▁schweden	-4345
▁hauptort	-4346
▁australien	-4347
▁lib	-4348
▁millimeter	-4349
gründer	-4350
asp	-4351
▁mindestens	-4352
▁rie	-4353
▁deutlich	-4354
▁gewonnen	-4355
▁spielten	-4356
▁tennis	-4357
▁arn	-4358
▁gesund	-4359
kunde	-4360
▁geschlossen	-4361
jew	-4362
▁rob	-4363
▁kons	-4364
hauptstadt	-4365
▁test	-4366
eilen	-4367
▁schwedischen	-4368
▁basel	-4369
▁durchmesser	-4370
▁licht	-4371
▁maschinen	-4372
▁academy	-4373
ode	-4374
ji	-4375
▁herrschaft	-4376
▁oscar	-4377
▁erfolgt	-4378
▁cont	-4379
▁gek	-4380
▁jen	-4381
kämpf	-4382
▁erklär	-4383
cia	-4384
punkte	-4385
▁vorgänger	-4386
iation	-4387
halte	-4388
▁konst	-4389
▁architekten	-4390
▁standard	-4391
▁prinz	-4392
▁apostol	-4393
aktion	-4394
▁gie	-4395
▁brachte	-4396
▁handels	-4397
row	-4398
▁abteilung	-4399
▁helm	-4400
▁spät	-4401
ianischen	-4402
weisen	-4403
▁kapelle	-4404
▁anzahl	-4405
▁paar	-4406
▁feier	-4407
▁[	-4408
versammlung	-4409
üfung	-4410
▁abgel	-4411
ín	-4412
▁cdu	-4413
ppen	-4414
▁hon	-4415
servatorium	-4416
▁dol	-4417
pedition	-4418
jährige	-4419
eland	-4420
gewicht	-4421
▁gefunden	-4422
▁gust	-4423
öz	-4424
halle	-4425
▁bildete	-4426
0-	-4427
▁aufgelöst	-4428
▁isl	-4429
▁ufer	-4430
rollen	-4431
▁distrikt	-4432
ep	-4433
ctic	-4434
▁kleiner	-4435
▁kart	-4436
▁debütierte	-4437
chter	-4438
krat	-4439
▁nahmen	-4440
▁mathematik	-4441
reußen	-4442
ional	-4443
▁eich	-4444
▁landschaft	-4445
▁verbin	-4446
▁portugies	-4447
bare	-4448
▁township	-4449
antin	-4450
▁santa	-4451
▁klin	-4452
▁gelegenen	-4453
▁jungen	-4454
arbeitet	-4455
▁arts	-4456
aw	-4457
real	-4458
▁cat	-4459
▁nächsten	-4460
▁mik	-4461
▁prot	-4462
denkmäler	-4463
ental	-4464
▁befas	-4465
▁geschrieben	-4466
hauses	-4467
▁herausgeber	-4468
▁master	-4469
dp	-4470
trainer	-4471
▁zuerst	-4472
▁gegensatz	-4473
▁vollständig	-4474
▁woll	-4475
isierte	-4476
▁slowak	-4477
▁andreas	-4478
▁abt	-4479
▁galt	-4480
▁geschaffen	-4481
▁tüb	-4482
ollar	-4483
▁nic	-4484
▁umbenannt	-4485
cklen	-4486
▁gebildet	-4487
▁westlichen	-4488
riebe	-4489
ran	-4490
▁zusammenarbeit	-4491
ühm	-4492
ets	-4493
.“	-4494
förmig	-4495
▁maur	-4496
direktor	-4497
▁großer	-4498
▁0:0-	-4499
▁alben	-4500
▁Öff	-4501
▁einfluss	-4502
▁mir	-4503
▁vaters	-4504
▁bevölkerungs	-4505
▁filmen	-4506
▁betriebs	-4507
▁weißen	-4508
eng	-4509
its	-4510
ky	-4511
▁vergeben	-4512
regierung	-4513
önig	-4514
▁gipfel	-4515
▁exper	-4516
kus	-4517
▁assistent	-4518
▁gouverneur	-4519
▁mexiko	-4520
▁deutschsprach	-4521
▁roten	-4522
▁umgebung	-4523
▁partner	-4524
zeugen	-4525
▁hielt	-4526
▁wahrscheinlich	-4527
▁kranken	-4528
▁ox	-4529
▁hekt	-4530
▁süda	-4531
leg	-4532
omb	-4533
entwick	-4534
▁ersetzt	-4535
ritte	-4536
▁bür	-4537
▁kantons	-4538
▁inseln	-4539
gol	-4540
▁farb	-4541
▁brandenburg	-4542
öhn	-4543
holm	-4544
▁forschung	-4545
amo	-4546
▁söhne	-4547
▁vis	-4548
serien	-4549
▁linie	-4550
▁stellen	-4551
▁"„	-4552
▁heißt	-4553
will	-4554
▁zerstört	-4555
nee	-4556
▁damen	-4557
▁penn	-4558
hochschule	-4559
▁griechischen	-4560
jor	-4561
arre	-4562
▁instr	-4563
deck	-4564
▁bronzemedaille	-4565
▁niederländ	-4566
▁weltkriegs	-4567
steiger	-4568
schließen	-4569
▁init	-4570
▁institute	-4571
tegr	-4572
▁erinner	-4573
oma	-4574
▁druck	-4575
▁fischer	-4576
▁mein	-4577
sender	-4578
▁müller	-4579
heute	-4580
▁hügel	-4581
dis	-4582
▁rem	-4583
▁spanischen	-4584
▁klub	-4585
fir	-4586
▁vide	-4587
▁organisation	-4588
stall	-4589
▁kompl	-4590
▁letzter	-4591
peratur	-4592
sprochen	-4593
wettbewerb	-4594
ques	-4595
▁verkehrs	-4596
ić	-4597
▁netz	-4598
▁barb	-4599
▁sozi	-4600
▁handball	-4601
▁wett	-4602
▁oblast	-4603
sey	-4604
wür	-4605
cklenburg	-4606
gi	-4607
▁ehefrau	-4608
kas	-4609
▁stimmen	-4610
▁version	-4611
russ	-4612
▁emerit	-4613
iki	-4614
▁leitet	-4615
eigen	-4616
britann	-4617
etern	-4618
▁kommunal	-4619
otball	-4620
▁keinen	-4621
▁verkauft	-4622
▁bauern	-4623
idt	-4624
▁sicht	-4625
omie	-4626
▁ländern	-4627
ando	-4628
▁trug	-4629
rät	-4630
▁che	-4631
▁grafen	-4632
és	-4633
chron	-4634
mün	-4635
stimm	-4636
▁umwelt	-4637
▁sprachen	-4638
ils	-4639
utn	-4640
▁filme	-4641
▁thema	-4642
▁geprägt	-4643
▁hinzu	-4644
▁ortschaften	-4645
▁polizei	-4646
▁meeres	-4647
▁marc	-4648
gangs	-4649
▁benach	-4650
▁römischen	-4651
höhe	-4652
▁fung	-4653
jahre	-4654
▁hilfe	-4655
▁größe	-4656
spekt	-4657
mühle	-4658
▁mess	-4659
odor	-4660
▁verwand	-4661
▁gewesen	-4662
▁athen	-4663
▁rechtsanwalt	-4664
▁bühnen	-4665
▁hom	-4666
amerika	-4667
▁reform	-4668
lassen	-4669
▁ide	-4670
▁führen	-4671
ppe	-4672
▁sm	-4673
▁wissenschaften	-4674
▁republ	-4675
▁breite	-4676
bor	-4677
sänger	-4678
▁cre	-4679
▁ausgeb	-4680
▁linken	-4681
▁000,	-4682
stedt	-4683
iedlung	-4684
▁künste	-4685
▁teams	-4686
▁wettbewerb	-4687
▁besa	-4688
▁zählen	-4689
steine	-4690
empl	-4691
fabrik	-4692
itu	-4693
tex	-4694
▁aben	-4695
▁beschrieben	-4696
▁gall	-4697
statt	-4698
▁flie	-4699
linder	-4700
emer	-4701
ischem	-4702
▁schleswig	-4703
▁gir	-4704
wn	-4705
▁bekannten	-4706
▁dunk	-4707
▁kämpf	-4708
setzen	-4709
▁meisterschaften	-4710
häuser	-4711
▁victor	-4712
igkeiten	-4713
▁bislang	-4714
▁gesp	-4715
äure	-4716
▁lux	-4717
▁gebiets	-4718
reihe	-4719
▁neuer	-4720
bul	-4721
▁bildhauer	-4722
ret	-4723
spe	-4724
▁berufs	-4725
▁verd	-4726
▁lieder	-4727
▁alfred	-4728
mith	-4729
amin	-4730
▁erfolge	-4731
periode	-4732
▁bres	-4733
▁verpflich	-4734
▁jes	-4735
▁villa	-4736
inter	-4737
ila	-4738
ourt	-4739
▁tiere	-4740
▁jakob	-4741
ritor	-4742
▁autoren	-4743
▁normal	-4744
▁bass	-4745
jan	-4746
syl	-4747
now	-4748
▁wähl	-4749
▁amateur	-4750
▁setzt	-4751
sal	-4752
▁eg	-4753
▁states	-4754
▁house	-4755
chte	-4756
▁anl	-4757
krä	-4758
städ	-4759
▁depart	-4760
kischen	-4761
▁metall	-4762
▁tübingen	-4763
ografie	-4764
seud	-4765
▁rollen	-4766
rock	-4767
▁norm	-4768
kow	-4769
▁benannte	-4770
▁volkszählung	-4771
gement	-4772
▁lief	-4773
▁stahl	-4774
▁verur	-4775
gebiete	-4776
▁studenten	-4777
▁großbritann	-4778
▁premier	-4779
▁nacht	-4780
▁hergestellt	-4781
fort	-4782
▁entdeck	-4783
▁unternehmens	-4784
istin	-4785
auben	-4786
▁ingen	-4787
richten	-4788
▁hafen	-4789
▁hektar	-4790
▁einwohnerzahl	-4791
▁anz	-4792
▁harr	-4793
▁henry	-4794
ée	-4795
rän	-4796
▁neuse	-4797
▁adam	-4798
▁mainz	-4799
▁rajon	-4800
▁adolf	-4801
club	-4802
▁nimmt	-4803
staates	-4804
▁getr	-4805
brücke	-4806
▁model	-4807
gymnasium	-4808
field	-4809
eral	-4810
stehen	-4811
▁angegeben	-4812
kopf	-4813
▁zugleich	-4814
sson	-4815
▁ensem	-4816
▁studio	-4817
hir	-4818
▁fürst	-4819
rot	-4820
itäten	-4821
▁neub	-4822
▁000-	-4823
ét	-4824
▁sammlung	-4825
ote	-4826
▁bahnstrecke	-4827
▁katholischen	-4828
wuchs	-4829
0.	-4830
born	-4831
▁grundlage	-4832
▁opt	-4833
▁luc	-4834
▁elis	-4835
pas	-4836
▁schach	-4837
▁englisch	-4838
▁asteroid	-4839
wan	-4840
▁größere	-4841
gliche	-4842
kurr	-4843
▁gelb	-4844
▁bunde	-4845
spiegel	-4846
offiz	-4847
▁wiederum	-4848
spru	-4849
gruppen	-4850
▁fell	-4851
▁beginnt	-4852
▁tok	-4853
▁Š	-4854
bauten	-4855
▁beein	-4856
▁sak	-4857
▁umfang	-4858
▁verbrachte	-4859
bücher	-4860
▁yo	-4861
▁sender	-4862
▁verwendung	-4863
▁bened	-4864
▁siegte	-4865
▁ü	-4866
agen	-4867
▁play	-4868
könig	-4869
▁transport	-4870
▁feder	-4871
▁desselben	-4872
pfl	-4873
rige	-4874
▁gelegene	-4875
send	-4876
▁elektr	-4877
otion	-4878
indungen	-4879
▁umf	-4880
lav	-4881
▁monte	-4882
▁beob	-4883
lehre	-4884
▁jede	-4885
▁herkunft	-4886
heimer	-4887
vania	-4888
▁berühm	-4889
▁ok	-4890
ändert	-4891
sph	-4892
▁cent	-4893
emark	-4894
▁britische	-4895
▁bob	-4896
unc	-4897
phen	-4898
fft	-4899
▁ident	-4900
erne	-4901
horn	-4902
opp	-4903
etscher	-4904
▁integr	-4905
▁teilnahme	-4906
▁spielklasse	-4907
▁energie	-4908
▁entsprechen	-4909
▁gelände	-4910
_00	-4911
▁lage	-4912
__	-4913
wander	-4914
▁refer	-4915
▁links	-4916
▁austra	-4917
▁edu	-4918
▁ken	-4919
baren	-4920
▁herbst	-4921
▁gründen	-4922
▁quer	-4923
abl	-4924
kal	-4925
gehen	-4926
richtungen	-4927
inde	-4928
usst	-4929
▁jeweiligen	-4930
▁por	-4931
▁defin	-4932
▁rio	-4933
▁forst	-4934
▁administ	-4935
hy	-4936
▁schö	-4937
▁such	-4938
▁werner	-4939
ela	-4940
▁genau	-4941
hungen	-4942
▁schwerpunkt	-4943
▁platten	-4944
▁weltkrieges	-4945
agement	-4946
▁°	-4947
urts	-4948
artet	-4949
▁ordens	-4950
▁geworden	-4951
sieg	-4952
▁stär	-4953
karriere	-4954
▁sar	-4955
▁atlant	-4956
garten	-4957
▁metro	-4958
straßen	-4959
wärt	-4960
▁association	-4961
▁liber	-4962
▁material	-4963
▁verlänger	-4964
▁tages	-4965
scht	-4966
▁länger	-4967
▁wettbewer	-4968
▁jag	-4969
▁erstreckt	-4970
▁erzb	-4971
ausbildung	-4972
▁gemeinder	-4973
▁blau	-4974
▁erscheint	-4975
▁ungefähr	-4976
geschäft	-4977
▁las	-4978
ikations	-4979
▁bart	-4980
▁grä	-4981
liefert	-4982
kunst	-4983
▁truppen	-4984
dist	-4985
▁folgt	-4986
▁frieden	-4987
▁opern	-4988
▁fritz	-4989
▁british	-4990
▁botschafter	-4991
▁bulgar	-4992
sylvania	-4993
▁inn	-4994
ielten	-4995
annter	-4996
▁vogel	-4997
▁sankt	-4998
wend	-4999
▁cir	-5000
graben	-5001
▁arbeiter	-5002
▁autobahn	-5003
zeitung	-5004
gagement	-5005
▁king	-5006
▁japanischen	-5007
ächt	-5008
▁dichter	-5009
▁ill	-5010
scheid	-5011
▁00:00	-5012
takt	-5013
▁halbfinale	-5014
derte	-5015
▁sowjetunion	-5016
ony	-5017
hofen	-5018
▁exempl	-5019
rechts	-5020
▁gru	-5021
▁bell	-5022
▁ordent	-5023
stände	-5024
▁fusion	-5025
▁erlangte	-5026
keits	-5027
behör	-5028
auern	-5029
▁‚	-5030
▁ruhestand	-5031
atik	-5032
▁amtszeit	-5033
ipend	-5034
eider	-5035
▁urugu	-5036
rimin	-5037
▁legisl	-5038
▁großbritannien	-5039
ichtete	-5040
▁benachbar	-5041
▁präsidenten	-5042
▁sum	-5043
ilien	-5044
leger	-5045
▁gründungs	-5046
hio	-5047
▁sab	-5048
▁rä	-5049
▁weist	-5050
struktur	-5051
▁unbek	-5052
▁umfasste	-5053
ict	-5054
▁zie	-5055
▁adels	-5056
▁kardinal	-5057
▁holl	-5058
vorsitzender	-5059
ördert	-5060
▁konfl	-5061
agne	-5062
▁konstru	-5063
▁brücke	-5064
holstein	-5065
maß	-5066
▁braunschwei	-5067
mitt	-5068
▁ferner	-5069
▁0:00	-5070
▁live	-5071
werks	-5072
▁weltcup	-5073
sky	-5074
▁label	-5075
▁gegeben	-5076
▁essen	-5077
▁regul	-5078
hlon	-5079
▁leistung	-5080
wor	-5081
▁dick	-5082
mehr	-5083
▁gestellt	-5084
▁sonder	-5085
mond	-5086
franz	-5087
ove	-5088
▁mary	-5089
▁rod	-5090
▁zwe	-5091
▁turn	-5092
▁mem	-5093
▁fahrzeug	-5094
▁hamburger	-5095
agn	-5096
▁rosen	-5097
▁ban	-5098
pal	-5099
icip	-5100
spl	-5101
▁fuhr	-5102
bern	-5103
ographie	-5104
▁östlichen	-5105
bür	-5106
stes	-5107
▁dro	-5108
einheit	-5109
öder	-5110
▁ungarn	-5111
▁hoher	-5112
leitung	-5113
▁angaben	-5114
izierte	-5115
ms	-5116
▁alpen	-5117
aden	-5118
sthe	-5119
▁garten	-5120
▁anfangs	-5121
▁nürnberg	-5122
▁quellen	-5123
▁minuten	-5124
▁durchgeführt	-5125
▁inzwischen	-5126
▁serv	-5127
inge	-5128
hte	-5129
▁gesamte	-5130
pers	-5131
lers	-5132
thur	-5133
▁lot	-5134
▁ot	-5135
▁kombin	-5136
renn	-5137
etzen	-5138
▁stan	-5139
▁unterhalb	-5140
legte	-5141
onne	-5142
turnier	-5143
▁monate	-5144
vertrag	-5145
▁basket	-5146
▁josé	-5147
▁ziv	-5148
▁leon	-5149
alp	-5150
chten	-5151
▁tritt	-5152
iwod	-5153
▁pos	-5154
▁sach	-5155
zeitschrift	-5156
ulen	-5157
▁vorher	-5158
▁denkmalschutz	-5159
▁lokal	-5160
gelassen	-5161
▁arab	-5162
▁relativ	-5163
▁ut	-5164
itor	-5165
▁durchschnitt	-5166
▁antrat	-5167
▁gitarr	-5168
▁gün	-5169
produktion	-5170
professor	-5171
▁verfol	-5172
▁verloren	-5173
▁italienische	-5174
raine	-5175
▁gran	-5176
▁gegründete	-5177
▁sogenannten	-5178
▁selbständ	-5179
▁eher	-5180
▁karlsru	-5181
sert	-5182
▁wichtige	-5183
▁oberen	-5184
▁beigesetzt	-5185
abschluss	-5186
▁chinesischen	-5187
▁problem	-5188
▁tode	-5189
▁gründer	-5190
▁früheren	-5191
mir	-5192
äger	-5193
▁reise	-5194
▁serien	-5195
wirt	-5196
▁deshalb	-5197
▁fisch	-5198
▁eingemein	-5199
zus	-5200
▁nav	-5201
anlagen	-5202
ía	-5203
elor	-5204
igr	-5205
inett	-5206
▁gustav	-5207
▁schmal	-5208
▁woiwod	-5209
ehr	-5210
witz	-5211
▁dub	-5212
.000	-5213
igungs	-5214
▁).	-5215
▁wichtigsten	-5216
atischen	-5217
vereins	-5218
▁nebenfluss	-5219
anda	-5220
▁×	-5221
chem	-5222
▁ausgewiesen	-5223
▁hersteller	-5224
bewegung	-5225
▁hess	-5226
zog	-5227
mete	-5228
▁que	-5229
prä	-5230
alliga	-5231
ban	-5232
▁quelle	-5233
▁lehrstuhl	-5234
fäh	-5235
▁tar	-5236
schwer	-5237
ión	-5238
assungs	-5239
▁erhält	-5240
▁ring	-5241
▁pennsylvania	-5242
▁pok	-5243
arzt	-5244
bungen	-5245
▁erzähl	-5246
schel	-5247
ku	-5248
▁größeren	-5249
▁mecklenburg	-5250
istisch	-5251
▁christoph	-5252
▁tha	-5253
▁silbermedaille	-5254
▁profess	-5255
setzte	-5256
▁fein	-5257
ilian	-5258
▁älteste	-5259
▁aussch	-5260
▁dänemark	-5261
▁company	-5262
▁flügel	-5263
▁metho	-5264
dienste	-5265
▁beklei	-5266
▁geburts	-5267
▁orchester	-5268
▁konzentr	-5269
arf	-5270
ral	-5271
▁football	-5272
▁zeitpunkt	-5273
▁ethn	-5274
manns	-5275
▁by	-5276
▁geborene	-5277
▁sängerin	-5278
▁mod	-5279
ato	-5280
▁ingenieur	-5281
▁deleg	-5282
▁reser	-5283
▁rap	-5284
▁vorname	-5285
▁darm	-5286
▁fund	-5287
aug	-5288
rates	-5289
▁gefähr	-5290
sträger	-5291
ftware	-5292
▁heimatstadt	-5293
▁grafschaft	-5294
werbe	-5295
kore	-5296
▁leop	-5297
▁bildung	-5298
▁ergebnisse	-5299
eitungs	-5300
▁laufe	-5301
omet	-5302
yo	-5303
▁log	-5304
▁punkten	-5305
pon	-5306
▁columb	-5307
▁kos	-5308
▁promotion	-5309
▁aufgaben	-5310
verfahren	-5311
▁rau	-5312
▁kub	-5313
▁eingestellt	-5314
shire	-5315
kunden	-5316
▁weltmeister	-5317
geln	-5318
▁dritt	-5319
▁verhält	-5320
organisation	-5321
▁demokratischen	-5322
industrie	-5323
▁tanz	-5324
▁genommen	-5325
utnant	-5326
▁verbindet	-5327
▁sogar	-5328
▁kulturg	-5329
vp	-5330
▁gesamten	-5331
▁route	-5332
ris	-5333
bogen	-5334
▁kosten	-5335
▁marie	-5336
ctor	-5337
▁litau	-5338
▁sollen	-5339
sende	-5340
verlag	-5341
zeichnungen	-5342
▁gas	-5343
macht	-5344
musiker	-5345
blatt	-5346
▁andr	-5347
▁auszeichnung	-5348
idae	-5349
▁mön	-5350
▁kurze	-5351
▁pas	-5352
▁einheit	-5353
▁stiftung	-5354
▁würz	-5355
demokrat	-5356
▁empfing	-5357
▁nam	-5358
▁verantwortlich	-5359
verteidiger	-5360
zene	-5361
▁sprint	-5362
df	-5363
bal	-5364
hop	-5365
▁zuständig	-5366
ero	-5367
kauf	-5368
▁brie	-5369
▁schuf	-5370
▁priesterweihe	-5371
▁edward	-5372
uen	-5373
bad	-5374
▁akadem	-5375
▁lehre	-5376
▁bedeutend	-5377
gebirge	-5378
▁angeboten	-5379
ierende	-5380
pla	-5381
▁präfekt	-5382
lichkeiten	-5383
ordin	-5384
▁teilen	-5385
▁anderer	-5386
▁streit	-5387
baden	-5388
▁indien	-5389
▁fernsehserie	-5390
▁klaus	-5391
▁ele	-5392
jun	-5393
▁bos	-5394
adel	-5395
hoe	-5396
öss	-5397
▁benedikt	-5398
ni	-5399
▁computer	-5400
▁konzert	-5401
▁krei	-5402
▁emil	-5403
▁'	-5404
ödie	-5405
▁dahin	-5406
anische	-5407
▁marine	-5408
▁vorwiegend	-5409
▁poly	-5410
▁krist	-5411
aust	-5412
achus	-5413
▁zusammenhang	-5414
▁historiker	-5415
lehn	-5416
achten	-5417
▁gottes	-5418
▁sod	-5419
gelegt	-5420
▁eingeführt	-5421
▁lager	-5422
▁pseud	-5423
▁erhoben	-5424
onien	-5425
▁amster	-5426
▁fels	-5427
laden	-5428
geg	-5429
bast	-5430
marathon	-5431
▁offiziell	-5432
▁habilitierte	-5433
ova	-5434
vest	-5435
▁hauptrolle	-5436
ante	-5437
▁seither	-5438
▁langer	-5439
xis	-5440
handlung	-5441
▁wm	-5442
▁betre	-5443
oslaw	-5444
istums	-5445
▁uruguay	-5446
▁wirk	-5447
▁ruf	-5448
▁gewinn	-5449
▁erhö	-5450
▁evangelischen	-5451
bark	-5452
rist	-5453
länge	-5454
▁lernte	-5455
▁lind	-5456
▁straß	-5457
üst	-5458
▁entspricht	-5459
▁salzburg	-5460
▁abst	-5461
rum	-5462
schm	-5463
urf	-5464
äter	-5465
itts	-5466
-0000	-5467
▁umfassen	-5468
▁vort	-5469
▁hotel	-5470
▁kolle	-5471
▁unterstützt	-5472
▁senat	-5473
▁law	-5474
▁aufs	-5475
▁epis	-5476
▁kindern	-5477
▁black	-5478
▁varian	-5479
iedelt	-5480
▁jedes	-5481
▁historische	-5482
▁elisabeth	-5483
▁revolution	-5484
▁fahrzeuge	-5485
▁eingetragen	-5486
haltung	-5487
▁europe	-5488
▁einst	-5489
ologen	-5490
▁ukrain	-5491
▁ss	-5492
ales	-5493
▁auswahl	-5494
▁auflösung	-5495
gor	-5496
▁machen	-5497
fallen	-5498
▁engagement	-5499
arbeitung	-5500
olit	-5501
▁besaß	-5502
▁ausgabe	-5503
▁stadion	-5504
beg	-5505
▁braunschweig	-5506
▁wagen	-5507
▁jon	-5508
owa	-5509
▁pen	-5510
▁dortigen	-5511
schauer	-5512
▁fle	-5513
vide	-5514
▁graz	-5515
▁krank	-5516
pat	-5517
▁wahlbezirk	-5518
achusetts	-5519
▁verfügung	-5520
▁disk	-5521
▁len	-5522
▁kenn	-5523
▁box	-5524
▁diöz	-5525
nast	-5526
▁dritter	-5527
bruck	-5528
▁aufbau	-5529
▁dig	-5530
▁wies	-5531
fur	-5532
▁einzug	-5533
▁smith	-5534
▁rückkehr	-5535
▁landtagswahl	-5536
▁darstellung	-5537
▁städtischen	-5538
ador	-5539
▁science	-5540
bie	-5541
ario	-5542
▁sus	-5543
▁güter	-5544
ingenieur	-5545
▁wahlen	-5546
rechend	-5547
▁veranst	-5548
▁pfarrer	-5549
emann	-5550
funktion	-5551
▁basketball	-5552
▁scott	-5553
▁kennen	-5554
▁ergebnis	-5555
▁brasilien	-5556
▁holte	-5557
▁virgin	-5558
▁arzt	-5559
▁natür	-5560
▁rostock	-5561
▁zeitschriften	-5562
▁magde	-5563
dinand	-5564
▁außerhalb	-5565
istan	-5566
▁Öffent	-5567
▁rechten	-5568
chern	-5569
▁jüdischen	-5570
▁besser	-5571
▁serb	-5572
▁oberst	-5573
▁univers	-5574
▁champion	-5575
bürgermeister	-5576
0)	-5577
apt	-5578
tend	-5579
▁australischen	-5580
▁ng	-5581
▁kanadischen	-5582
krit	-5583
▁ergän	-5584
▁verstorben	-5585
▁000)	-5586
▁legislatur	-5587
iguren	-5588
▁drehbuchautor	-5589
kurrenz	-5590
kilom	-5591
▁mensch	-5592
▁fass	-5593
derungen	-5594
markt	-5595
oret	-5596
zell	-5597
▁dj	-5598
▁leopold	-5599
▁pfer	-5600
▁000,0	-5601
▁beglei	-5602
weile	-5603
▁englische	-5604
ology	-5605
▁viol	-5606
▁weiterer	-5607
arischen	-5608
▁rats	-5609
▁zugeordnet	-5610
▁errichtete	-5611
sam	-5612
▁widmete	-5613
▁cy	-5614
ksam	-5615
ves	-5616
▁woiwodschaft	-5617
▁popul	-5618
fußball	-5619
otten	-5620
▁fenster	-5621
▁frucht	-5622
▁hard	-5623
ther	-5624
flügel	-5625
▁erweitert	-5626
▁patri	-5627
ocken	-5628
inzen	-5629
▁are	-5630
▁cd	-5631
▁zweier	-5632
stlicher	-5633
anen	-5634
▁allein	-5635
bn	-5636
oden	-5637
▁augen	-5638
schie	-5639
stellten	-5640
▁müssen	-5641
▁präsent	-5642
▁altern	-5643
▁rundfunk	-5644
▁sign	-5645
▁errang	-5646
ati	-5647
▁corn	-5648
▁begrün	-5649
aro	-5650
waff	-5651
fb	-5652
rh	-5653
orfen	-5654
▁junge	-5655
▁hit	-5656
▁fünften	-5657
ester	-5658
▁alp	-5659
▁sul	-5660
▁dozent	-5661
▁armen	-5662
vater	-5663
san	-5664
▁wis	-5665
▁aufnahme	-5666
▁frühjahr	-5667
emente	-5668
aga	-5669
liter	-5670
▁nennt	-5671
▁oben	-5672
eicher	-5673
▁staatlichen	-5674
wechs	-5675
▁ohio	-5676
inseln	-5677
▁sommerspielen	-5678
▁eber	-5679
ckel	-5680
änen	-5681
▁ebene	-5682
▁lam	-5683
new	-5684
spartei	-5685
mu	-5686
▁jug	-5687
▁landtags	-5688
▁rückt	-5689
▁greg	-5690
stags	-5691
▁ortsteile	-5692
▁bestätig	-5693
esco	-5694
▁bernhard	-5695
▁formel	-5696
▁internet	-5697
▁center	-5698
▁grei	-5699
▁texas	-5700
▁jahrzehn	-5701
▁strom	-5702
legung	-5703
eidet	-5704
▁tru	-5705
▁profession	-5706
▁mittlerweile	-5707
▁nied	-5708
▁heer	-5709
▁aufnahmen	-5710
▁stammte	-5711
▁mid	-5712
▁administrat	-5713
▁group	-5714
olo	-5715
▁show	-5716
▁landgemeinde	-5717
vard	-5718
▁unterrichtete	-5719
gebracht	-5720
▁eigentlich	-5721
tu	-5722
▁saß	-5723
ioren	-5724
chner	-5725
▁disziplin	-5726
▁tsch	-5727
anzig	-5728
era	-5729
vention	-5730
▁ross	-5731
▁auflage	-5732
▁justiz	-5733
▁amsterdam	-5734
ello	-5735
kammer	-5736
▁kö	-5737
braun	-5738
lö	-5739
▁jacob	-5740
orenz	-5741
owski	-5742
▁mittels	-5743
kö	-5744
▁gepl	-5745
mas	-5746
formen	-5747
▁francisco	-5748
▁mittleren	-5749
▁zählte	-5750
wes	-5751
▁kontin	-5752
syn	-5753
▁barcel	-5754
ema	-5755
halts	-5756
▁vorstands	-5757
▁stunden	-5758
▁kader	-5759
äb	-5760
▁horn	-5761
▁struktur	-5762
▁tat	-5763
▁datum	-5764
pommern	-5765
ards	-5766
▁back	-5767
nischen	-5768
ständigen	-5769
▁bilder	-5770
produktionen	-5771
▁trocken	-5772
▁auton	-5773
eiro	-5774
▁ukraine	-5775
nissen	-5776
▁orche	-5777
▁gericht	-5778
▁Übersetz	-5779
linois	-5780
▁zeitweise	-5781
bauer	-5782
▁gefangen	-5783
alax	-5784
▁türkei	-5785
▁besitzen	-5786
▁gelegentlich	-5787
yse	-5788
▁schein	-5789
bc	-5790
filmen	-5791
▁schaffte	-5792
▁bab	-5793
isa	-5794
▁belegt	-5795
▁pian	-5796
▁luxem	-5797
berecht	-5798
▁ferdinand	-5799
▁aachen	-5800
schi	-5801
anhalt	-5802
▁pfarrkirche	-5803
▁dün	-5804
▁departament	-5805
▁prop	-5806
▁nachwuchs	-5807
▁stei	-5808
▁herausgegeben	-5809
unterricht	-5810
▁russische	-5811
osse	-5812
ardo	-5813
reichen	-5814
▁bachelor	-5815
▁ev	-5816
▁feierte	-5817
sprung	-5818
▁east	-5819
kol	-5820
▁big	-5821
ädchen	-5822
▁sendung	-5823
baum	-5824
▁werken	-5825
▁mündung	-5826
bund	-5827
iter	-5828
hre	-5829
gow	-5830
▁municip	-5831
netz	-5832
graf	-5833
▁pir	-5834
▁benutzt	-5835
▁oberhalb	-5836
▁karlsruhe	-5837
▁stau	-5838
▁wit	-5839
mens	-5840
spitze	-5841
▁verwaltungssitz	-5842
hler	-5843
tre	-5844
▁bestandteil	-5845
▁wiederhol	-5846
▁richt	-5847
regisseur	-5848
▁doktor	-5849
▁synchron	-5850
▁cop	-5851
▁gerhard	-5852
▁pow	-5853
filme	-5854
▁ermittel	-5855
▁begrenz	-5856
▁franç	-5857
tri	-5858
▁fas	-5859
blick	-5860
▁line	-5861
iar	-5862
olley	-5863
izenz	-5864
▁pens	-5865
▁green	-5866
▁elektro	-5867
▁ähnlich	-5868
staffel	-5869
▁gemacht	-5870
▁entstamm	-5871
amat	-5872
ümer	-5873
plätze	-5874
äusern	-5875
stete	-5876
▁""	-5877
igan	-5878
▁belgien	-5879
▁bischofsweihe	-5880
asien	-5881
▁geweiht	-5882
▁lar	-5883
▁zerstör	-5884
▁goldmedaille	-5885
ühlen	-5886
▁wenigen	-5887
▁elektron	-5888
▁englischer	-5889
▁rektor	-5890
▁corps	-5891
▁dekan	-5892
▁katal	-5893
▁territor	-5894
▁spitze	-5895
alliste	-5896
immel	-5897
▁départements	-5898
vorstand	-5899
▁erle	-5900
altete	-5901
▁engel	-5902
▁imm	-5903
▁sonst	-5904
stliche	-5905
▁mannschafts	-5906
▁ud	-5907
▁darin	-5908
▁brüder	-5909
▁sir	-5910
▁pädagog	-5911
nungs	-5912
);	-5913
▁thüringen	-5914
zz	-5915
▁massachusetts	-5916
▁rücken	-5917
▁österreichische	-5918
ów	-5919
▁breiten	-5920
▁verlei	-5921
▁syd	-5922
owen	-5923
ters	-5924
yle	-5925
entral	-5926
stiftung	-5927
▁anschließen	-5928
borg	-5929
rian	-5930
▁gingen	-5931
▁seen	-5932
▁abstieg	-5933
▁erde	-5934
alth	-5935
▁vorbei	-5936
imen	-5937
):	-5938
orten	-5939
▁schwarzen	-5940
▁landkreises	-5941
▁schmidt	-5942
▁kilometern	-5943
▁küste	-5944
ftet	-5945
▁sec	-5946
mauer	-5947
▁kaum	-5948
meer	-5949
▁geburt	-5950
ito	-5951
▁geld	-5952
▁mussten	-5953
mannschaften	-5954
denburg	-5955
yk	-5956
servat	-5957
onia	-5958
▁unterschrieb	-5959
beruf	-5960
▁krieges	-5961
▁niedersachsen	-5962
▁carolina	-5963
auftrag	-5964
▁produzierte	-5965
▁krä	-5966
iellen	-5967
ife	-5968
anche	-5969
▁weiler	-5970
▁são	-5971
▁norwegen	-5972
windigkeit	-5973
▁präfektur	-5974
▁pierre	-5975
alle	-5976
▁weiteres	-5977
▁sonnen	-5978
zylinder	-5979
▁divis	-5980
ript	-5981
▁hoff	-5982
leist	-5983
▁unver	-5984
ès	-5985
▁kurt	-5986
▁anteil	-5987
▁barcelona	-5988
▁dänischen	-5989
▁inns	-5990
gg	-5991
schwe	-5992
▁tun	-5993
▁jena	-5994
▁theodor	-5995
▁final	-5996
▁ray	-5997
▁unterlag	-5998
▁einzigen	-5999
▁sang	-6000
▁porträt	-6001
▁design	-6002
▁fraktion	-6003
endes	-6004
▁koch	-6005
▁ermöglich	-6006
anger	-6007
▁inszen	-6008
▁margar	-6009
▁vierte	-6010
▁katholische	-6011
▁afr	-6012
▁kel	-6013
▁lee	-6014
tv	-6015
▁gewicht	-6016
star	-6017
▁tragen	-6018
▁genannten	-6019
förmigen	-6020
ista	-6021
▁ereig	-6022
üll	-6023
rechte	-6024
abgeordne	-6025
rig	-6026
▁vill	-6027
ird	-6028
▁gewerk	-6029
▁unterstützung	-6030
▁verschiedener	-6031
▁seg	-6032
▁neues	-6033
▁simon	-6034
auté	-6035
ras	-6036
jähriger	-6037
hai	-6038
▁tschechos	-6039
▁fungierte	-6040
▁palä	-6041
-0-	-6042
genöss	-6043
nd	-6044
▁schr	-6045
▁wachsen	-6046
▁entsteht	-6047
▁angelegt	-6048
reiben	-6049
zin	-6050
pfen	-6051
achim	-6052
▁reihen	-6053
stab	-6054
rin	-6055
bron	-6056
konse	-6057
▁lokomot	-6058
▁matth	-6059
▁breslau	-6060
▁boch	-6061
xen	-6062
ourn	-6063
▁türkischen	-6064
hilfe	-6065
burgh	-6066
deutschland	-6067
▁kassel	-6068
▁allgemeinen	-6069
gab	-6070
essel	-6071
ürgen	-6072
▁würzburg	-6073
alifornia	-6074
▁beschäftigte	-6075
▁flächen	-6076
pokal	-6077
▁boston	-6078
▁kw	-6079
hielt	-6080
ti	-6081
konsekrat	-6082
well	-6083
▁reicht	-6084
▁heinz	-6085
▁küsten	-6086
▁träger	-6087
▁standort	-6088
▁herstellung	-6089
onto	-6090
▁virginia	-6091
weite	-6092
▁ell	-6093
▁produktions	-6094
▁kommune	-6095
zuf	-6096
▁illinois	-6097
▁bewaff	-6098
▁stefan	-6099
schieden	-6100
▁gesang	-6101
▁fürsten	-6102
lar	-6103
▁nachrichten	-6104
bildungs	-6105
▁chron	-6106
▁mitbe	-6107
anna	-6108
vey	-6109
▁dreimal	-6110
assist	-6111
▁mitkonsekrat	-6112
▁eck	-6113
▁challen	-6114
änglich	-6115
▁redakteur	-6116
▁budap	-6117
▁dissert	-6118
▁ausgestrahl	-6119
aufnahmen	-6120
▁versehen	-6121
▁bekanntesten	-6122
zenten	-6123
▁om	-6124
▁gehen	-6125
kloster	-6126
▁kontr	-6127
▁ausschuss	-6128
▁linz	-6129
▁traten	-6130
arktischen	-6131
ährt	-6132
quert	-6133
▁tschechoslowak	-6134
▁;	-6135
got	-6136
anal	-6137
kov	-6138
sprecher	-6139
illon	-6140
▁glie	-6141
iy	-6142
▁camb	-6143
▁Überg	-6144
▁det	-6145
projekt	-6146
▁stattfin	-6147
▁leistungen	-6148
män	-6149
stücke	-6150
▁still	-6151
▁indem	-6152
▁myth	-6153
durch	-6154
▁Öl	-6155
orgung	-6156
upper	-6157
dh	-6158
▁ausgestat	-6159
▁ausland	-6160
▁stol	-6161
▁auto	-6162
liefer	-6163
▁wollte	-6164
barkeit	-6165
▁württemberg	-6166
aya	-6167
gült	-6168
▁sche	-6169
▁baute	-6170
▁straf	-6171
▁neust	-6172
entin	-6173
▁verlegt	-6174
bezirks	-6175
▁weimar	-6176
▁vul	-6177
▁halbinsel	-6178
rol	-6179
▁flach	-6180
▁expedition	-6181
▁marien	-6182
ufe	-6183
▁stockholm	-6184
▁mult	-6185
▁technik	-6186
▁lübeck	-6187
▁abschnitt	-6188
▁schu	-6189
jahres	-6190
▁jugoslaw	-6191
▁julius	-6192
▁lad	-6193
▁urs	-6194
▁pokal	-6195
▁party	-6196
▁bewohner	-6197
▁bestimmt	-6198
▁kleinere	-6199
italien	-6200
asa	-6201
werken	-6202
mes	-6203
▁weih	-6204
▁krimin	-6205
geschrieben	-6206
▁unteren	-6207
press	-6208
bek	-6209
▁cla	-6210
▁championship	-6211
ône	-6212
▁donau	-6213
▁konflik	-6214
▁gewannen	-6215
▁web	-6216
▁französisch	-6217
▁besondere	-6218
anke	-6219
▁zeichen	-6220
katholischen	-6221
▁scheiter	-6222
esearch	-6223
▁spendete	-6224
beam	-6225
▁mailand	-6226
dor	-6227
▁zivil	-6228
▁unternehmer	-6229
appe	-6230
▁weitgehend	-6231
apel	-6232
▁stimm	-6233
gie	-6234
▁hierbei	-6235
▁studiums	-6236
▁bekleidete	-6237
debüt	-6238
körper	-6239
ez	-6240
stadion	-6241
ido	-6242
▁gelten	-6243
▁nichts	-6244
▁long	-6245
▁vereine	-6246
spor	-6247
▁gatt	-6248
strecken	-6249
udes	-6250
urz	-6251
athar	-6252
▁counc	-6253
tau	-6254
▁auseinander	-6255
▁kais	-6256
anzer	-6257
grenzen	-6258
▁dokumentar	-6259
▁sig	-6260
▁fotograf	-6261
▁kie	-6262
▁beach	-6263
▁gezeigt	-6264
schreibung	-6265
ikon	-6266
phia	-6267
stellers	-6268
grad	-6269
▁eingerichtet	-6270
aria	-6271
dichte	-6272
▁zo	-6273
ittee	-6274
▁ulrich	-6275
cer	-6276
▁volksschule	-6277
daktion	-6278
▁beeinfl	-6279
▁ped	-6280
hyd	-6281
aker	-6282
anga	-6283
zit	-6284
fon	-6285
▁original	-6286
▁rumänien	-6287
ehmen	-6288
stechn	-6289
▁zeigen	-6290
▁viz	-6291
▁kreises	-6292
ligen	-6293
▁übertragen	-6294
ugo	-6295
ängt	-6296
▁darmstadt	-6297
händ	-6298
▁software	-6299
▁wach	-6300
▁ortsname	-6301
ischö	-6302
▁madrid	-6303
▁highway	-6304
▁has	-6305
▁verste	-6306
französ	-6307
my	-6308
▁gemäß	-6309
▁alexand	-6310
phan	-6311
▁islam	-6312
gal	-6313
▁frem	-6314
▁portugal	-6315
▁verfahren	-6316
▁verlassen	-6317
▁vari	-6318
▁bin	-6319
▁schriften	-6320
ändern	-6321
▁bildungs	-6322
▁video	-6323
▁status	-6324
hoff	-6325
git	-6326
▁monat	-6327
▁rekord	-6328
▁columbia	-6329
gelegen	-6330
oli	-6331
▁ess	-6332
strahlung	-6333
▁california	-6334
▁winterspielen	-6335
▁road	-6336
ativen	-6337
linge	-6338
▁mission	-6339
▁schä	-6340
▁ce	-6341
mot	-6342
ring	-6343
▁jüdische	-6344
bundesstaat	-6345
▁dargestellt	-6346
▁magdeburg	-6347
▁griechen	-6348
heil	-6349
▁erhielten	-6350
ulpt	-6351
ferenz	-6352
▁beschreibt	-6353
▁späten	-6354
klein	-6355
▁schottischen	-6356
entwicklung	-6357
bö	-6358
ularb	-6359
▁vel	-6360
▁sekretär	-6361
▁antonio	-6362
▁habe	-6363
▁mauer	-6364
▁wör	-6365
▁songs	-6366
▁junior	-6367
zif	-6368
▁instituts	-6369
air	-6370
▁aktiven	-6371
▁jüng	-6372
viertel	-6373
▁pek	-6374
▁verbesser	-6375
▁fac	-6376
länder	-6377
view	-6378
▁innsbruck	-6379
▁modern	-6380
▁schwier	-6381
▁repräsent	-6382
▁atp	-6383
ault	-6384
▁kamera	-6385
▁mathematiker	-6386
▁bundestag	-6387
▁eröffnete	-6388
ikanische	-6389
saison	-6390
▁möglicher	-6391
terie	-6392
▁gebracht	-6393
▁ausgew	-6394
▁soldaten	-6395
▁häuser	-6396
▁blut	-6397
▁michel	-6398
orien	-6399
▁sprecher	-6400
▁din	-6401
wall	-6402
felder	-6403
▁entscheiden	-6404
▁bä	-6405
auten	-6406
▁tats	-6407
fo	-6408
▁produzent	-6409
▁saar	-6410
▁plätze	-6411
▁denkm	-6412
▁eingemeindet	-6413
ás	-6414
unnel	-6415
▁öffentlich	-6416
▁sau	-6417
▁bib	-6418
▁invest	-6419
▁research	-6420
▁paz	-6421
▁mechan	-6422
umente	-6423
gens	-6424
▁brook	-6425
imme	-6426
gür	-6427
▁gegend	-6428
omer	-6429
▁wag	-6430
▁interess	-6431
stätten	-6432
▁geschäftsführer	-6433
▁florida	-6434
▁lautet	-6435
▁rail	-6436
▁trag	-6437
▁behandel	-6438
kolle	-6439
äne	-6440
▁eingegliedert	-6441
▁diplomat	-6442
▁verbands	-6443
besitz	-6444
▁botan	-6445
▁orden	-6446
▁orten	-6447
anni	-6448
▁budapest	-6449
▁dissertation	-6450
teau	-6451
▁vereinigung	-6452
eisch	-6453
verl	-6454
deutsche	-6455
▁führten	-6456
▁betreibt	-6457
▁hieß	-6458
dollar	-6459
▁engagierte	-6460
▁befest	-6461
▁grünen	-6462
▁marburg	-6463
▁kalk	-6464
herren	-6465
▁augsburg	-6466
▁sebast	-6467
▁gene	-6468
ram	-6469
▁tempel	-6470
..	-6471
ariat	-6472
▁liebe	-6473
tellit	-6474
olleyball	-6475
▁arthur	-6476
▁weisen	-6477
tl	-6478
▁hab	-6479
▁wiederauf	-6480
▁sex	-6481
alis	-6482
▁asien	-6483
▁front	-6484
arte	-6485
▁spir	-6486
ères	-6487
▁hop	-6488
▁opp	-6489
▁stoff	-6490
▁luxemburg	-6491
▁anh	-6492
▁baron	-6493
▁bundesstaates	-6494
gas	-6495
ape	-6496
▁sodass	-6497
liegenden	-6498
cons	-6499
▁wood	-6500
oul	-6501
▁bat	-6502
esien	-6503
ío	-6504
▁blues	-6505
▁manch	-6506
▁alph	-6507
▁cur	-6508
orchester	-6509
▁objekt	-6510
▁kanz	-6511
▁komponisten	-6512
ziger	-6513
schlä	-6514
schine	-6515
üge	-6516
spir	-6517
ielle	-6518
wettbewer	-6519
▁geg	-6520
skir	-6521
▁gehalten	-6522
pu	-6523
roffen	-6524
ence	-6525
gem	-6526
▁zunehmen	-6527
▁erwachsen	-6528
▁verpflichtet	-6529
ania	-6530
▁erober	-6531
abet	-6532
▁fellow	-6533
cal	-6534
phys	-6535
geschlagen	-6536
▁wächst	-6537
ár	-6538
klus	-6539
führte	-6540
igem	-6541
enhagen	-6542
▁voraus	-6543
▁indian	-6544
redakteur	-6545
ellschaften	-6546
gewäch	-6547
produzent	-6548
▁nationalpark	-6549
▁kroat	-6550
▁western	-6551
▁sound	-6552
▁regionalliga	-6553
▁kabinett	-6554
▁erscheinen	-6555
cs	-6556
▁klosters	-6557
▁cer	-6558
▁entschied	-6559
oni	-6560
▁besitzer	-6561
spruch	-6562
▁dorfes	-6563
▁firmen	-6564
▁hochschullehrer	-6565
oz	-6566
▁aqu	-6567
▁lor	-6568
▁museums	-6569
▁meistertitel	-6570
ips	-6571
▁jura	-6572
▁ensemble	-6573
▁wupper	-6574
▁strecken	-6575
▁malerei	-6576
▁anwalt	-6577
▁dunkel	-6578
▁hunder	-6579
osen	-6580
▁wirkung	-6581
▁brown	-6582
▁geben	-6583
▁mes	-6584
zeugt	-6585
dehn	-6586
ürzt	-6587
▁städten	-6588
▁formen	-6589
▁radsport	-6590
▁niederlage	-6591
ehl	-6592
ätigkeit	-6593
▁reichen	-6594
▁flusses	-6595
staaten	-6596
nummer	-6597
tret	-6598
▁kugel	-6599
hp	-6600
▁landrat	-6601
▁flugzeug	-6602
▁töchter	-6603
▁satz	-6604
▁freie	-6605
hart	-6606
▁vie	-6607
aceae	-6608
ernen	-6609
▁weich	-6610
schulen	-6611
▁besatz	-6612
erz	-6613
▁klar	-6614
ingham	-6615
▁tschechien	-6616
tour	-6617
▁kle	-6618
▁reaktion	-6619
▁ful	-6620
▁vizepräsident	-6621
▁kurzen	-6622
▁besetzung	-6623
iell	-6624
▁redu	-6625
nor	-6626
▁mix	-6627
tages	-6628
▁hels	-6629
▁sächsischen	-6630
▁ständ	-6631
▁past	-6632
▁abger	-6633
▁roll	-6634
▁inneren	-6635
undet	-6636
merksam	-6637
lose	-6638
▁(),	-6639
▁wod	-6640
organ	-6641
modell	-6642
ütt	-6643
berlin	-6644
▁films	-6645
0,	-6646
▁völ	-6647
▁mannheim	-6648
partei	-6649
kräfte	-6650
▁dun	-6651
yan	-6652
rischen	-6653
▁archiv	-6654
▁klassen	-6655
steuer	-6656
▁anders	-6657
▁synag	-6658
▁begonnen	-6659
turm	-6660
▁dire	-6661
▁letzt	-6662
eira	-6663
▁rab	-6664
arctic	-6665
▁ty	-6666
ramm	-6667
dre	-6668
▁games	-6669
dessen	-6670
▁besetzt	-6671
▁lem	-6672
▁einführung	-6673
▁veränder	-6674
▁könn	-6675
farben	-6676
linien	-6677
▁kun	-6678
weiß	-6679
▁anne	-6680
▁nad	-6681
▁Äg	-6682
weiler	-6683
▁figur	-6684
▁herbert	-6685
▁ath	-6686
▁may	-6687
jen	-6688
platten	-6689
▁bundesstraße	-6690
▁aufmerksam	-6691
oto	-6692
▁mädchen	-6693
alom	-6694
▁tirol	-6695
▁abschloss	-6696
katholische	-6697
▁sogenannte	-6698
leistung	-6699
▁betrach	-6700
▁künstlern	-6701
▁„"	-6702
▁instrument	-6703
▁naturdenkmale	-6704
rücken	-6705
▁russischer	-6706
▁mitgliedern	-6707
▁schreib	-6708
▁erstbe	-6709
code	-6710
▁bundesrepublik	-6711
version	-6712
mil	-6713
▁cru	-6714
▁dörfer	-6715
▁erreichten	-6716
arz	-6717
▁renov	-6718
aqu	-6719
▁ron	-6720
uz	-6721
wel	-6722
bec	-6723
beding	-6724
bundesliga	-6725
▁earl	-6726
phil	-6727
▁mandat	-6728
▁misch	-6729
konstru	-6730
▁entsprechend	-6731
ethe	-6732
utzen	-6733
eck	-6734
kul	-6735
festival	-6736
▁förder	-6737
archiv	-6738
anbul	-6739
▁gerade	-6740
▁nachge	-6741
iö	-6742
▁mars	-6743
▁communauté	-6744
▁dra	-6745
▁führung	-6746
▁staates	-6747
zenen	-6748
▁schiffe	-6749
▁guten	-6750
zirke	-6751
ivals	-6752
▁entstehen	-6753
▁tä	-6754
▁fab	-6755
▁offizier	-6756
▁medaille	-6757
▁dial	-6758
ija	-6759
▁konf	-6760
▁preußen	-6761
▁sais	-6762
▁solche	-6763
▁ausgestrahlt	-6764
▁gh	-6765
▁prix	-6766
▁rücktritt	-6767
hardt	-6768
▁geh	-6769
▁lew	-6770
▁sed	-6771
▁beck	-6772
vens	-6773
▁kent	-6774
▁kä	-6775
▁vergangen	-6776
▁ner	-6777
ava	-6778
▁gedre	-6779
ässlich	-6780
darsteller	-6781
▁schlug	-6782
▁zuschauer	-6783
▁tokio	-6784
▁stattf	-6785
▁grau	-6786
vir	-6787
▁sciences	-6788
▁jud	-6789
ause	-6790
▁neur	-6791
▁zurzeit	-6792
typ	-6793
reiche	-6794
iii	-6795
zone	-6796
▁sydney	-6797
)-	-6798
ax	-6799
▁opfer	-6800
▁deutschlands	-6801
rü	-6802
gypt	-6803
riffen	-6804
▁communes	-6805
▁biat	-6806
▁übersetzt	-6807
▁krie	-6808
aku	-6809
▁möglicherweise	-6810
▁klassischen	-6811
oh	-6812
▁gefär	-6813
präsidenten	-6814
▁slowen	-6815
ump	-6816
fels	-6817
bein	-6818
platte	-6819
“"	-6820
▁ausgestattet	-6821
▁kob	-6822
▁ansäss	-6823
▁beam	-6824
mär	-6825
ynam	-6826
▁germanistik	-6827
▁standen	-6828
▁sowjetischen	-6829
▁dienen	-6830
▁medaillen	-6831
firma	-6832
▁endgült	-6833
ersdorf	-6834
▁neuseeland	-6835
ebene	-6836
▁norwegischen	-6837
▁etabl	-6838
▁eduard	-6839
▁posit	-6840
▁committee	-6841
▁gesamtwertung	-6842
▁oxford	-6843
▁astronomen	-6844
▁pod	-6845
▁evangelische	-6846
▁volksrepublik	-6847
bahnhof	-6848
kanal	-6849
▁erbau	-6850
jekten	-6851
▁widerstand	-6852
▁extr	-6853
kapelle	-6854
öch	-6855
leutnant	-6856
▁central	-6857
▁nap	-6858
▁engagiert	-6859
▁abgeb	-6860
politik	-6861
lass	-6862
▁gute	-6863
▁zulassung	-6864
board	-6865
kriegs	-6866
wäl	-6867
größ	-6868
▁ruhr	-6869
staats	-6870
▁schild	-6871
dient	-6872
▁juan	-6873
▁sz	-6874
igent	-6875
▁unabhängigkeit	-6876
cz	-6877
▁auftritt	-6878
▁benachbarten	-6879
pil	-6880
▁kür	-6881
▁franzis	-6882
▁oberliga	-6883
▁ten	-6884
▁manchmal	-6885
gewächse	-6886
▁europäische	-6887
▁runden	-6888
inus	-6889
▁schle	-6890
▁stab	-6891
arrei	-6892
▁irland	-6893
vereinigung	-6894
istr	-6895
anischer	-6896
▁bauwerk	-6897
kommission	-6898
etzten	-6899
▁gemeinderat	-6900
▁alters	-6901
▁verhin	-6902
▁südwest	-6903
▁ältesten	-6904
▁weihbischof	-6905
▁gesundheit	-6906
owitsch	-6907
bezeichnung	-6908
▁kulturgüter	-6909
▁mio	-6910
▁partien	-6911
▁kopenhagen	-6912
▁barr	-6913
freien	-6914
▁street	-6915
▁antarctic	-6916
ßig	-6917
▁mund	-6918
flüsse	-6919
▁ngc	-6920
▁symbol	-6921
itän	-6922
▁qualifizierten	-6923
ianischer	-6924
▁russisch	-6925
▁jersey	-6926
hon	-6927
▁rol	-6928
uropa	-6929
▁getrennt	-6930
cor	-6931
▁nac	-6932
▁begeg	-6933
behörde	-6934
▁bang	-6935
nastie	-6936
▁aufgelistet	-6937
gebieten	-6938
▁gang	-6939
▁südkore	-6940
▁hem	-6941
▁pots	-6942
prov	-6943
inental	-6944
pret	-6945
älde	-6946
weder	-6947
gebietes	-6948
ilde	-6949
emeister	-6950
▁älteren	-6951
ühren	-6952
▁eigenes	-6953
▁münchner	-6954
▁erzbistum	-6955
▁bör	-6956
wechselt	-6957
▁mühl	-6958
▁linien	-6959
rix	-6960
▁dv	-6961
forscher	-6962
journ	-6963
▁beziehungs	-6964
▁zell	-6965
▁pension	-6966
▁bochum	-6967
▁spätere	-6968
▁(0000,	-6969
▁informationen	-6970
▁trier	-6971
▁modernen	-6972
ienne	-6973
▁sha	-6974
grä	-6975
▁now	-6976
rt	-6977
ffekt	-6978
▁rest	-6979
▁verkaufte	-6980
▁dortmund	-6981
sko	-6982
urs	-6983
▁angehörte	-6984
erseits	-6985
▁gewässer	-6986
▁ri	-6987
▁erzie	-6988
▁angesehen	-6989
▁förderung	-6990
▁gramm	-6991
▁cam	-6992
00.	-6993
▁dagegen	-6994
▁theologe	-6995
▁distri	-6996
▁anlässlich	-6997
hütte	-6998
▁portugiesischen	-6999
hedr	-7000
▁pie	-7001
ophon	-7002
▁texte	-7003
▁automobilen	-7004
▁konrad	-7005
▁aktuell	-7006
▁golf	-7007
▁trieb	-7008
▁kil	-7009
▁heißen	-7010
▁erinnert	-7011
▁peking	-7012
▁temperatur	-7013
▁kongresswahlen	-7014
▁klassische	-7015
▁infolge	-7016
▁az	-7017
bibliothek	-7018
▁pul	-7019
ourne	-7020
historiker	-7021
video	-7022
▁aufgabe	-7023
▁laub	-7024
nik	-7025
aki	-7026
▁anth	-7027
▁schall	-7028
äte	-7029
▁sinne	-7030
ünstler	-7031
▁zweitligisten	-7032
▁orchestra	-7033
▁nahezu	-7034
aufen	-7035
▁halten	-7036
riss	-7037
▁titularb	-7038
▁teils	-7039
▁gon	-7040
▁sogn	-7041
▁erfahr	-7042
strom	-7043
▁löste	-7044
alem	-7045
▁barock	-7046
▁jürgen	-7047
▁diözese	-7048
▁schnitt	-7049
▁zurückge	-7050
▁inde	-7051
▁charts	-7052
▁höl	-7053
▁imp	-7054
▁litt	-7055
politiker	-7056
▁brüssel	-7057
▁posten	-7058
▁sollten	-7059
▁tisch	-7060
▁mühle	-7061
▁offizielle	-7062
▁leistungs	-7063
▁abgeschlossen	-7064
höch	-7065
▁liv	-7066
sul	-7067
▁wales	-7068
sexamen	-7069
▁produkt	-7070
▁bewaffneten	-7071
▁hält	-7072
regel	-7073
bilder	-7074
▁kleineren	-7075
▁südafrika	-7076
▁austragung	-7077
▁joachim	-7078
out	-7079
▁pot	-7080
▁freier	-7081
▁tol	-7082
▁ersatz	-7083
▁mehrheit	-7084
ader	-7085
▁pin	-7086
gebiets	-7087
▁bereichen	-7088
▁bistums	-7089
▁gemeinschaft	-7090
▁schottland	-7091
▁00)	-7092
▁bühne	-7093
▁zufluss	-7094
ogt	-7095
▁königlichen	-7096
bury	-7097
▁balt	-7098
weltmeister	-7099
▁departamento	-7100
▁lehn	-7101
▁glauben	-7102
▁spanischer	-7103
leten	-7104
▁bands	-7105
▁belieb	-7106
ais	-7107
▁diet	-7108
zeuger	-7109
▁mittelfeld	-7110
▁anwendung	-7111
▁pseudonym	-7112
▁öffentliche	-7113
oro	-7114
▁navy	-7115
▁weise	-7116
▁ord	-7117
▁komponierte	-7118
▁quell	-7119
▁schreiben	-7120
▁erkrank	-7121
▁wohnhaus	-7122
▁evangelisch	-7123
▁stadtbezirk	-7124
▁sara	-7125
▁ky	-7126
▁herzogt	-7127
furter	-7128
▁konservatorium	-7129
hörigen	-7130
▁laur	-7131
▁typs	-7132
▁(00.	-7133
▁istanbul	-7134
▁ausstellung	-7135
▁konflikten	-7136
▁publikum	-7137
kern	-7138
▁bam	-7139
▁emp	-7140
▁qualifizierte	-7141
amann	-7142
wirtschafts	-7143
▁guts	-7144
tirol	-7145
kla	-7146
▁cra	-7147
▁entweder	-7148
▁sonn	-7149
▁quadratkilom	-7150
▁lande	-7151
▁politikerin	-7152
▁niederlanden	-7153
usa	-7154
echnet	-7155
▁fahrer	-7156
▁giov	-7157
iative	-7158
▁hallen	-7159
éd	-7160
▁zimmer	-7161
▁beziehungsweise	-7162
zeichnis	-7163
quenz	-7164
▁verstär	-7165
▁deck	-7166
▁befördert	-7167
▁gemeinsamen	-7168
friedhof	-7169
ows	-7170
▁bucht	-7171
saint	-7172
journal	-7173
▁belgischen	-7174
runden	-7175
▁aufgestellt	-7176
▁angeschlossen	-7177
▁solo	-7178
▁davis	-7179
▁stipend	-7180
imir	-7181
▁existiert	-7182
▁pak	-7183
▁moderne	-7184
rennfahrer	-7185
weltcup	-7186
▁beiträge	-7187
▁pont	-7188
ängnis	-7189
▁saisonen	-7190
▁jackson	-7191
intern	-7192
▁außerorden	-7193
kette	-7194
▁spricht	-7195
▁benutz	-7196
ifik	-7197
issar	-7198
▁yor	-7199
▁unbekannt	-7200
▁juden	-7201
▁anhand	-7202
▁wuppertal	-7203
▁benöt	-7204
▁block	-7205
▁kooper	-7206
mod	-7207
▁zeiten	-7208
▁komplex	-7209
▁kommission	-7210
▁beziehungen	-7211
▁rin	-7212
spd	-7213
oven	-7214
rochen	-7215
▁infan	-7216
▁erfolgten	-7217
ausch	-7218
▁warschau	-7219
▁behör	-7220
▁kirchspiel	-7221
▁möglichkeit	-7222
leit	-7223
▁france	-7224
▁konzept	-7225
▁befasste	-7226
anch	-7227
illy	-7228
▁ordnung	-7229
schied	-7230
▁viertelfinale	-7231
fahrts	-7232
▁unterteilt	-7233
▁labor	-7234
▁bester	-7235
▁pfarrei	-7236
▁lett	-7237
elles	-7238
:"	-7239
oß	-7240
▁höchst	-7241
▁vorgesehen	-7242
geld	-7243
▁vene	-7244
▁sinn	-7245
▁scheiterte	-7246
hus	-7247
▁sper	-7248
▁mitbegründer	-7249
▁großes	-7250
▁sternbild	-7251
▁williams	-7252
▁bekannter	-7253
▁aar	-7254
▁schreibt	-7255
verbindung	-7256
▁erich	-7257
pass	-7258
▁kem	-7259
rekord	-7260
▁daran	-7261
aiss	-7262
▁online	-7263
ging	-7264
▁vern	-7265
▁erwähnung	-7266
▁kupfer	-7267
▁niederlande	-7268
div	-7269
▁intens	-7270
spann	-7271
kw	-7272
führten	-7273
▁böhm	-7274
brand	-7275
▁wodurch	-7276
▁basiert	-7277
▁register	-7278
ärn	-7279
▁zeitgenöss	-7280
▁krat	-7281
▁chir	-7282
▁presse	-7283
▁series	-7284
▁vorkommen	-7285
▁human	-7286
▁wetter	-7287
▁entfernung	-7288
ippe	-7289
▁aufgebaut	-7290
▁haut	-7291
▁acker	-7292
prüfung	-7293
▁petersburg	-7294
▁erstligisten	-7295
tro	-7296
eder	-7297
▁interesse	-7298
▁nacional	-7299
ländischen	-7300
atoren	-7301
▁white	-7302
▁hubraum	-7303
▁class	-7304
▁ungarischen	-7305
uppen	-7306
▁vorber	-7307
▁spielzeiten	-7308
ilen	-7309
kurz	-7310
▁mans	-7311
▁stür	-7312
üllt	-7313
dner	-7314
▁pä	-7315
losen	-7316
▁niger	-7317
▁mut	-7318
▁bogen	-7319
▁professur	-7320
“).	-7321
▁erhebung	-7322
▁endet	-7323
nennung	-7324
▁ruder	-7325
sm	-7326
fle	-7327
aufführ	-7328
inki	-7329
▁jesu	-7330
teils	-7331
▁versicher	-7332
▁toronto	-7333
alo	-7334
max	-7335
urer	-7336
▁sauer	-7337
▁staatsexamen	-7338
▁schie	-7339
mitglieder	-7340
bell	-7341
alerie	-7342
ändische	-7343
▁dennoch	-7344
▁kontakt	-7345
▁naturpark	-7346
schei	-7347
▁berge	-7348
mut	-7349
▁verhältnis	-7350
edig	-7351
▁burgen	-7352
cast	-7353
▁cambridge	-7354
▁cab	-7355
▁río	-7356
delte	-7357
schnitts	-7358
▁betätig	-7359
▁organisiert	-7360
▁begrenzt	-7361
wein	-7362
▁council	-7363
förmige	-7364
▁gemark	-7365
boot	-7366
dan	-7367
▁zy	-7368
▁entlassen	-7369
ansas	-7370
▁ski	-7371
▁erfor	-7372
fraktion	-7373
fertigt	-7374
owo	-7375
▁griff	-7376
▁sechsten	-7377
▁leo	-7378
cio	-7379
dat	-7380
▁ausgebildet	-7381
ätte	-7382
▁hay	-7383
▁jones	-7384
alaxie	-7385
▁angl	-7386
▁kaufmann	-7387
ouv	-7388
▁ich	-7389
ason	-7390
▁flag	-7391
stellungs	-7392
▁vizemeister	-7393
▁tam	-7394
▁bremer	-7395
christ	-7396
▁befind	-7397
▁fei	-7398
ragen	-7399
▁anti	-7400
ray	-7401
▁bestimmten	-7402
▁königsberg	-7403
frü	-7404
▁amp	-7405
▁weber	-7406
▁regensburg	-7407
kres	-7408
▁olympia	-7409
▁mittlere	-7410
él	-7411
olaus	-7412
▁liefer	-7413
▁apostolischen	-7414
▁siegen	-7415
▁zumeist	-7416
▁ört	-7417
▁management	-7418
▁fußballnational	-7419
gh	-7420
best	-7421
▁bewegung	-7422
▁fabrik	-7423
▁zeitraum	-7424
▁cross	-7425
▁gemeinsame	-7426
dio	-7427
▁mis	-7428
▁nennen	-7429
▁debütalbum	-7430
▁königin	-7431
alte	-7432
etsch	-7433
▁major	-7434
raten	-7435
▁episoden	-7436
▁ax	-7437
regues	-7438
▁00000	-7439
▁schwedischer	-7440
kennen	-7441
kämpfe	-7442
▁dramat	-7443
ty	-7444
▁kolon	-7445
▁jeden	-7446
▁spielfilm	-7447
▁polnischer	-7448
▁todes	-7449
▁vii	-7450
rauch	-7451
üne	-7452
▁neustadt	-7453
gouverneur	-7454
▁(0.	-7455
▁beher	-7456
▁erlangen	-7457
▁schei	-7458
▁pur	-7459
arbeitete	-7460
▁indischen	-7461
steigen	-7462
harm	-7463
▁jagd	-7464
▁powiat	-7465
▁liegenden	-7466
▁centre	-7467
▁prozess	-7468
archite	-7469
pton	-7470
▁auftritte	-7471
▁tabelle	-7472
gern	-7473
itat	-7474
▁bezieht	-7475
▁eingang	-7476
▁völker	-7477
▁stadtrat	-7478
▁dreie	-7479
▁notwend	-7480
▁tiefe	-7481
stimmung	-7482
dru	-7483
▁viktor	-7484
▁indones	-7485
ops	-7486
▁boot	-7487
mi	-7488
rey	-7489
▁zugelassen	-7490
kirch	-7491
▁oberösterreich	-7492
▁spieltag	-7493
jugend	-7494
▁schneider	-7495
▁waffen	-7496
besitzer	-7497
redit	-7498
▁etappe	-7499
▁diverse	-7500
▁theat	-7501
▁neum	-7502
▁okres	-7503
ausstellung	-7504
ikal	-7505
fü	-7506
▁hugo	-7507
▁brust	-7508
▁potsdam	-7509
▁spitzen	-7510
comm	-7511
▁südost	-7512
▁entwicklungs	-7513
skl	-7514
wach	-7515
▁adr	-7516
▁buk	-7517
▁luther	-7518
ifiziert	-7519
▁helsinki	-7520
▁mineral	-7521
ausschusses	-7522
regiment	-7523
figur	-7524
france	-7525
▁ard	-7526
▁hamm	-7527
▁unten	-7528
▁install	-7529
ough	-7530
reibung	-7531
▁franken	-7532
▁dy	-7533
bass	-7534
uert	-7535
▁lizenz	-7536
▁hingegen	-7537
ütten	-7538
▁entwässer	-7539
ikanischer	-7540
brü	-7541
halter	-7542
östlichen	-7543
▁nick	-7544
cole	-7545
ehrt	-7546
▁stets	-7547
▁bibliothek	-7548
attet	-7549
▁existieren	-7550
▁tay	-7551
▁grad	-7552
pan	-7553
apie	-7554
▁andrew	-7555
aude	-7556
▁joe	-7557
▁berater	-7558
hersteller	-7559
imetern	-7560
▁samuel	-7561
▁parteien	-7562
▁eugen	-7563
▁kaisers	-7564
▁vertrieben	-7565
</	-7566
öll	-7567
verg	-7568
onischen	-7569
▁mikro	-7570
bacher	-7571
▁argentinien	-7572
anisch	-7573
▁regionen	-7574
stanz	-7575
▁verzeichnet	-7576
bahnen	-7577
gb	-7578
▁00–00	-7579
▁spann	-7580
olen	-7581
▁komplett	-7582
▁philadel	-7583
▁kulturdenkmale	-7584
▁anf	-7585
▁mak	-7586
▁bezug	-7587
▁kolumb	-7588
▁regionalen	-7589
▁bergen	-7590
▁marathon	-7591
▁sah	-7592
▁kölner	-7593
▁saisonende	-7594
olas	-7595
fassung	-7596
▁tourismus	-7597
▁fernsehserien	-7598
aissance	-7599
zeichnete	-7600
▁stattfinden	-7601
rö	-7602
▁anges	-7603
▁würde	-7604
▁schwanz	-7605
pfäl	-7606
▁traf	-7607
iro	-7608
▁leistete	-7609
▁denkmalliste	-7610
ual	-7611
▁mond	-7612
▁unabhängig	-7613
liegen	-7614
▁kore	-7615
hou	-7616
hodo	-7617
kont	-7618
ific	-7619
▁rub	-7620
▁kulturdenkmäler	-7621
▁michigan	-7622
dom	-7623
▁polnische	-7624
▁pflanzenart	-7625
▁stephan	-7626
geboren	-7627
swahlen	-7628
▁nationen	-7629
äudes	-7630
▁corpor	-7631
▁freder	-7632
▁venedig	-7633
endungen	-7634
▁blätter	-7635
▁einzelne	-7636
ems	-7637
▁bauten	-7638
▁erfolgen	-7639
▁nehmen	-7640
front	-7641
änner	-7642
▁universitäts	-7643
erson	-7644
▁verdienste	-7645
ragt	-7646
▁kathar	-7647
▁reste	-7648
eicht	-7649
▁Ägyp	-7650
orig	-7651
rund	-7652
▁stadtgebiet	-7653
▁koordin	-7654
platzierten	-7655
▁pel	-7656
▁sun	-7657
▁fär	-7658
▁inschrift	-7659
▁starken	-7660
▁technische	-7661
ili	-7662
zwe	-7663
▁freiwill	-7664
▁synagoge	-7665
gewöhn	-7666
stoffe	-7667
tliche	-7668
▁daraus	-7669
▁autonomen	-7670
uhr	-7671
▁barbara	-7672
▁ausdruck	-7673
magazin	-7674
gungs	-7675
ywood	-7676
▁redaktion	-7677
▁gebiete	-7678
▁py	-7679
▁magazin	-7680
schauspieler	-7681
mand	-7682
▁einzugs	-7683
▁helmut	-7684
▁hessischen	-7685
▁fertiggestellt	-7686
pd	-7687
etti	-7688
änkischen	-7689
zahlen	-7690
▁kurfür	-7691
konkurrenz	-7692
▁genf	-7693
zum	-7694
▁ausger	-7695
▁philadelphia	-7696
ütze	-7697
elten	-7698
ror	-7699
▁common	-7700
ík	-7701
▁jetzt	-7702
mass	-7703
sand	-7704
▁Öffentlichkeit	-7705
▁she	-7706
eten	-7707
tner	-7708
▁exemplare	-7709
▁wesentlichen	-7710
▁einrichtung	-7711
▁verfassungs	-7712
stattung	-7713
▁fachwerk	-7714
,"	-7715
▁siedlungs	-7716
▁ursprünglichen	-7717
▁saal	-7718
▁enkel	-7719
▁kasach	-7720
vik	-7721
▁hl	-7722
uta	-7723
ologisch	-7724
▁umst	-7725
▁gau	-7726
sheim	-7727
ringen	-7728
▁arnold	-7729
▁Än	-7730
geblich	-7731
▁erklärt	-7732
▁afrika	-7733
rel	-7734
sendung	-7735
paar	-7736
teams	-7737
▁skulpt	-7738
▁tonnen	-7739
▁philologie	-7740
▁nächste	-7741
ré	-7742
baus	-7743
▁kim	-7744
grie	-7745
ori	-7746
▁bom	-7747
zens	-7748
▁synth	-7749
▁unterscheiden	-7750
▁höheren	-7751
nab	-7752
▁hilfs	-7753
▁ris	-7754
▁church	-7755
einheiten	-7756
▁ret	-7757
kturen	-7758
ordens	-7759
artigen	-7760
▁uci	-7761
teile	-7762
▁sud	-7763
▁ehrenamt	-7764
provinz	-7765
▁interpret	-7766
ifiz	-7767
haben	-7768
▁pho	-7769
▁päp	-7770
spur	-7771
▁funktionen	-7772
landschaft	-7773
spolit	-7774
kurs	-7775
▁brief	-7776
▁bedeutende	-7777
▁geistlicher	-7778
rd	-7779
sdap	-7780
▁autorin	-7781
▁bestätigt	-7782
▁you	-7783
▁geplant	-7784
ifa	-7785
▁vorsitzende	-7786
▁profi	-7787
▁spanische	-7788
marsch	-7789
▁kommand	-7790
▁giovanni	-7791
▁young	-7792
▁finnland	-7793
▁zahn	-7794
▁neubau	-7795
rica	-7796
mos	-7797
let	-7798
▁nikola	-7799
istischer	-7800
▁fragen	-7801
▁zeigte	-7802
▁kanadischer	-7803
▁hauses	-7804
tur	-7805
-000-	-7806
tür	-7807
▁ig	-7808
ienen	-7809
ückt	-7810
▁nutzung	-7811
▁[]	-7812
▁erworben	-7813
▁hc	-7814
hrop	-7815
▁versuchte	-7816
bon	-7817
▁sozialdemokrat	-7818
▁hören	-7819
umenten	-7820
▁matthias	-7821
▁variante	-7822
▁ganze	-7823
alais	-7824
▁antiken	-7825
▁harvard	-7826
▁frühere	-7827
vall	-7828
yen	-7829
stär	-7830
▁massen	-7831
▁fro	-7832
isburg	-7833
▁bezeichnete	-7834
gon	-7835
sil	-7836
▁offiziellen	-7837
aner	-7838
instr	-7839
linger	-7840
ém	-7841
bestand	-7842
▁publiz	-7843
▁doug	-7844
abt	-7845
▁buen	-7846
▁leit	-7847
▁krankenhaus	-7848
hügel	-7849
▁bruch	-7850
▁näher	-7851
ikum	-7852
ädagoge	-7853
dozent	-7854
▁anschließenden	-7855
formation	-7856
▁pariser	-7857
ls	-7858
veranstalt	-7859
▁zentralen	-7860
▁Är	-7861
▁entdeckte	-7862
brochen	-7863
▁gefärbt	-7864
ouri	-7865
▁ausstellungen	-7866
frikanischen	-7867
olis	-7868
▁stücke	-7869
▁astronom	-7870
▁griechenland	-7871
▁trin	-7872
▁unterstellt	-7873
bre	-7874
▁tob	-7875
▁gegner	-7876
▁geriet	-7877
aktiv	-7878
sperre	-7879
▁figuren	-7880
ssystem	-7881
▁leiden	-7882
▁stattfand	-7883
ikas	-7884
▁result	-7885
▁mä	-7886
▁private	-7887
bayern	-7888
züge	-7889
groß	-7890
▁bert	-7891
▁lac	-7892
▁drehte	-7893
▁gesetzt	-7894
▁schlech	-7895
isation	-7896
kos	-7897
▁industr	-7898
handlungen	-7899
▁weinbau	-7900
▁cle	-7901
house	-7902
▁sees	-7903
▁awards	-7904
▁district	-7905
▁auftreten	-7906
▁verurteilt	-7907
▁lands	-7908
▁carlos	-7909
▁meyer	-7910
gru	-7911
gänge	-7912
▁japanische	-7913
shö	-7914
▁spielern	-7915
▁well	-7916
▁denk	-7917
▁conc	-7918
▁finnischen	-7919
▁interessen	-7920
▁janeiro	-7921
▁protest	-7922
wege	-7923
▁weiße	-7924
▁auswärt	-7925
iede	-7926
▁kriegsende	-7927
frank	-7928
▁abgeleitet	-7929
öck	-7930
▁división	-7931
lim	-7932
▁stich	-7933
▁erfolgl	-7934
ücksicht	-7935
▁befasst	-7936
weist	-7937
geschlecht	-7938
alpes	-7939
▁victoria	-7940
▁tot	-7941
räume	-7942
bourne	-7943
▁().	-7944
▁jedem	-7945
▁verlags	-7946
▁versetzt	-7947
versicher	-7948
▁net	-7949
▁sg	-7950
händler	-7951
▁volleyball	-7952
dez	-7953
artige	-7954
▁amerikanische	-7955
▁spiegel	-7956
hain	-7957
ssitz	-7958
▁olympias	-7959
▁kost	-7960
▁ausnahme	-7961
sing	-7962
hold	-7963
usalem	-7964
▁theorie	-7965
▁sebastian	-7966
))	-7967
▁achter	-7968
▁mehrmals	-7969
▁gesundheits	-7970
▁ni	-7971
▁sag	-7972
reisträger	-7973
ppel	-7974
▁hagen	-7975
indungs	-7976
oko	-7977
▁metal	-7978
▁weibchen	-7979
weiten	-7980
▁verha	-7981
▁keller	-7982
▁aur	-7983
chi	-7984
▁witten	-7985
▁ec	-7986
▁how	-7987
▁anwesen	-7988
klub	-7989
teilen	-7990
▁erkennen	-7991
▁european	-7992
▁haushalte	-7993
▁bestimmte	-7994
legenheiten	-7995
▁verpas	-7996
haven	-7997
▁pad	-7998
▁überliefert	-7999
illes	-8000
▁zwischenzeit	-8001
▁büro	-8002
medizin	-8003
▁beru	-8004
▁hundert	-8005
▁übrigen	-8006
▁schwedische	-8007
▁nsdap	-8008
▁chefredakteur	-8009
▁chile	-8010
ivid	-8011
▁dieter	-8012
▁oze	-8013
▁gestaltet	-8014
▁sicherheit	-8015
▁ä	-8016
▁turin	-8017
▁kreu	-8018
boden	-8019
kreise	-8020
hs	-8021
▁Äm	-8022
▁geschw	-8023
hes	-8024
kins	-8025
kungen	-8026
▁unternahm	-8027
mach	-8028
▁krim	-8029
wilhelm	-8030
brun	-8031
▁staff	-8032
▁sort	-8033
▁pi	-8034
▁mi	-8035
▁reduz	-8036
▁nannte	-8037
▁nation	-8038
verkehrs	-8039
▁allgemeine	-8040
sburger	-8041
▁einheiten	-8042
ross	-8043
inte	-8044
▁aufz	-8045
▁jänner	-8046
fälischen	-8047
▁lebensmittel	-8048
werte	-8049
▁pyr	-8050
▁felsen	-8051
▁tall	-8052
edo	-8053
▁gedichte	-8054
▁act	-8055
▁romane	-8056
▁pred	-8057
▁abgeordnete	-8058
can	-8059
▁sy	-8060
wahr	-8061
▁dru	-8062
eigent	-8063
kes	-8064
▁farm	-8065
▁metropolit	-8066
▁kurzfilm	-8067
▁gros	-8068
▁lagen	-8069
▁luis	-8070
▁gießen	-8071
adi	-8072
westlich	-8073
▁hild	-8074
▁satellit	-8075
▁agr	-8076
▁flüss	-8077
▁schützen	-8078
tags	-8079
▁0.0	-8080
chor	-8081
ziehen	-8082
▁viert	-8083
▁johnson	-8084
uba	-8085
▁farbe	-8086
bers	-8087
geschwindigkeit	-8088
▁chemische	-8089
▁gewähl	-8090
▁personal	-8091
▁säm	-8092
räuch	-8093
▁ernennung	-8094
▁internationaler	-8095
▁getragen	-8096
▁berücksicht	-8097
▁beinhal	-8098
macher	-8099
▁geheim	-8100
▁ti	-8101
▁aufgeteilt	-8102
▁absolvieren	-8103
▁dal	-8104
▁schick	-8105
reb	-8106
hörige	-8107
▁privaten	-8108
▁kanal	-8109
▁tet	-8110
▁himmel	-8111
▁kandidierte	-8112
tim	-8113
▁eh	-8114
▁Übersetzung	-8115
vern	-8116
▁comic	-8117
▁unweit	-8118
▁athleten	-8119
▁math	-8120
nische	-8121
▁laus	-8122
iction	-8123
idad	-8124
▁veranstaltungen	-8125
▁spezialisiert	-8126
▁carr	-8127
theorie	-8128
▁syr	-8129
▁leuch	-8130
rs	-8131
▁__	-8132
hamm	-8133
▁bog	-8134
rus	-8135
▁oberfläche	-8136
pft	-8137
steinen	-8138
▁historic	-8139
▁gedreht	-8140
▁hauptgür	-8141
▁kul	-8142
▁anat	-8143
▁geeig	-8144
gletscher	-8145
▁gottfried	-8146
▁verkörper	-8147
phie	-8148
edit	-8149
ingu	-8150
quer	-8151
▁heb	-8152
igungen	-8153
▁fällt	-8154
▁antike	-8155
▁könnte	-8156
▁liss	-8157
sicher	-8158
folg	-8159
äufer	-8160
▁manager	-8161
schild	-8162
▁mythologie	-8163
▁gemeindeverband	-8164
sw	-8165
eman	-8166
verhält	-8167
franken	-8168
reste	-8169
▁albrecht	-8170
▁pokals	-8171
▁pres	-8172
fenster	-8173
▁ermittelt	-8174
▁alles	-8175
▁kleinstadt	-8176
adbach	-8177
▁nordwest	-8178
▁miteinander	-8179
hire	-8180
▁konstantin	-8181
▁rose	-8182
▁übte	-8183
literatur	-8184
▁skis	-8185
▁oliv	-8186
deckt	-8187
zentrums	-8188
entschieden	-8189
▁aufgeb	-8190
ains	-8191
▁qualität	-8192
▁anim	-8193
atisch	-8194
ioden	-8195
kohol	-8196
▁sax	-8197
ätten	-8198
▁fehlen	-8199
▁erstaus	-8200
▁nachgewiesen	-8201
▁rote	-8202
▁if	-8203
▁stellung	-8204
athan	-8205
▁sieb	-8206
▁farben	-8207
amts	-8208
mess	-8209
▁haft	-8210
charts	-8211
▁ral	-8212
ippen	-8213
▁schaffen	-8214
▁teilnehmen	-8215
▁theoret	-8216
pert	-8217
▁asp	-8218
▁bewer	-8219
▁errichtung	-8220
▁spekt	-8221
▁korres	-8222
▁zustand	-8223
▁eigenständige	-8224
▁erfolgreichen	-8225
▁erfurt	-8226
räsid	-8227
▁umgebaut	-8228
▁tschechischen	-8229
ammern	-8230
auerei	-8231
▁wettkampf	-8232
▁pav	-8233
▁boliv	-8234
▁service	-8235
größe	-8236
▁0"	-8237
▁ira	-8238
▁diversen	-8239
mart	-8240
▁bedeutendsten	-8241
▁ursprüngliche	-8242
▁fk	-8243
▁châ	-8244
▁gesand	-8245
▁nahr	-8246
maschinen	-8247
▁marke	-8248
▁konzerte	-8249
▁sieht	-8250
hedrale	-8251
aute	-8252
▁krone	-8253
entum	-8254
▁frankfurter	-8255
ständiger	-8256
▁+	-8257
▁wirken	-8258
attform	-8259
▁singles	-8260
▁aires	-8261
phy	-8262
▁grupp	-8263
▁rohr	-8264
▁oldenburg	-8265
eme	-8266
tain	-8267
▁bischö	-8268
▁loire	-8269
▁altstadt	-8270
ienten	-8271
▁but	-8272
▁erscheinung	-8273
ams	-8274
irm	-8275
itäts	-8276
▁verg	-8277
enthal	-8278
▁gesprochen	-8279
▁schen	-8280
▁lokalen	-8281
▁bibliothe	-8282
andelt	-8283
alm	-8284
▁sib	-8285
▁frühe	-8286
▁zweck	-8287
▁ib	-8288
▁riesen	-8289
▁friedens	-8290
▁hyp	-8291
ury	-8292
preußen	-8293
dl	-8294
▁henri	-8295
osh	-8296
igny	-8297
▁teich	-8298
ialen	-8299
▁verhalten	-8300
▁bekanntheit	-8301
ügen	-8302
schaff	-8303
▁reisen	-8304
▁segel	-8305
zte	-8306
▁oster	-8307
▁alphabet	-8308
▁expl	-8309
▁squ	-8310
▁aktive	-8311
▁patrick	-8312
rechung	-8313
illo	-8314
urei	-8315
zischen	-8316
▁rug	-8317
▁wiesbaden	-8318
▁beteiligte	-8319
▁information	-8320
▁wandte	-8321
deln	-8322
▁riv	-8323
▁amphoe	-8324
▁psychologie	-8325
aska	-8326
pflege	-8327
▁ont	-8328
▁pius	-8329
▁speziell	-8330
▁gemarkung	-8331
pper	-8332
▁großteil	-8333
gentur	-8334
▁conne	-8335
ous	-8336
ová	-8337
▁premierminister	-8338
▁löwen	-8339
ögel	-8340
▁erlau	-8341
▁hintergrund	-8342
▁somm	-8343
▁walt	-8344
▁champions	-8345
treten	-8346
▁jerusalem	-8347
▁japanischer	-8348
▁horst	-8349
▁vulkan	-8350
setzungen	-8351
stuft	-8352
▁literar	-8353
▁benn	-8354
▁moritz	-8355
▁nordost	-8356
vorpommern	-8357
▁si	-8358
▁besucher	-8359
▁tabellen	-8360
jon	-8361
andeur	-8362
▁gewinner	-8363
▁kriminal	-8364
▁angenommen	-8365
▁schließt	-8366
tent	-8367
ocke	-8368
▁som	-8369
▁000,00	-8370
▁lex	-8371
berge	-8372
klassigen	-8373
▁stimme	-8374
▁ermöglicht	-8375
atin	-8376
annen	-8377
▁straßburg	-8378
pra	-8379
▁Ähn	-8380
▁wehrmacht	-8381
ukrain	-8382
worth	-8383
▁vall	-8384
▁creek	-8385
endo	-8386
▁zoll	-8387
geschicht	-8388
▁markenn	-8389
▁ganzen	-8390
▁wesentlich	-8391
cr	-8392
walde	-8393
▁frage	-8394
▁rus	-8395
▁registr	-8396
ähren	-8397
lah	-8398
▁wäl	-8399
altar	-8400
▁buenos	-8401
▁kritik	-8402
▁hyd	-8403
▁kontra	-8404
▁beding	-8405
cle	-8406
icz	-8407
▁schwa	-8408
▁entstammte	-8409
ekten	-8410
▁biele	-8411
laufbahn	-8412
▁eigener	-8413
▁nachweis	-8414
▁nächst	-8415
äden	-8416
▁sekunden	-8417
▁gregor	-8418
▁fünfte	-8419
▁praxis	-8420
uge	-8421
▁provinzen	-8422
▁zusammenschluss	-8423
uelle	-8424
spräsident	-8425
▁produktionen	-8426
grab	-8427
wies	-8428
▁enter	-8429
▁versucht	-8430
jak	-8431
▁vinc	-8432
▁bund	-8433
auswahl	-8434
arett	-8435
ächer	-8436
▁continental	-8437
igkeits	-8438
gefangen	-8439
▁verdienst	-8440
▁nationalrat	-8441
ordneten	-8442
▁antrieb	-8443
villa	-8444
▁moderator	-8445
uts	-8446
ali	-8447
▁andré	-8448
räsidentschaft	-8449
oy	-8450
ogne	-8451
▁lob	-8452
hüter	-8453
▁zugang	-8454
ids	-8455
▁tib	-8456
▁sonne	-8457
▁wählte	-8458
reuth	-8459
▁angewand	-8460
wealth	-8461
offs	-8462
section	-8463
önt	-8464
▁loch	-8465
bla	-8466
▁mul	-8467
▁einschließlich	-8468
▁abstamm	-8469
▁ehemals	-8470
▁verleihung	-8471
hafte	-8472
nowiki	-8473
gesellschaften	-8474
▁staatliche	-8475
▁fortan	-8476
oda	-8477
show	-8478
▁gestaltung	-8479
▁arz	-8480
▁führenden	-8481
daten	-8482
legten	-8483
bot	-8484
▁webs	-8485
bene	-8486
udium	-8487
spunkt	-8488
▁stif	-8489
▁vin	-8490
▁glob	-8491
▁aufsichts	-8492
▁großher	-8493
▁kombination	-8494
▁bauer	-8495
▁lehrt	-8496
▁brunnen	-8497
▁kör	-8498
reiter	-8499
▁chin	-8500
▁ford	-8501
▁bleiben	-8502
▁abgelöst	-8503
▁jar	-8504
▁zir	-8505
berts	-8506
tennis	-8507
▁zentrale	-8508
urgie	-8509
▁durchsetzen	-8510
sor	-8511
▁zdf	-8512
▁fließ	-8513
mol	-8514
bronn	-8515
▁elemente	-8516
▁zugänglich	-8517
text	-8518
▁mcc	-8519
▁water	-8520
▁viet	-8521
▁stationen	-8522
▁abend	-8523
▁tagen	-8524
▁entwässert	-8525
▁nar	-8526
▁rac	-8527
▁beobach	-8528
▁sportler	-8529
▁eingezogen	-8530
▁vorrunde	-8531
▁schlagzeuger	-8532
▁gewerbe	-8533
▁bier	-8534
▁freiherr	-8535
uan	-8536
ced	-8537
▁duo	-8538
▁za	-8539
▁qualifizieren	-8540
igner	-8541
raben	-8542
spital	-8543
▁bestes	-8544
▁minder	-8545
▁amtsgericht	-8546
▁woche	-8547
▁differ	-8548
▁verhaftet	-8549
▁jeff	-8550
▁Ägypten	-8551
▁meeresspiegel	-8552
ione	-8553
riel	-8554
▁cham	-8555
▁hong	-8556
▁inhaber	-8557
▁glück	-8558
▁vielzahl	-8559
▁generation	-8560
flossen	-8561
▁wagner	-8562
▁bestehend	-8563
▁ausgewählt	-8564
▁soziologie	-8565
ythm	-8566
▁geschlech	-8567
alben	-8568
▁königlich	-8569
ted	-8570
▁beschrän	-8571
▁verbreitungs	-8572
▁untersuchungen	-8573
konom	-8574
becken	-8575
abon	-8576
▁ale	-8577
▁baut	-8578
▁geliste	-8579
ants	-8580
▁lös	-8581
▁jüngere	-8582
▁lautete	-8583
▁jacques	-8584
▁einsätze	-8585
▁0,000	-8586
▁leiten	-8587
▁jord	-8588
▁radrennfahrer	-8589
aba	-8590
pap	-8591
▁speicher	-8592
artier	-8593
▁valley	-8594
▁paulo	-8595
▁durchbruch	-8596
cul	-8597
▁cha	-8598
▁dia	-8599
▁fis	-8600
ensus	-8601
▁ye	-8602
▁bod	-8603
stheater	-8604
▁lewis	-8605
olph	-8606
▁meistens	-8607
▁ji	-8608
drom	-8609
herrschaft	-8610
büro	-8611
schnitte	-8612
▁sattel	-8613
▁base	-8614
qualif	-8615
▁bedeckt	-8616
▁els	-8617
▁abd	-8618
▁nouv	-8619
aco	-8620
landkreis	-8621
bed	-8622
ielen	-8623
label	-8624
ktiv	-8625
▁blick	-8626
unehmen	-8627
schützen	-8628
▁kristall	-8629
▁probleme	-8630
gio	-8631
▁kino	-8632
▁beeinflusst	-8633
▁magaz	-8634
▁gebieten	-8635
▁down	-8636
▁soldat	-8637
▁florenz	-8638
▁tan	-8639
▁funk	-8640
iertes	-8641
hode	-8642
▁ferr	-8643
▁taylor	-8644
▁statistik	-8645
fal	-8646
beamter	-8647
genossen	-8648
▁trio	-8649
▁plänen	-8650
ière	-8651
▁metz	-8652
▁oslo	-8653
studien	-8654
▁senator	-8655
gert	-8656
▁umge	-8657
back	-8658
phase	-8659
▁fassade	-8660
▁dirigent	-8661
mitte	-8662
not	-8663
hringen	-8664
assistent	-8665
▁emigr	-8666
▁aktuellen	-8667
▁dank	-8668
▁corporation	-8669
▁geschichts	-8670
▁commonwealth	-8671
fc	-8672
▁gült	-8673
jährig	-8674
▁individ	-8675
▁auszeichnungen	-8676
sprachen	-8677
hum	-8678
▁kommer	-8679
▁botschaft	-8680
anes	-8681
splatz	-8682
▁mari	-8683
deut	-8684
▁gymnas	-8685
▁jurast	-8686
▁mé	-8687
▁manuel	-8688
essin	-8689
▁männlicher	-8690
▁magn	-8691
▁vorbild	-8692
becker	-8693
▁heide	-8694
material	-8695
▁eingesch	-8696
▁erlernte	-8697
▁papier	-8698
▁pastor	-8699
▁mexikanischen	-8700
ological	-8701
▁religiö	-8702
▁cover	-8703
▁bildenden	-8704
licherweise	-8705
▁blue	-8706
▁harry	-8707
bir	-8708
▁athlet	-8709
▁gelangte	-8710
▁lock	-8711
vas	-8712
▁gor	-8713
▁grenzen	-8714
ović	-8715
▁rechteck	-8716
▁dicht	-8717
▁kunstgeschichte	-8718
▁errichten	-8719
▁platzierung	-8720
big	-8721
▁hk	-8722
zellen	-8723
umin	-8724
reiber	-8725
enthalt	-8726
▁gär	-8727
▁one	-8728
skammer	-8729
▁flüsse	-8730
▁schweizerischen	-8731
▁aff	-8732
▁wilson	-8733
▁traditionellen	-8734
▁sofort	-8735
▁unge	-8736
▁erheb	-8737
▁hollywood	-8738
▁höhere	-8739
▁landgericht	-8740
▁zag	-8741
▁angriff	-8742
▁gefängnis	-8743
isen	-8744
▁gezählt	-8745
▁damalige	-8746
▁behandelt	-8747
▁illustr	-8748
▁kunden	-8749
greg	-8750
▁manfred	-8751
▁veranstaltung	-8752
▁color	-8753
▁ehemann	-8754
grafen	-8755
▁schweren	-8756
stan	-8757
▁pic	-8758
einzel	-8759
telier	-8760
▁hammer	-8761
sin	-8762
▁initiative	-8763
▁besonderen	-8764
▁estnischen	-8765
▁außerordent	-8766
▁kamp	-8767
streit	-8768
▁aussa	-8769
berechtigt	-8770
international	-8771
▁ministerium	-8772
litz	-8773
▁länd	-8774
▁unterscheidet	-8775
oldt	-8776
▁beat	-8777
▁untergebracht	-8778
fj	-8779
erd	-8780
▁nikolaus	-8781
▁honor	-8782
lab	-8783
▁god	-8784
▁ing	-8785
nesota	-8786
▁verbindungen	-8787
bezirke	-8788
▁dokumentarfilm	-8789
▁mittelmeer	-8790
▁ordentlicher	-8791
▁gebirgs	-8792
▁schwimm	-8793
▁nag	-8794
▁piet	-8795
▁goldenen	-8796
gei	-8797
ianische	-8798
▁synonym	-8799
▁eric	-8800
fia	-8801
▁unterb	-8802
▁entworfen	-8803
artikel	-8804
▁monument	-8805
▁geden	-8806
▁einsätzen	-8807
▁unterricht	-8808
ira	-8809
▁intel	-8810
▁amerika	-8811
orts	-8812
staben	-8813
▁greifs	-8814
nationalpark	-8815
▁werbe	-8816
▁witt	-8817
▁schwarze	-8818
▁"00	-8819
▁fleisch	-8820
▁glasgow	-8821
schicht	-8822
äfte	-8823
bergs	-8824
▁event	-8825
▁melod	-8826
▁maximal	-8827
▁schwäb	-8828
sol	-8829
▁qualifikations	-8830
seh	-8831
▁edel	-8832
winkel	-8833
▁od	-8834
▁zahlen	-8835
▁kaufte	-8836
verwaltungs	-8837
▁pflege	-8838
▁griechisch	-8839
▁bernard	-8840
▁kohlen	-8841
▁schlei	-8842
akes	-8843
▁bag	-8844
ipe	-8845
fließt	-8846
versorgung	-8847
▁mic	-8848
hmann	-8849
anka	-8850
▁karten	-8851
▁hauptgürtels	-8852
▁gletscher	-8853
able	-8854
arth	-8855
komplex	-8856
kün	-8857
▁cu	-8858
klar	-8859
▁ran	-8860
▁einzugsgebiet	-8861
▁duisburg	-8862
▁verstorbenen	-8863
äum	-8864
:0	-8865
▁lyon	-8866
▁aktien	-8867
▁stattdessen	-8868
main	-8869
▁bergbau	-8870
▁erm	-8871
▁love	-8872
onds	-8873
otyp	-8874
antas	-8875
rud	-8876
▁wende	-8877
▁ursprung	-8878
▁mixed	-8879
junioren	-8880
▁françois	-8881
▁handelte	-8882
▁vorsitzenden	-8883
roy	-8884
cticut	-8885
luther	-8886
▁datiert	-8887
▁kurs	-8888
fälle	-8889
...	-8890
etto	-8891
▁elect	-8892
uell	-8893
▁fdp	-8894
via	-8895
▁eth	-8896
▁worauf	-8897
gegangen	-8898
▁montreal	-8899
▁ausgeführt	-8900
▁kommunikation	-8901
inten	-8902
▁gemälde	-8903
▁beispiele	-8904
▁steve	-8905
ope	-8906
stages	-8907
waffe	-8908
▁kell	-8909
▁peru	-8910
▁geleitet	-8911
▁wichtigste	-8912
▁abtei	-8913
▁bruno	-8914
nr	-8915
bergt	-8916
▁lord	-8917
noedit	-8918
noeditsection	-8919
▁moor	-8920
künstler	-8921
kanz	-8922
größer	-8923
▁vit	-8924
cdu	-8925
▁broad	-8926
▁polar	-8927
▁linker	-8928
▁challenger	-8929
▁jurastudium	-8930
▁unterschiedlich	-8931
kurren	-8932
other	-8933
▁sher	-8934
▁geomet	-8935
▁wissen	-8936
edaillen	-8937
bb	-8938
▁jens	-8939
tragung	-8940
reif	-8941
iness	-8942
▁eingeb	-8943
basis	-8944
▁heft	-8945
tert	-8946
▁entwurf	-8947
uor	-8948
ättern	-8949
▁mühlen	-8950
▁präsidentschaft	-8951
▁ausgespielt	-8952
▁experimen	-8953
orgen	-8954
▁einiger	-8955
▁ré	-8956
▁0000"	-8957
tell	-8958
▁einrichtungen	-8959
▁sektion	-8960
▁nouvelle	-8961
▁toten	-8962
put	-8963
quelle	-8964
▁missouri	-8965
▁läng	-8966
▁bestehenden	-8967
▁slowakei	-8968
icus	-8969
endoppel	-8970
▁lt	-8971
elen	-8972
derten	-8973
englisch	-8974
▁westfalen	-8975
comp	-8976
▁roger	-8977
▁reserve	-8978
▁biathlon	-8979
▁versteht	-8980
äuden	-8981
▁klima	-8982
achtung	-8983
ikaner	-8984
ässern	-8985
▁männchen	-8986
▁krankheit	-8987
luft	-8988
▁bleibt	-8989
▁infanterie	-8990
▁bord	-8991
▁mike	-8992
▁thailand	-8993
cos	-8994
uns	-8995
ierer	-8996
▁berichtet	-8997
▁bestehende	-8998
gard	-8999
▁situ	-9000
▁molek	-9001
▁beschäd	-9002
▁element	-9003
▁renaissance	-9004
position	-9005
▁0000/00,	-9006
ides	-9007
ensis	-9008
lings	-9009
▁ry	-9010
lief	-9011
▁kast	-9012
▁kindheit	-9013
szene	-9014
▁besie	-9015
▁origin	-9016
▁filmregisseur	-9017
häusern	-9018
nabrück	-9019
▁luzern	-9020
▁kämpfte	-9021
ami	-9022
offizier	-9023
pi	-9024
▁schiffs	-9025
▁schluss	-9026
▁musical	-9027
▁kärn	-9028
▁aufnahm	-9029
eto	-9030
▁turniers	-9031
wegs	-9032
äste	-9033
▁mig	-9034
▁castle	-9035
obi	-9036
▁unters	-9037
▁beton	-9038
▁süß	-9039
ng	-9040
uri	-9041
▁treffen	-9042
▁verfassung	-9043
▁szenen	-9044
▁größter	-9045
▁falls	-9046
format	-9047
kamp	-9048
anta	-9049
▁free	-9050
esheim	-9051
▁ausbau	-9052
▁geringer	-9053
ente	-9054
rohr	-9055
▁nas	-9056
▁blieben	-9057
▁nordischen	-9058
▁felix	-9059
▁spark	-9060
▁ausgaben	-9061
einer	-9062
▁chrom	-9063
▁komment	-9064
▁erfolglos	-9065
▁länderspiele	-9066
cus	-9067
▁bun	-9068
▁press	-9069
▁wun	-9070
▁minute	-9071
▁deta	-9072
konzer	-9073
▁gebietsreform	-9074
nei	-9075
ckte	-9076
▁brücken	-9077
▁sandstein	-9078
sklasse	-9079
▁parlaments	-9080
▁etc	-9081
▁südtirol	-9082
)".	-9083
orient	-9084
▁rechter	-9085
▁stellvertreter	-9086
anti	-9087
division	-9088
▁abstammung	-9089
▁hind	-9090
▁costa	-9091
meisters	-9092
▁türkischer	-9093
▁osman	-9094
▁anlagen	-9095
▁viermal	-9096
▁kriegsgefangen	-9097
▁unterstützte	-9098
▁ausführ	-9099
▁eröffnung	-9100
▁siebten	-9101
▁angrenzen	-9102
▁hals	-9103
▁kont	-9104
▁unterschieden	-9105
▁produkte	-9106
▁sprung	-9107
inos	-9108
▁behei	-9109
▁publikationen	-9110
▁blüte	-9111
▁saarb	-9112
einkommen	-9113
▁beleg	-9114
count	-9115
▁mitwir	-9116
▁chi	-9117
▁merkmal	-9118
▁wechseln	-9119
▁veranstaltet	-9120
▁verbreitung	-9121
▁bow	-9122
anteil	-9123
sängerin	-9124
ulf	-9125
▁steier	-9126
rez	-9127
▁edin	-9128
ør	-9129
▁media	-9130
▁00°	-9131
▁fred	-9132
▁ältere	-9133
▁treten	-9134
ogramm	-9135
▁verfilm	-9136
verzeichnis	-9137
▁kompositionen	-9138
lia	-9139
▁jüngeren	-9140
zur	-9141
▁ermor	-9142
▁lateinischen	-9143
▁ontario	-9144
▁onkel	-9145
▁bundeswehr	-9146
/0	-9147
tere	-9148
oka	-9149
achse	-9150
liehen	-9151
▁erwer	-9152
skirche	-9153
▁marken	-9154
▁definiert	-9155
▁wy	-9156
ners	-9157
▁bour	-9158
änzer	-9159
▁abgerissen	-9160
▁bisherigen	-9161
otto	-9162
▁olympiasieger	-9163
▁georgia	-9164
ław	-9165
▁robin	-9166
▁lissabon	-9167
▁minnesota	-9168
arma	-9169
lenz	-9170
▁00"	-9171
anton	-9172
kommun	-9173
▁gabriel	-9174
ombard	-9175
stellter	-9176
▁bestanden	-9177
oment	-9178
▁innere	-9179
endeten	-9180
▁municipio	-9181
▁gör	-9182
▁schil	-9183
strand	-9184
▁kandidaten	-9185
obile	-9186
▁zwer	-9187
▁monaten	-9188
▁chris	-9189
▁kleines	-9190
▁bielefeld	-9191
▁blo	-9192
▁0000/00.	-9193
heater	-9194
▁derselben	-9195
▁osnabrück	-9196
▁asteroiden	-9197
niederlage	-9198
▁kommerziel	-9199
eting	-9200
owitz	-9201
rägen	-9202
okomot	-9203
eidungs	-9204
▁unesco	-9205
antarktischen	-9206
▁eigentümer	-9207
▁rosa	-9208
▁Äl	-9209
fisch	-9210
▁spring	-9211
gre	-9212
▁gitarre	-9213
katholischer	-9214
▁wäre	-9215
lach	-9216
▁arte	-9217
▁initi	-9218
ev	-9219
kab	-9220
may	-9221
igade	-9222
zien	-9223
▁chemiker	-9224
▁sakr	-9225
▁verwendete	-9226
ulo	-9227
▁pion	-9228
▁endgültig	-9229
▁wiederwahl	-9230
▁profil	-9231
▁douglas	-9232
▁inhalt	-9233
▁komödie	-9234
▁zweigeschoss	-9235
etta	-9236
▁sehens	-9237
rath	-9238
▁zurückkehr	-9239
aster	-9240
▁milch	-9241
▁obersten	-9242
arab	-9243
▁gewalt	-9244
springen	-9245
▁skispr	-9246
kurrenten	-9247
▁beweg	-9248
▁verab	-9249
▁stephen	-9250
management	-9251
▁ausgebaut	-9252
▁slaw	-9253
fries	-9254
▁roth	-9255
▁mönchen	-9256
▁unentschieden	-9257
▁transk	-9258
▁phot	-9259
ple	-9260
ladimir	-9261
usk	-9262
▁kunstakademie	-9263
block	-9264
ström	-9265
▁verfas	-9266
▁kapitän	-9267
“),	-9268
▁nan	-9269
▁grim	-9270
vre	-9271
▁koll	-9272
isierten	-9273
mich	-9274
consin	-9275
▁rev	-9276
▁sto	-9277
▁sturm	-9278
▁baudenkmale	-9279
▁untersuchung	-9280
cen	-9281
▁roch	-9282
▁entgegen	-9283
xi	-9284
flosse	-9285
▁hauptrollen	-9286
gast	-9287
▁angebracht	-9288
lies	-9289
uchen	-9290
freie	-9291
▁anhänger	-9292
▁stör	-9293
vertret	-9294
ete	-9295
▁medizinischen	-9296
▁wik	-9297
zweig	-9298
griech	-9299
major	-9300
▁achten	-9301
▁eingeweiht	-9302
▁dietrich	-9303
▁nrhp	-9304
▁suff	-9305
spreis	-9306
▁indiana	-9307
isturnier	-9308
falt	-9309
▁aktuelle	-9310
▁niederländische	-9311
▁gitarrist	-9312
ogn	-9313
artig	-9314
eiler	-9315
▁gallen	-9316
▁residen	-9317
ambon	-9318
▁samt	-9319
▁nu	-9320
ikameister	-9321
▁jim	-9322
▁army	-9323
▁vereinigte	-9324
▁claud	-9325
▁vierter	-9326
zul	-9327
▁solcher	-9328
fehl	-9329
▁bret	-9330
▁hütte	-9331
▁point	-9332
▁zweites	-9333
cap	-9334
mutter	-9335
mäßigen	-9336
erischen	-9337
▁herzogtum	-9338
kä	-9339
▁ukrainischen	-9340
▁iron	-9341
▁alkohol	-9342
▁malte	-9343
atische	-9344
▁diesel	-9345
▁sicherheits	-9346
▁besiedelt	-9347
▁getö	-9348
▁wuch	-9349
▁gebäudes	-9350
▁offenen	-9351
▁melbourne	-9352
▁einger	-9353
anie	-9354
chef	-9355
head	-9356
agu	-9357
▁darauff	-9358
▁zunehmend	-9359
▁eberhard	-9360
▁darauffol	-9361
wör	-9362
hten	-9363
iago	-9364
ogie	-9365
▁überra	-9366
":	-9367
lied	-9368
▁anerkennung	-9369
iop	-9370
amtes	-9371
jamin	-9372
▁oliver	-9373
▁amerikanischer	-9374
▁hang	-9375
mitteln	-9376
▁ny	-9377
obel	-9378
azität	-9379
gels	-9380
▁beauft	-9381
▁aussicht	-9382
teilungen	-9383
but	-9384
aken	-9385
▁vermö	-9386
ovo	-9387
▁maßgeblich	-9388
▁schwere	-9389
▁neapel	-9390
▁dreißig	-9391
bä	-9392
▁umbau	-9393
iti	-9394
lyn	-9395
feuer	-9396
▁erhältlich	-9397
▁gleichnamige	-9398
▁byz	-9399
ummern	-9400
▁gesehen	-9401
ský	-9402
char	-9403
▁0:00:00	-9404
verordnung	-9405
nitten	-9406
opf	-9407
▁0:0.	-9408
▁verwaltet	-9409
▁cann	-9410
rone	-9411
▁lein	-9412
▁range	-9413
▁verzichtete	-9414
ubil	-9415
steher	-9416
atus	-9417
▁way	-9418
edlin	-9419
verbindungen	-9420
bles	-9421
▁konstruktion	-9422
natur	-9423
testen	-9424
▁mobil	-9425
ucky	-9426
▁tunnel	-9427
▁tsv	-9428
▁ergibt	-9429
ulation	-9430
▁quartet	-9431
▁punk	-9432
▁fußballverein	-9433
heraus	-9434
seitig	-9435
▁verlängert	-9436
▁gelehr	-9437
▁antarkt	-9438
gelt	-9439
▁ank	-9440
▁musikalischen	-9441
▁dot	-9442
▁abhäng	-9443
▁beinhaltet	-9444
sau	-9445
steil	-9446
ures	-9447
▁völlig	-9448
▁della	-9449
brie	-9450
gasse	-9451
▁edinburgh	-9452
▁betrachtet	-9453
etischen	-9454
lassung	-9455
stiegen	-9456
zustellen	-9457
▁technology	-9458
emm	-9459
▁morgen	-9460
▁unterrichtet	-9461
▁kandidat	-9462
▁mode	-9463
▁force	-9464
▁populär	-9465
▁salv	-9466
aufführung	-9467
▁läuft	-9468
ukrainisch	-9469
▁alli	-9470
▁konservat	-9471
▁erwachsenen	-9472
▁hü	-9473
▁angebot	-9474
ghan	-9475
verlei	-9476
▁starke	-9477
▁sicherte	-9478
▁dorn	-9479
▁altar	-9480
▁slowakischen	-9481
▁wär	-9482
oker	-9483
schu	-9484
▁konsul	-9485
▁quedlin	-9486
▁stabil	-9487
▁zucker	-9488
▁schnee	-9489
▁organisationen	-9490
▁befehl	-9491
▁arabischen	-9492
▁aktivitäten	-9493
▁physiker	-9494
▁bürgerschaft	-9495
▁fut	-9496
größte	-9497
▁wiesen	-9498
hz	-9499
▁knochen	-9500
▁kategorien	-9501
▁begleitet	-9502
ichteten	-9503
▁musikalische	-9504
▁nhl	-9505
▁court	-9506
▁princ	-9507
▁umgew	-9508
elekt	-9509
hörigkeit	-9510
▁pfalz	-9511
geschichten	-9512
▁dim	-9513
▁first	-9514
gewerbe	-9515
▁vent	-9516
sturm	-9517
▁kiew	-9518
▁erhebt	-9519
ña	-9520
▁gord	-9521
üss	-9522
rest	-9523
amilton	-9524
▁gleicher	-9525
▁südliche	-9526
▁fame	-9527
▁inse	-9528
teilte	-9529
▁kinof	-9530
trieben	-9531
▁weißruss	-9532
▁jugoslawien	-9533
igi	-9534
▁markus	-9535
▁had	-9536
zugs	-9537
ske	-9538
hall	-9539
▁Österreichs	-9540
▁ns	-9541
▁vorgestellt	-9542
sees	-9543
▁chap	-9544
▁sitze	-9545
gewachsen	-9546
▁gestalt	-9547
▁archäologie	-9548
▁mountains	-9549
camp	-9550
iale	-9551
▁ziegel	-9552
▁women	-9553
gesetzten	-9554
▁gewid	-9555
▁beschreibung	-9556
▁australian	-9557
▁0)	-9558
▁bereit	-9559
▁genannte	-9560
▁linden	-9561
▁fres	-9562
▁kommandeur	-9563
orp	-9564
▁halte	-9565
▁nass	-9566
▁festung	-9567
▁fla	-9568
▁xvi	-9569
▁keram	-9570
▁schül	-9571
▁befrei	-9572
▁cruz	-9573
▁gefertigt	-9574
▁rathaus	-9575
▁verpasste	-9576
▁kreisstadt	-9577
▁erfahrungen	-9578
▁landesstraße	-9579
▁früchte	-9580
▁pays	-9581
▁pac	-9582
▁Übersetzer	-9583
▁diesmal	-9584
leistungen	-9585
oberfläche	-9586
schutzgebiet	-9587
▁wellen	-9588
fass	-9589
edy	-9590
pin	-9591
achs	-9592
beste	-9593
▁religion	-9594
▁ums	-9595
▁cornel	-9596
▁betätigte	-9597
ickt	-9598
▁dollar	-9599
▁startet	-9600
▁weshalb	-9601
▁zahlreicher	-9602
klin	-9603
motoren	-9604
autobahn	-9605
▁begraben	-9606
imo	-9607
ruf	-9608
▁stärker	-9609
▁zeitungen	-9610
▁regulären	-9611
ildeten	-9612
▁erbaute	-9613
▁brasilianischen	-9614
▁strand	-9615
opt	-9616
▁foss	-9617
▁begannen	-9618
▁schla	-9619
unda	-9620
▁gross	-9621
▁habilitation	-9622
ochem	-9623
▁wichtigen	-9624
▁nordamerika	-9625
nisch	-9626
▁modelle	-9627
iva	-9628
▁sav	-9629
▁anson	-9630
writ	-9631
▁kennt	-9632
▁errichteten	-9633
verfol	-9634
▁kantone	-9635
erto	-9636
nern	-9637
▁day	-9638
läuferin	-9639
▁digital	-9640
▁behandlung	-9641
si	-9642
▁neg	-9643
▁verboten	-9644
ébec	-9645
▁endspiel	-9646
nement	-9647
▁brenn	-9648
▁kathedrale	-9649
▁hirsch	-9650
▁gegliedert	-9651
▁connecticut	-9652
▁geschlagen	-9653
reihen	-9654
▁örtlichen	-9655
▁manchester	-9656
ail	-9657
▁kz	-9658
listen	-9659
▁preise	-9660
▁verleger	-9661
ural	-9662
▁musikern	-9663
▁feucht	-9664
▁greifswald	-9665
rhône	-9666
▁kanadische	-9667
schte	-9668
vergne	-9669
general	-9670
▁lichten	-9671
▁inc	-9672
lines	-9673
fragen	-9674
pfälzischen	-9675
▁beherbergt	-9676
uro	-9677
▁dt	-9678
▁pon	-9679
säure	-9680
▁chemnitz	-9681
▁beziehung	-9682
▁dresdner	-9683
▁anerkannt	-9684
▁pianist	-9685
▁treffer	-9686
kandid	-9687
▁pedro	-9688
umboldt	-9689
▁neuseel	-9690
▁ausgang	-9691
▁bedeutenden	-9692
▁gedicht	-9693
webe	-9694
▁vas	-9695
▁zweig	-9696
▁talent	-9697
▁wisconsin	-9698
▁his	-9699
▁verfüg	-9700
▁abstand	-9701
▁gründeten	-9702
horst	-9703
▁emeritierung	-9704
▁vizegouverneur	-9705
king	-9706
iziner	-9707
partner	-9708
▁busch	-9709
▁albums	-9710
▁festivals	-9711
▁nachkommen	-9712
▁ortsgemeinde	-9713
▁darf	-9714
imal	-9715
▁betroffen	-9716
▁kameramann	-9717
▁wta	-9718
▁mang	-9719
▁begleitete	-9720
▁elli	-9721
schach	-9722
▁anbau	-9723
oxid	-9724
▁hob	-9725
oe	-9726
▁herrscher	-9727
▁beheima	-9728
aj	-9729
▁reiste	-9730
▁cem	-9731
▁anger	-9732
▁zeichnete	-9733
alender	-9734
▁vertrieb	-9735
▁saarbrücken	-9736
senat	-9737
▁wat	-9738
▁weihn	-9739
▁inneh	-9740
▁mountain	-9741
▁weibliche	-9742
range	-9743
▁erfolgreichsten	-9744
▁geist	-9745
ugen	-9746
▁tony	-9747
▁baudenkmäler	-9748
▁jury	-9749
▁valen	-9750
▁verfasst	-9751
▁bewal	-9752
▁festgelegt	-9753
▁akademischen	-9754
teuer	-9755
eise	-9756
▁breis	-9757
▁indust	-9758
▁termin	-9759
orges	-9760
▁bj	-9761
lein	-9762
expedition	-9763
▁colorado	-9764
▁cod	-9765
▁eigenschaften	-9766
rio	-9767
▁wirkt	-9768
▁bringen	-9769
▁nachbarorte	-9770
▁gekenn	-9771
▁strateg	-9772
▁kurzzeitig	-9773
▁graben	-9774
▁syl	-9775
▁zit	-9776
öffnet	-9777
▁passag	-9778
riz	-9779
malerei	-9780
▁leipziger	-9781
▁thron	-9782
▁sports	-9783
pression	-9784
▁tiefen	-9785
▁siedlungen	-9786
▁geblieben	-9787
rod	-9788
prozess	-9789
inea	-9790
▁benjamin	-9791
▁titularbischof	-9792
▁gamb	-9793
▁adler	-9794
stechnik	-9795
alischen	-9796
▁survey	-9797
▁wester	-9798
▁darauffolgenden	-9799
hä	-9800
▁angebaut	-9801
▁verwandt	-9802
wurf	-9803
▁wim	-9804
pädagog	-9805
xe	-9806
▁factor	-9807
▁ausgestellt	-9808
–000	-9809
ardin	-9810
▁konz	-9811
▁ek	-9812
▁dei	-9813
chlor	-9814
▁bauch	-9815
▁bestattet	-9816
▁gehörenden	-9817
iate	-9818
peter	-9819
▁coll	-9820
lagert	-9821
reguesia	-9822
▁wichtiger	-9823
▁staub	-9824
▁charlotte	-9825
▁École	-9826
splan	-9827
▁keiner	-9828
▁..	-9829
muse	-9830
schin	-9831
▁bm	-9832
▁sier	-9833
▁Ämter	-9834
▁marsch	-9835
cm	-9836
▁beha	-9837
▁stir	-9838
▁erfolgreiche	-9839
▁ech	-9840
isieren	-9841
▁dänische	-9842
▁abwehr	-9843
üch	-9844
▁größtenteils	-9845
arest	-9846
üllen	-9847
▁gren	-9848
▁wege	-9849
▁themat	-9850
rem	-9851
▁schreibweise	-9852
tempel	-9853
▁eliz	-9854
zuführen	-9855
ministeriums	-9856
/0000	-9857
▁cour	-9858
▁entstehung	-9859
▁ras	-9860
▁mall	-9861
bergen	-9862
▁seminar	-9863
▁renomm	-9864
eb	-9865
▁trifft	-9866
efa	-9867
▁dopp	-9868
▁america	-9869
▁ergänzt	-9870
▁katharina	-9871
▁wahlperiode	-9872
vie	-9873
▁darsteller	-9874
▁isol	-9875
walts	-9876
▁katast	-9877
▁entsprechenden	-9878
pre	-9879
▁nel	-9880
▁gestif	-9881
▁operation	-9882
▁durchschnitts	-9883
itis	-9884
▁vertret	-9885
▁orange	-9886
▁amtierte	-9887
▁kolonial	-9888
▁kot	-9889
stoffen	-9890
▁listet	-9891
▁steine	-9892
▁verblei	-9893
▁doc	-9894
▁historisch	-9895
urus	-9896
idakt	-9897
▁brem	-9898
▁sens	-9899
▁	-9900
e	-9901
n	-9902
i	-9903
r	-9904
s	-9905
a	-9906
t	-9907
d	-9908
l	-9909
h	-9910
u	-9911
0	-9912
o	-9913
m	-9914
c	-9915
g	-9916
b	-9917
f	-9918
k	-9919
w	-9920
.	-9921
p	-9922
z	-9923
v	-9924
,	-9925
ü	-9926
ä	-9927
"	-9928
j	-9929
-	-9930
y	-9931
ö	-9932
)	-9933
(	-9934
ß	-9935
:	-9936
x	-9937
*	-9938
;	-9939
q	-9940
“	-9941
„	-9942
é	-9943
–	-9944
/	-9945
†	-9946
á	-9947
Ö	-9948
Ü	-9949
’	-9950
í	-9951
ó	-9952
'	-9953
%	-9954
>	-9955
_	-9956
<	-9957
Ä	-9958
è	-9959
&	-9960
2	-9961
š	-9962
ō	-9963
=	-9964
ç	-9965
č	-9966
ø	-9967
ł	-9968
É	-9969
ã	-9970
ı	-9971
°	-9972
ô	-9973
â	-9974
ć	-9975
!	-9976
ú	-9977
[	-9978
]	-9979
ý	-9980
ñ	-9981
å	-9982
à	-9983
+	-9984
‘	-9985
Š	-9986
ř	-9987
ū	-9988
ž	-9989
3	-9990
×	-9991
а	-9992
‚	-9993
ā	-9994
ė	-9995
?	-9996
