<unk>	0
<s>	0
</s>	0
de	-0
▁e	-1
▁de	-2
▁l	-3
▁c	-4
▁p	-5
▁a	-6
00	-7
▁s	-8
ra	-9
os	-10
en	-11
▁la	-12
on	-13
er	-14
▁en	-15
ta	-16
ci	-17
or	-18
es	-19
un	-20
▁el	-21
▁m	-22
in	-23
an	-24
ar	-25
▁es	-26
da	-27
▁00	-28
do	-29
re	-30
ue	-31
te	-32
▁f	-33
▁y	-34
al	-35
▁un	-36
as	-37
ic	-38
▁t	-39
is	-40
▁h	-41
ro	-42
ón	-43
▁con	-44
▁0000	-45
om	-46
▁se	-47
▁d	-48
la	-49
ti	-50
▁n	-51
▁b	-52
ri	-53
to	-54
▁del	-55
▁su	-56
que	-57
▁g	-58
▁o	-59
▁v	-60
ción	-61
▁que	-62
▁los	-63
le	-64
▁por	-65
di	-66
▁una	-67
▁com	-68
▁re	-69
▁in	-70
tu	-71
▁al	-72
ol	-73
il	-74
ia	-75
▁(	-76
▁"	-77
ica	-78
ran	-79
▁0	-80
am	-81
▁j	-82
res	-83
▁pa	-84
ien	-85
▁las	-86
io	-87
ida	-88
ma	-89
ente	-90
cu	-91
el	-92
tra	-93
ía	-94
ab	-95
ig	-96
▁fue	-97
▁esta	-98
dos	-99
pe	-100
us	-101
ter	-102
▁pro	-103
lo	-104
▁des	-105
ch	-106
cion	-107
▁per	-108
▁cu	-109
mb	-110
ici	-111
ita	-112
qu	-113
tes	-114
pa	-115
za	-116
ob	-117
▁como	-118
den	-119
▁par	-120
ico	-121
ca	-122
▁k	-123
▁para	-124
cia	-125
tor	-126
mp	-127
ce	-128
▁an	-129
iv	-130
▁ma	-131
mente	-132
ie	-133
tr	-134
▁ta	-135
ás	-136
se	-137
▁me	-138
go	-139
▁ca	-140
ba	-141
idad	-142
tos	-143
▁r	-144
.00	-145
ul	-146
ir	-147
ub	-148
co	-149
me	-150
▁ar	-151
ier	-152
▁0000,	-153
ista	-154
ras	-155
ina	-156
gu	-157
▁hab	-158
▁lo	-159
po	-160
ten	-161
ga	-162
án	-163
mo	-164
én	-165
▁000	-166
▁to	-167
tro	-168
ero	-169
tal	-170
▁añ	-171
va	-172
das	-173
▁te	-174
dor	-175
ión	-176
▁ac	-177
▁i	-178
lan	-179
▁no	-180
▁ha	-181
tre	-182
▁as	-183
▁na	-184
na	-185
ur	-186
▁or	-187
▁mar	-188
▁0000.	-189
ec	-190
▁co	-191
▁más	-192
▁ex	-193
és	-194
▁di	-195
dad	-196
men	-197
▁dis	-198
▁pri	-199
ciones	-200
ido	-201
▁ra	-202
vo	-203
▁mun	-204
ales	-205
▁pob	-206
man	-207
pu	-208
omb	-209
ral	-210
▁mu	-211
▁cen	-212
▁le	-213
▁pobla	-214
▁ser	-215
▁ch	-216
du	-217
▁espe	-218
▁car	-219
▁can	-220
jo	-221
▁sus	-222
ún	-223
▁eran	-224
ona	-225
so	-226
tan	-227
las	-228
▁tra	-229
▁cons	-230
▁ro	-231
▁for	-232
▁seg	-233
▁0.00	-234
ers	-235
ando	-236
▁entre	-237
▁w	-238
des	-239
tin	-240
cuen	-241
▁km	-242
),	-243
▁especi	-244
",	-245
li	-246
um	-247
,00	-248
tri	-249
amil	-250
cional	-251
pañ	-252
ib	-253
▁ob	-254
ana	-255
▁ba	-256
ug	-257
fici	-258
ién	-259
).	-260
▁estado	-261
▁cam	-262
▁cor	-263
▁parti	-264
▁encuen	-265
th	-266
ne	-267
ali	-268
▁población	-269
▁pr	-270
▁ci	-271
ion	-272
ano	-273
▁si	-274
mer	-275
0000	-276
mbién	-277
▁famil	-278
▁po	-279
ru	-280
▁san	-281
icip	-282
par	-283
▁municip	-284
enta	-285
▁res	-286
▁también	-287
oci	-288
les	-289
▁pue	-290
▁sig	-291
ado	-292
qui	-293
uer	-294
ora	-295
per	-296
▁tien	-297
▁est	-298
▁son	-299
▁dos	-300
los	-301
▁den	-302
▁habita	-303
fer	-304
▁inter	-305
min	-306
▁año	-307
▁familia	-308
ís	-309
vi	-310
▁ab	-311
son	-312
▁cas	-313
ces	-314
gen	-315
tó	-316
▁nomb	-317
ve	-318
▁pe	-319
cri	-320
tas	-321
icos	-322
almente	-323
".	-324
▁du	-325
▁este	-326
lu	-327
▁ciu	-328
asta	-329
ios	-330
▁medi	-331
iden	-332
▁encuentra	-333
▁á	-334
ene	-335
icado	-336
je	-337
▁desde	-338
ior	-339
▁ten	-340
tura	-341
▁era	-342
▁municipio	-343
▁hasta	-344
cal	-345
▁años	-346
▁mo	-347
ntes	-348
▁is	-349
▁ciudad	-350
tros	-351
▁comp	-352
▁tiene	-353
▁nor	-354
con	-355
▁ub	-356
ton	-357
cip	-358
▁españ	-359
▁u	-360
▁habitantes	-361
ing	-362
▁col	-363
▁pres	-364
▁hi	-365
▁don	-366
gua	-367
ja	-368
gra	-369
for	-370
▁man	-371
▁fran	-372
cción	-373
▁pre	-374
ér	-375
ven	-376
▁gran	-377
▁pos	-378
zo	-379
▁mon	-380
por	-381
▁ve	-382
▁may	-383
▁cual	-384
▁reg	-385
▁fin	-386
cen	-387
▁según	-388
▁ter	-389
▁censo	-390
▁está	-391
ide	-392
mbre	-393
ada	-394
no	-395
ino	-396
▁do	-397
▁ing	-398
mi	-399
▁parte	-400
tras	-401
tiv	-402
ivers	-403
▁total	-404
▁0.00%	-405
ismo	-406
iento	-407
fica	-408
▁fe	-409
▁jun	-410
▁donde	-411
idos	-412
▁prime	-413
▁ju	-414
gos	-415
der	-416
rante	-417
tica	-418
▁nombre	-419
im	-420
▁forma	-421
▁especie	-422
dado	-423
ín	-424
▁sob	-425
▁his	-426
bol	-427
▁nue	-428
▁estu	-429
▁inc	-430
▁(0000	-431
ich	-432
▁person	-433
pos	-434
▁au	-435
tar	-436
rado	-437
▁lle	-438
▁perten	-439
▁super	-440
▁actu	-441
▁primera	-442
▁z	-443
▁pas	-444
▁equi	-445
icas	-446
ió	-447
▁durante	-448
lica	-449
▁cl	-450
endo	-451
tru	-452
▁qu	-453
tico	-454
pon	-455
ine	-456
car	-457
▁ne	-458
▁sobre	-459
▁ho	-460
isión	-461
▁cre	-462
bu	-463
▁prin	-464
dio	-465
▁fun	-466
▁var	-467
he	-468
anos	-469
▁oc	-470
▁gu	-471
▁da	-472
cho	-473
▁personas	-474
ío	-475
encia	-476
▁00.00	-477
▁0000)	-478
xi	-479
▁prov	-480
▁rep	-481
lla	-482
▁imp	-483
▁bar	-484
mas	-485
zas	-486
ge	-487
ill	-488
▁primer	-489
ían	-490
▁bo	-491
can	-492
▁lu	-493
titu	-494
zó	-495
cos	-496
▁sal	-497
▁ban	-498
eci	-499
▁plan	-500
sa	-501
▁princip	-502
,0	-503
▁sa	-504
▁sol	-505
ck	-506
gar	-507
▁univers	-508
▁pero	-509
ias	-510
▁cer	-511
tbol	-512
▁pub	-513
▁edi	-514
▁ap	-515
▁dens	-516
▁local	-517
▁sur	-518
▁pol	-519
iza	-520
▁sin	-521
ño	-522
2.	-523
▁puede	-524
ctor	-525
cer	-526
ugar	-527
▁ale	-528
▁sub	-529
uniden	-530
▁ofici	-531
▁estados	-532
mar	-533
zar	-534
▁ins	-535
▁gra	-536
ores	-537
▁her	-538
▁densidad	-539
▁ti	-540
▁conoci	-541
▁unidos	-542
▁estadouniden	-543
ble	-544
▁temp	-545
gr	-546
iendo	-547
ña	-548
cha	-549
tado	-550
▁estadounidense	-551
▁fuer	-552
▁produ	-553
▁tras	-554
▁provin	-555
▁af	-556
it	-557
,000	-558
▁nacional	-559
ena	-560
embre	-561
▁segun	-562
▁tor	-563
▁-	-564
▁ubicado	-565
▁ad	-566
ícu	-567
ario	-568
rio	-569
▁pla	-570
▁lib	-571
▁cr	-572
▁gru	-573
▁traba	-574
▁jue	-575
dem	-576
▁gén	-577
▁men	-578
ya	-579
tivo	-580
terior	-581
▁val	-582
▁cal	-583
gun	-584
▁comun	-585
▁prof	-586
ital	-587
cto	-588
ante	-589
pués	-590
pues	-591
▁distri	-592
ver	-593
▁campe	-594
▁ja	-595
lb	-596
miento	-597
▁0%	-598
▁después	-599
▁pu	-600
ular	-601
llo	-602
▁condado	-603
▁pel	-604
▁norte	-605
mento	-606
▁div	-607
▁equipo	-608
ard	-609
▁so	-610
entes	-611
dios	-612
▁gene	-613
aliza	-614
▁uno	-615
gan	-616
toria	-617
▁sigu	-618
▁.	-619
idae	-620
▁escri	-621
▁bas	-622
▁é	-623
adas	-624
▁situ	-625
▁inclu	-626
be	-627
lbum	-628
ip	-629
ren	-630
jer	-631
ros	-632
ración	-633
ron	-634
uel	-635
este	-636
▁he	-637
▁us	-638
ías	-639
▁dire	-640
▁cap	-641
▁tenía	-642
▁álbum	-643
tina	-644
ció	-645
cias	-646
dores	-647
▁otras	-648
uro	-649
tán	-650
▁orig	-651
ph	-652
")	-653
▁universidad	-654
▁lla	-655
▁género	-656
tero	-657
▁lan	-658
dia	-659
▁lugar	-660
-00	-661
▁había	-662
iones	-663
ber	-664
ños	-665
fico	-666
▁provincia	-667
▁mayor	-668
▁mus	-669
eo	-670
▁blan	-671
▁club	-672
dió	-673
▁bu	-674
▁cab	-675
lar	-676
ierra	-677
mon	-678
▁localidad	-679
▁$	-680
▁contra	-681
▁cuando	-682
cio	-683
▁am	-684
úl	-685
.0	-686
▁jo	-687
ni	-688
tante	-689
illa	-690
▁emp	-691
ones	-692
▁agua	-693
▁razas	-694
▁algun	-695
▁lí	-696
istas	-697
ts	-698
ril	-699
▁tu	-700
▁tempora	-701
tera	-702
▁país	-703
▁mé	-704
cas	-705
br	-706
▁tres	-707
ad	-708
▁the	-709
igu	-710
▁x	-711
▁carre	-712
▁siguien	-713
mos	-714
era	-715
ús	-716
▁estaba	-717
atro	-718
bo	-719
▁min	-720
▁$00	-721
▁río	-722
ticos	-723
▁pal	-724
▁cole	-725
úb	-726
▁general	-727
▁profes	-728
▁publ	-729
iste	-730
▁fu	-731
▁orden	-732
▁pun	-733
▁apar	-734
▁grupo	-735
▁otros	-736
cido	-737
▁vez	-738
▁reci	-739
▁of	-740
tiva	-741
▁ya	-742
▁lar	-743
▁anti	-744
eces	-745
▁refer	-746
bre	-747
▁descri	-748
▁argen	-749
▁ver	-750
▁fer	-751
▁tran	-752
▁superfici	-753
olo	-754
▁fa	-755
idi	-756
ong	-757
útbol	-758
▁fútbol	-759
▁cos	-760
▁partido	-761
cor	-762
dr	-763
orden	-764
quier	-765
ens	-766
▁jul	-767
▁pelícu	-768
últi	-769
▁mil	-770
ves	-771
jos	-772
▁interna	-773
▁español	-774
▁ri	-775
▁llama	-776
dre	-777
tral	-778
▁viv	-779
▁(0	-780
ll	-781
▁españa	-782
▁junto	-783
▁euro	-784
▁superficie	-785
▁li	-786
ición	-787
▁tierra	-788
▁muy	-789
▁mis	-790
▁fueron	-791
▁hu	-792
teg	-793
amente	-794
ka	-795
ha	-796
▁ce	-797
mpe	-798
▁lig	-799
▁ru	-800
▁constru	-801
ye	-802
tí	-803
yo	-804
▁depor	-805
▁mismo	-806
cí	-807
▁serie	-808
aba	-809
tón	-810
pti	-811
▁prop	-812
demás	-813
▁ubica	-814
▁tan	-815
▁sido	-816
▁además	-817
ban	-818
▁banda	-819
▁nueva	-820
▁«	-821
chos	-822
▁perteneci	-823
rea	-824
eros	-825
ece	-826
pi	-827
▁fil	-828
▁compues	-829
dar	-830
▁0.000	-831
▁ingres	-832
▁nov	-833
mero	-834
▁trans	-835
idades	-836
▁ele	-837
▁fir	-838
▁centro	-839
▁últi	-840
▁oficina	-841
ile	-842
and	-843
▁bajo	-844
▁gob	-845
iemp	-846
▁cá	-847
zado	-848
▁campeona	-849
▁así	-850
▁temporada	-851
ke	-852
▁0,00	-853
▁clas	-854
▁región	-855
rig	-856
▁aun	-857
tió	-858
pen	-859
lés	-860
▁han	-861
arro	-862
▁mi	-863
▁fl	-864
amer	-865
▁tí	-866
▁soci	-867
▁sen	-868
▁repres	-869
uela	-870
▁cien	-871
ys	-872
tili	-873
ula	-874
fa	-875
-0000	-876
▁inf	-877
oma	-878
▁ol	-879
▁mie	-880
tud	-881
▁("	-882
ordenadas	-883
respon	-884
▁peque	-885
americ	-886
▁coordenadas	-887
▁Á	-888
▁siglo	-889
rada	-890
▁amer	-891
▁inglés	-892
▁elec	-893
▁art	-894
▁canción	-895
▁correspon	-896
▁nú	-897
che	-898
▁emb	-899
gía	-900
▁julio	-901
▁inici	-902
tural	-903
all	-904
▁aunque	-905
lev	-906
tran	-907
ho	-908
au	-909
▁esc	-910
pre	-911
▁$00,000	-912
▁polí	-913
▁miemb	-914
▁distrito	-915
▁vi	-916
▁utili	-917
▁be	-918
▁origin	-919
▁guer	-920
jas	-921
blo	-922
ell	-923
▁siendo	-924
▁latin	-925
▁(00	-926
▁rela	-927
torio	-928
▁jos	-929
▁def	-930
▁segunda	-931
▁cada	-932
tion	-933
▁impor	-934
▁deb	-935
▁poblacional	-936
▁mundi	-937
▁mayo	-938
uego	-939
▁especies	-940
▁enero	-941
▁prem	-942
▁campeonato	-943
▁mús	-944
ical	-945
▁marzo	-946
ice	-947
▁historia	-948
▁desarro	-949
rar	-950
itar	-951
▁bal	-952
aron	-953
▁alcan	-954
▁rev	-955
▁vo	-956
▁0,0	-957
▁vol	-958
▁película	-959
▁cul	-960
tación	-961
via	-962
ór	-963
cre	-964
-0	-965
cis	-966
cur	-967
▁ur	-968
fe	-969
▁perteneciente	-970
▁gan	-971
▁ind	-972
▁estación	-973
ial	-974
inas	-975
▁ven	-976
dri	-977
rac	-978
erva	-979
▁aus	-980
▁conocido	-981
tubre	-982
▁tri	-983
km	-984
▁octubre	-985
van	-986
cul	-987
iá	-988
▁septi	-989
▁cualquier	-990
▁mujer	-991
▁conside	-992
eron	-993
▁junio	-994
▁isla	-995
▁final	-996
▁mundial	-997
▁actual	-998
ty	-999
▁septiembre	-1000
▁ig	-1001
▁unos	-1002
cep	-1003
▁dici	-1004
▁presiden	-1005
ques	-1006
parta	-1007
dó	-1008
istra	-1009
hi	-1010
érica	-1011
▁jug	-1012
gosto	-1013
▁fr	-1014
cel	-1015
ación	-1016
▁ubicada	-1017
▁funda	-1018
▁división	-1019
▁pi	-1020
▁cm	-1021
▁líne	-1022
▁difer	-1023
▁abril	-1024
ional	-1025
▁argentina	-1026
▁agosto	-1027
▁at	-1028
ticas	-1029
▁internacional	-1030
gado	-1031
ólo	-1032
com	-1033
irse	-1034
▁serv	-1035
▁mas	-1036
▁carrera	-1037
▁actualmente	-1038
▁organ	-1039
▁diciembre	-1040
▁cin	-1041
xico	-1042
cífico	-1043
ria	-1044
brero	-1045
▁amb	-1046
▁títu	-1047
▁febrero	-1048
▁compuesto	-1049
eno	-1050
▁pertenec	-1051
▁mej	-1052
ris	-1053
▁hisp	-1054
cial	-1055
▁quien	-1056
tic	-1057
▁herman	-1058
▁exp	-1059
▁esti	-1060
▁comen	-1061
▁departa	-1062
dro	-1063
▁pes	-1064
ito	-1065
▁tiemp	-1066
osa	-1067
▁sele	-1068
ola	-1069
▁guerra	-1070
iembre	-1071
ala	-1072
▁dirig	-1073
▁eje	-1074
▁posterior	-1075
▁noviembre	-1076
ública	-1077
wa	-1078
▁,	-1079
▁luego	-1080
▁publicado	-1081
uso	-1082
▁bri	-1083
grá	-1084
▁pacífico	-1085
▁cuenta	-1086
▁pin	-1087
▁fal	-1088
▁pueden	-1089
▁cuatro	-1090
▁reali	-1091
▁tuvo	-1092
gon	-1093
▁siste	-1094
▁pop	-1095
lado	-1096
ados	-1097
%)	-1098
▁asiá	-1099
▁ún	-1100
▁largo	-1101
rie	-1102
▁long	-1103
▁telev	-1104
▁progra	-1105
mó	-1106
▁méxico	-1107
rica	-1108
land	-1109
ki	-1110
ko	-1111
▁conv	-1112
▁desta	-1113
▁mer	-1114
▁comple	-1115
▁varios	-1116
tada	-1117
bió	-1118
▁todo	-1119
▁real	-1120
▁homb	-1121
mán	-1122
cn	-1123
ierno	-1124
▁hon	-1125
mica	-1126
neo	-1127
▁ge	-1128
▁contin	-1129
▁siguientes	-1130
mada	-1131
▁ni	-1132
▁pues	-1133
mes	-1134
▁medios	-1135
▁vida	-1136
▁disco	-1137
olu	-1138
▁trabaj	-1139
▁mundo	-1140
▁ber	-1141
▁tar	-1142
oría	-1143
don	-1144
▁sue	-1145
rió	-1146
▁partici	-1147
rede	-1148
▁liga	-1149
var	-1150
▁blancos	-1151
▁meda	-1152
americanos	-1153
2,	-1154
▁00.00%	-1155
dose	-1156
▁antes	-1157
▁ep	-1158
▁vers	-1159
omina	-1160
▁gana	-1161
the	-1162
tá	-1163
▁00,00	-1164
▁mor	-1165
▁juan	-1166
▁rey	-1167
▁conse	-1168
▁hijo	-1169
▁raza	-1170
▁ese	-1171
▁ii	-1172
▁tro	-1173
▁dispu	-1174
▁todos	-1175
▁mes	-1176
▁pers	-1177
▁0.0	-1178
vil	-1179
▁tipo	-1180
óp	-1181
▁igles	-1182
▁nuevo	-1183
▁capital	-1184
▁alrede	-1185
▁metros	-1186
óg	-1187
▁corresponden	-1188
▁departamento	-1189
▁obra	-1190
▁afro	-1191
▁zona	-1192
▁principal	-1193
mil	-1194
▁particip	-1195
idiendo	-1196
cla	-1197
▁ag	-1198
▁pan	-1199
cado	-1200
aria	-1201
▁bras	-1202
wn	-1203
tino	-1204
▁00,0	-1205
itud	-1206
▁director	-1207
yec	-1208
▁medio	-1209
▁os	-1210
tir	-1211
▁asiáticos	-1212
▁firme	-1213
▁segundo	-1214
▁autor	-1215
ds	-1216
▁línea	-1217
ministra	-1218
lig	-1219
iz	-1220
▁número	-1221
▁categ	-1222
▁fo	-1223
▁tiempo	-1224
gas	-1225
▁bel	-1226
▁josé	-1227
./	-1228
▁tur	-1229
ientras	-1230
if	-1231
▁pueblo	-1232
▁interpre	-1233
▁residiendo	-1234
▁latinos	-1235
▁má	-1236
mentos	-1237
▁debu	-1238
▁mientras	-1239
val	-1240
▁referirse	-1241
gel	-1242
isten	-1243
fo	-1244
antes	-1245
má	-1246
▁tom	-1247
▁longitud	-1248
tivos	-1249
▁deci	-1250
▁presenta	-1251
▁gol	-1252
▁afroamericanos	-1253
▁copa	-1254
▁representa	-1255
▁institu	-1256
▁hispanos	-1257
▁servici	-1258
▁gal	-1259
▁santa	-1260
▁amerin	-1261
▁juga	-1262
▁juegos	-1263
▁administra	-1264
▁estre	-1265
▁amerindios	-1266
dida	-1267
▁algunos	-1268
sh	-1269
▁muer	-1270
▁pertenecían	-1271
▁oeste	-1272
▁debido	-1273
▁isle	-1274
▁ita	-1275
▁dentro	-1276
▁alrededor	-1277
▁00.000	-1278
▁hay	-1279
.000	-1280
▁día	-1281
▁hacia	-1282
▁cine	-1283
▁acu	-1284
▁vic	-1285
eta	-1286
▁título	-1287
lab	-1288
▁empres	-1289
▁recon	-1290
▁encon	-1291
▁natural	-1292
▁iglesia	-1293
▁color	-1294
▁situada	-1295
▁están	-1296
▁isleños	-1297
▁dese	-1298
forma	-1299
▁ingresos	-1300
▁dere	-1301
gue	-1302
ento	-1303
oso	-1304
ieron	-1305
▁embar	-1306
drid	-1307
▁je	-1308
▁realiza	-1309
▁música	-1310
▁presidente	-1311
▁vis	-1312
▁mal	-1313
cta	-1314
gó	-1315
▁televisión	-1316
▁área	-1317
dades	-1318
▁inv	-1319
cub	-1320
ares	-1321
▁compañ	-1322
et	-1323
pel	-1324
▁sistema	-1325
▁popular	-1326
▁apro	-1327
una	-1328
tel	-1329
▁tanto	-1330
▁torneo	-1331
▁itali	-1332
iente	-1333
▁aleman	-1334
▁gar	-1335
▁ay	-1336
▁go	-1337
ciden	-1338
▁organiza	-1339
ae	-1340
tuvo	-1341
▁antigu	-1342
tados	-1343
▁gobierno	-1344
▁bor	-1345
ff	-1346
▁ir	-1347
▁miembro	-1348
▁fi	-1349
▁va	-1350
ología	-1351
▁tér	-1352
amiento	-1353
▁ocu	-1354
chas	-1355
llas	-1356
▁frances	-1357
pera	-1358
▁frente	-1359
▁cru	-1360
▁persona	-1361
cionales	-1362
ry	-1363
▁equipos	-1364
▁república	-1365
nia	-1366
▁puer	-1367
ps	-1368
tom	-1369
bur	-1370
▁signi	-1371
▁anterior	-1372
▁ai	-1373
▁central	-1374
cés	-1375
▁recor	-1376
▁loc	-1377
igna	-1378
▁comenzó	-1379
▁mujeres	-1380
rá	-1381
▁programa	-1382
▁premio	-1383
▁situado	-1384
▁bos	-1385
▁edición	-1386
rag	-1387
ivel	-1388
tbolista	-1389
ian	-1390
▁fede	-1391
ork	-1392
▁obras	-1393
tur	-1394
icar	-1395
▁denomina	-1396
icó	-1397
▁dan	-1398
▁fre	-1399
cada	-1400
▁nació	-1401
nes	-1402
▁mejor	-1403
rales	-1404
▁términ	-1405
tia	-1406
▁pie	-1407
pol	-1408
▁embargo	-1409
ierto	-1410
estra	-1411
▁solo	-1412
dido	-1413
▁len	-1414
inos	-1415
tt	-1416
ifica	-1417
▁cerca	-1418
▁encontra	-1419
▁conf	-1420
pl	-1421
▁th	-1422
mina	-1423
pas	-1424
▁partidos	-1425
▁hace	-1426
▁mag	-1427
▁incluy	-1428
hn	-1429
ea	-1430
▁segu	-1431
▁obs	-1432
dé	-1433
vés	-1434
ímp	-1435
jes	-1436
▁varias	-1437
▁nivel	-1438
▁siguiente	-1439
ama	-1440
▁camb	-1441
▁cientí	-1442
▁profesional	-1443
▁dé	-1444
udo	-1445
▁carac	-1446
▁descub	-1447
▁sólo	-1448
▁estudios	-1449
▁maría	-1450
▁cele	-1451
▁categoría	-1452
fec	-1453
cin	-1454
▁francia	-1455
▁cir	-1456
▁europe	-1457
▁publica	-1458
▁juega	-1459
▁(0000)	-1460
▁comer	-1461
cida	-1462
▁selección	-1463
▁madrid	-1464
▁posteriormente	-1465
tando	-1466
dica	-1467
▁española	-1468
▁convir	-1469
▁hizo	-1470
▁ella	-1471
▁chile	-1472
tonces	-1473
▁casa	-1474
ira	-1475
▁edad	-1476
▁ros	-1477
▁estos	-1478
▁aca	-1479
▁jugó	-1480
esa	-1481
▁llegar	-1482
▁inte	-1483
icano	-1484
▁sh	-1485
▁0,000	-1486
cía	-1487
▁proyec	-1488
▁all	-1489
▁divers	-1490
▁escuela	-1491
▁0000),	-1492
ñas	-1493
▁perio	-1494
fía	-1495
idas	-1496
▁veces	-1497
▁coleóp	-1498
▁entonces	-1499
ientos	-1500
▁casti	-1501
▁terri	-1502
tantes	-1503
tín	-1504
tido	-1505
▁francés	-1506
▁vene	-1507
ible	-1508
ocia	-1509
▁(0000-0000	-1510
▁padre	-1511
▁olímp	-1512
▁ben	-1513
▁buen	-1514
▁encuentran	-1515
lico	-1516
arca	-1517
▁través	-1518
tus	-1519
▁000,00	-1520
▁pose	-1521
▁gen	-1522
iano	-1523
▁partir	-1524
imo	-1525
▁conocida	-1526
▁agu	-1527
▁caracter	-1528
día	-1529
bita	-1530
tis	-1531
▁hombres	-1532
▁cla	-1533
▁minis	-1534
▁algunas	-1535
▁carlos	-1536
ger	-1537
▁dise	-1538
▁cali	-1539
cl	-1540
▁bien	-1541
▁die	-1542
▁monta	-1543
jun	-1544
▁llamado	-1545
▁distin	-1546
tánico	-1547
▁and	-1548
▁ga	-1549
ud	-1550
▁estudio	-1551
▁superior	-1552
para	-1553
▁asocia	-1554
▁luis	-1555
one	-1556
▁coleóptero	-1557
vesti	-1558
fi	-1559
▁compe	-1560
▁él	-1561
▁colomb	-1562
▁estable	-1563
ini	-1564
▁actor	-1565
▁compi	-1566
▁er	-1567
▁edifici	-1568
▁poco	-1569
zada	-1570
▁sede	-1571
▁cuar	-1572
ez	-1573
rano	-1574
▁ganó	-1575
▁grandes	-1576
▁entr	-1577
▁otro	-1578
▁trabajo	-1579
▁resul	-1580
dera	-1581
▁az	-1582
óme	-1583
▁ka	-1584
▁flores	-1585
▁tarde	-1586
tales	-1587
▁activ	-1588
til	-1589
▁futbolista	-1590
▁nu	-1591
▁empe	-1592
▁ante	-1593
tiene	-1594
▁base	-1595
▁edu	-1596
▁plata	-1597
▁participa	-1598
lación	-1599
▁""	-1600
▁costa	-1601
▁grie	-1602
▁media	-1603
ima	-1604
▁dich	-1605
▁em	-1606
▁ran	-1607
triz	-1608
▁canciones	-1609
▁pen	-1610
▁distribu	-1611
▁descrito	-1612
▁continu	-1613
vas	-1614
▁término	-1615
▁york	-1616
▁participó	-1617
▁plantas	-1618
turas	-1619
▁significa	-1620
▁investi	-1621
ley	-1622
▁cris	-1623
▁inde	-1624
▁señ	-1625
elo	-1626
▁ejemp	-1627
▁(0000),	-1628
▁puntos	-1629
▁gre	-1630
▁00.	-1631
▁francis	-1632
cam	-1633
▁eleg	-1634
gal	-1635
▁ferro	-1636
▁–	-1637
▁trata	-1638
▁xi	-1639
▁der	-1640
▁nombrado	-1641
▁bol	-1642
ted	-1643
▁senci	-1644
▁tex	-1645
▁comuna	-1646
▁cono	-1647
▁cargo	-1648
▁versión	-1649
▁econ	-1650
▁planta	-1651
dan	-1652
ins	-1653
bas	-1654
mor	-1655
▁rock	-1656
▁hacer	-1657
▁domin	-1658
▁tienen	-1659
▁teatro	-1660
dres	-1661
▁termin	-1662
formes	-1663
▁obtuvo	-1664
▁muerte	-1665
tagon	-1666
▁mill	-1667
tista	-1668
▁rus	-1669
▁constitu	-1670
▁hom	-1671
terio	-1672
▁islas	-1673
▁har	-1674
onia	-1675
▁indi	-1676
ick	-1677
▁honor	-1678
▁importante	-1679
gro	-1680
zan	-1681
▁0-0	-1682
pita	-1683
▁último	-1684
▁misma	-1685
▁ellos	-1686
▁graba	-1687
iso	-1688
.00%)	-1689
ológ	-1690
▁falle	-1691
▁toda	-1692
▁inten	-1693
▁ref	-1694
▁origen	-1695
▁kil	-1696
titud	-1697
▁anton	-1698
▁francesa	-1699
lia	-1700
▁amp	-1701
▁compos	-1702
icana	-1703
rios	-1704
able	-1705
▁cinco	-1706
▁portu	-1707
▁medalla	-1708
cciones	-1709
hu	-1710
▁designa	-1711
▁human	-1712
▁estuvo	-1713
▁mex	-1714
jar	-1715
▁brasil	-1716
▁épo	-1717
▁cic	-1718
▁clasifica	-1719
od	-1720
▁villa	-1721
▁lanzado	-1722
▁puesto	-1723
▁arqui	-1724
▁ocas	-1725
▁diferentes	-1726
▁tal	-1727
▁países	-1728
có	-1729
▁inse	-1730
▁cur	-1731
▁incluye	-1732
▁cuer	-1733
▁europa	-1734
▁papel	-1735
▁conta	-1736
ura	-1737
▁ren	-1738
mico	-1739
est	-1740
▁igu	-1741
▁otra	-1742
▁et	-1743
▁cantante	-1744
▁cuad	-1745
bajo	-1746
▁za	-1747
▁menos	-1748
imen	-1749
▁les	-1750
▁titu	-1751
ác	-1752
▁apo	-1753
erto	-1754
frica	-1755
▁púb	-1756
▁sab	-1757
▁días	-1758
gación	-1759
▁éxi	-1760
ctos	-1761
▁indepen	-1762
▁muchos	-1763
▁john	-1764
▁on	-1765
▁oro	-1766
sión	-1767
▁vir	-1768
bra	-1769
▁vide	-1770
diente	-1771
▁espa	-1772
illo	-1773
ctura	-1774
▁sil	-1775
▁tr	-1776
▁esp	-1777
▁político	-1778
▁có	-1779
lada	-1780
nos	-1781
▁flor	-1782
▁tradi	-1783
▁radio	-1784
▁quin	-1785
▁estas	-1786
ceae	-1787
▁posición	-1788
tad	-1789
esti	-1790
▁histó	-1791
▁altura	-1792
▁estr	-1793
celona	-1794
ms	-1795
▁cantón	-1796
▁lin	-1797
dico	-1798
▁mom	-1799
ceso	-1800
▁reino	-1801
▁jugador	-1802
▁prome	-1803
▁catal	-1804
lio	-1805
▁0.	-1806
▁época	-1807
▁lista	-1808
▁unión	-1809
italia	-1810
▁hogar	-1811
▁capa	-1812
ística	-1813
▁permi	-1814
▁bro	-1815
▁campeón	-1816
▁grande	-1817
▁(0.00%)	-1818
tivas	-1819
▁emple	-1820
▁obje	-1821
▁esto	-1822
cimiento	-1823
▁ley	-1824
▁fern	-1825
▁cuales	-1826
▁protagon	-1827
▁exten	-1828
▁ascen	-1829
▁compañía	-1830
▁alf	-1831
▁té	-1832
mula	-1833
vela	-1834
▁(0000).	-1835
ilo	-1836
tria	-1837
▁profesor	-1838
▁fes	-1839
▁parque	-1840
lin	-1841
isa	-1842
▁primeros	-1843
▁única	-1844
pro	-1845
▁num	-1846
▁localiza	-1847
gio	-1848
▁ah	-1849
ex	-1850
bus	-1851
col	-1852
▁estilo	-1853
▁libro	-1854
▁alemán	-1855
▁venez	-1856
▁peces	-1857
arios	-1858
▁lim	-1859
uri	-1860
ós	-1861
▁punto	-1862
▁via	-1863
▁pon	-1864
▁tenían	-1865
▁colab	-1866
▁sí	-1867
▁haber	-1868
▁convirtió	-1869
▁referencia	-1870
▁cha	-1871
icales	-1872
▁mos	-1873
ono	-1874
▁cápita	-1875
▁social	-1876
dra	-1877
▁dra	-1878
ft	-1879
ies	-1880
cle	-1881
▁we	-1882
▁arquite	-1883
▁principales	-1884
ang	-1885
▁principalmente	-1886
ship	-1887
▁oficial	-1888
▁orien	-1889
cidad	-1890
▁conjun	-1891
▁todas	-1892
▁il	-1893
▁reconoci	-1894
▁roman	-1895
ándose	-1896
tida	-1897
▁alcanzar	-1898
▁mode	-1899
▁museo	-1900
▁francisco	-1901
vió	-1902
▁alto	-1903
▁musical	-1904
▁hojas	-1905
tario	-1906
▁actriz	-1907
▁$00,000.	-1908
ficamente	-1909
ivo	-1910
onas	-1911
igh	-1912
▁wa	-1913
▁comunidad	-1914
ides	-1915
▁arte	-1916
cun	-1917
▁alemania	-1918
dal	-1919
▁aires	-1920
▁occiden	-1921
▁pasó	-1922
▁municipal	-1923
▁calle	-1924
tores	-1925
▁edificio	-1926
▁alber	-1927
▁américa	-1928
fornia	-1929
ensa	-1930
▁dar	-1931
▁empresa	-1932
nas	-1933
▁llegó	-1934
▁existen	-1935
▁bur	-1936
cina	-1937
▁kilóme	-1938
bles	-1939
bar	-1940
▁campo	-1941
▁aven	-1942
▁obten	-1943
▁aproxi	-1944
ly	-1945
gres	-1946
▁yo	-1947
-000	-1948
▁video	-1949
▁van	-1950
▁incl	-1951
▁mater	-1952
▁gober	-1953
id	-1954
▁bus	-1955
tamente	-1956
ador	-1957
▁hija	-1958
▁tama	-1959
bor	-1960
tio	-1961
▁barrio	-1962
▁servicio	-1963
▁festiv	-1964
▁mayoría	-1965
▁barcelona	-1966
▁balon	-1967
▁pá	-1968
ville	-1969
▁socie	-1970
ense	-1971
▁estudi	-1972
ró	-1973
▁hor	-1974
▁lon	-1975
▁recibió	-1976
▁astero	-1977
▁cabo	-1978
▁auto	-1979
eció	-1980
gada	-1981
▁regres	-1982
yó	-1983
dencia	-1984
▁italia	-1985
▁revista	-1986
ist	-1987
▁antiguo	-1988
▁buenos	-1989
▁miembros	-1990
▁town	-1991
▁realizó	-1992
▁infer	-1993
▁construcción	-1994
san	-1995
pón	-1996
▁vuel	-1997
orge	-1998
▁00,	-1999
▁numeros	-2000
▁posee	-2001
▁sir	-2002
▁char	-2003
pr	-2004
▁especial	-2005
tivamente	-2006
reg	-2007
▁000.	-2008
are	-2009
mal	-2010
mientos	-2011
ual	-2012
▁antonio	-2013
▁ste	-2014
▁puerto	-2015
▁finales	-2016
▁sencillo	-2017
▁jugar	-2018
▁bra	-2019
▁militar	-2020
ac	-2021
▁cuen	-2022
▁nacido	-2023
▁parís	-2024
▁hermano	-2025
ética	-2026
▁mm	-2027
▁secre	-2028
▁“	-2029
▁litera	-2030
monio	-2031
diendo	-2032
▁técn	-2033
▁mol	-2034
quí	-2035
▁dista	-2036
▁perman	-2037
▁conserva	-2038
tiago	-2039
itos	-2040
▁bre	-2041
▁há	-2042
▁california	-2043
▁br	-2044
cera	-2045
▁inferior	-2046
▁lado	-2047
▁instituto	-2048
ican	-2049
ut	-2050
▁0000-0000	-2051
▁designado	-2052
dis	-2053
▁casi	-2054
▁00.0	-2055
▁indus	-2056
▁territorio	-2057
▁mig	-2058
▁prue	-2059
▁desempe	-2060
▁cub	-2061
▁estudió	-2062
▁comien	-2063
famil	-2064
▁valle	-2065
▁hal	-2066
▁descrita	-2067
▁china	-2068
▁llamada	-2069
▁elecciones	-2070
▁derecho	-2071
▁década	-2072
▁monte	-2073
▁mediante	-2074
▁ke	-2075
▁momento	-2076
▁atra	-2077
▁ecu	-2078
▁metro	-2079
▁fundado	-2080
▁pasa	-2081
▁pl	-2082
ncia	-2083
▁desarrollo	-2084
iana	-2085
talla	-2086
▁ado	-2087
▁pertenece	-2088
esta	-2089
▁hol	-2090
▁xvi	-2091
quia	-2092
▁sch	-2093
▁tener	-2094
▁dio	-2095
▁común	-2096
pan	-2097
ería	-2098
rez	-2099
▁lleva	-2100
grafía	-2101
▁fus	-2102
▁extre	-2103
▁&	-2104
guay	-2105
▁poder	-2106
▁simil	-2107
▁cató	-2108
▁integra	-2109
vos	-2110
▁av	-2111
▁austral	-2112
▁pequeño	-2113
gre	-2114
▁perú	-2115
té	-2116
▁éxito	-2117
▁olímpicos	-2118
▁alta	-2119
▁amar	-2120
ans	-2121
del	-2122
▁aproximada	-2123
▁respe	-2124
uda	-2125
▁civ	-2126
▁fam	-2127
ome	-2128
▁caus	-2129
▁uru	-2130
íos	-2131
▁canal	-2132
▁0.0%	-2133
▁és	-2134
ham	-2135
▁cabe	-2136
▁producción	-2137
▁chil	-2138
▁seis	-2139
"),	-2140
▁interior	-2141
▁original	-2142
▁vie	-2143
▁ej	-2144
▁entra	-2145
▁kilómetros	-2146
▁libre	-2147
▁altitud	-2148
dora	-2149
tadas	-2150
▁trabajó	-2151
▁pedro	-2152
▁opera	-2153
▁new	-2154
▁antigua	-2155
▁desa	-2156
▁cicl	-2157
cación	-2158
▁igual	-2159
▁llev	-2160
cito	-2161
▁observa	-2162
augu	-2163
000	-2164
lor	-2165
▁encar	-2166
▁contro	-2167
▁política	-2168
int	-2169
▁última	-2170
▁gua	-2171
▁township	-2172
rados	-2173
▁vel	-2174
▁propie	-2175
▁inaugu	-2176
▁único	-2177
▁lic	-2178
▁movi	-2179
familia	-2180
▁efec	-2181
▁dif	-2182
▁conven	-2183
▁ama	-2184
▁trop	-2185
arse	-2186
ner	-2187
▁utiliza	-2188
▁dipu	-2189
▁artes	-2190
▁tamaño	-2191
▁juego	-2192
▁dirección	-2193
und	-2194
▁aparece	-2195
▁hijos	-2196
▁palab	-2197
▁ejemplo	-2198
▁estadio	-2199
trimonio	-2200
▁academ	-2201
ilidad	-2202
▁reco	-2203
▁finalmente	-2204
dea	-2205
▁italiano	-2206
▁escrito	-2207
▁machos	-2208
▁figu	-2209
▁ví	-2210
ok	-2211
▁ambos	-2212
▁elegido	-2213
▁colabora	-2214
▁cli	-2215
rando	-2216
▁civil	-2217
▁renta	-2218
▁competi	-2219
reas	-2220
▁imper	-2221
tien	-2222
▁cri	-2223
▁proyecto	-2224
▁máxi	-2225
▁argentino	-2226
▁desarrolla	-2227
zando	-2228
▁ó	-2229
▁mic	-2230
▁hecho	-2231
ase	-2232
▁murió	-2233
▁pobre	-2234
dic	-2235
▁pala	-2236
▁consigu	-2237
tánica	-2238
▁fon	-2239
▁tercer	-2240
▁promo	-2241
▁dirigida	-2242
▁deri	-2243
rys	-2244
▁simp	-2245
▁hoy	-2246
ale	-2247
han	-2248
▁ree	-2249
▁ning	-2250
▁represen	-2251
▁pare	-2252
▁sex	-2253
▁formar	-2254
▁santiago	-2255
▁exper	-2256
▁lengua	-2257
▁red	-2258
úa	-2259
▁crí	-2260
▁escritor	-2261
▁umb	-2262
iro	-2263
gráfico	-2264
gró	-2265
▁uso	-2266
rador	-2267
▁colombia	-2268
paña	-2269
▁dej	-2270
▁insecto	-2271
▁ór	-2272
▁fab	-2273
▁millones	-2274
▁debajo	-2275
▁atl	-2276
▁aque	-2277
▁limita	-2278
terra	-2279
zón	-2280
igo	-2281
▁fron	-2282
dy	-2283
▁conce	-2284
▁unido	-2285
▁muchas	-2286
ál	-2287
zos	-2288
▁científicamente	-2289
▁escen	-2290
▁formado	-2291
▁festival	-2292
▁estren	-2293
fr	-2294
iere	-2295
▁fru	-2296
ella	-2297
▁australia	-2298
dez	-2299
▁ejér	-2300
▁espos	-2301
ierta	-2302
cil	-2303
▁op	-2304
▁manera	-2305
vor	-2306
▁joven	-2307
▁contiene	-2308
▁ara	-2309
▁compren	-2310
▁femen	-2311
▁importantes	-2312
▁cara	-2313
▁recib	-2314
▁debe	-2315
▁conjunto	-2316
▁esa	-2317
enador	-2318
cios	-2319
chi	-2320
▁jus	-2321
▁bron	-2322
▁pez	-2323
dam	-2324
▁seman	-2325
▁león	-2326
▁blanco	-2327
▁flo	-2328
ju	-2329
▁ua	-2330
pal	-2331
vis	-2332
▁ron	-2333
mental	-2334
tidad	-2335
▁demo	-2336
tribu	-2337
▁gas	-2338
ek	-2339
▁madre	-2340
▁will	-2341
▁organización	-2342
si	-2343
▁japón	-2344
▁grupos	-2345
▁conci	-2346
▁ph	-2347
▁creado	-2348
yn	-2349
▁aten	-2350
▁balonces	-2351
rido	-2352
▁histór	-2353
omas	-2354
▁tercera	-2355
áce	-2356
▁even	-2357
anda	-2358
▁emi	-2359
olución	-2360
▁ata	-2361
▁plaza	-2362
▁estrella	-2363
▁leg	-2364
▁endé	-2365
▁servicios	-2366
▁relig	-2367
▁cro	-2368
▁torre	-2369
▁ruta	-2370
gráfica	-2371
deo	-2372
▁docu	-2373
▁fc	-2374
▁aero	-2375
erdo	-2376
▁aproximadamente	-2377
▁fich	-2378
ler	-2379
lares	-2380
▁occidental	-2381
▁escu	-2382
op	-2383
su	-2384
▁parro	-2385
▁estru	-2386
▁carretera	-2387
▁chrys	-2388
▁acep	-2389
▁cuerpo	-2390
▁debutó	-2391
▁forman	-2392
él	-2393
▁público	-2394
▁sta	-2395
aban	-2396
▁ases	-2397
▁fra	-2398
▁primero	-2399
▁profun	-2400
▁mich	-2401
▁É	-2402
▁pequeña	-2403
we	-2404
▁actualidad	-2405
▁pobreza	-2406
▁botánico	-2407
unta	-2408
rias	-2409
▁lago	-2410
▁period	-2411
▁eta	-2412
▁derro	-2413
ónica	-2414
▁caso	-2415
▁tema	-2416
▁neces	-2417
ético	-2418
▁allí	-2419
▁lor	-2420
▁ed	-2421
▁influ	-2422
▁manuel	-2423
▁ár	-2424
.,	-2425
cra	-2426
▁estaban	-2427
▁datos	-2428
▁temporadas	-2429
dero	-2430
omel	-2431
▁bi	-2432
▁temas	-2433
mun	-2434
▁África	-2435
▁goberna	-2436
▁películas	-2437
▁ejército	-2438
▁griego	-2439
▁aband	-2440
▁victoria	-2441
oeste	-2442
▁0:	-2443
▁formó	-2444
▁considera	-2445
ístico	-2446
▁ocasiones	-2447
▁aguas	-2448
▁conver	-2449
iva	-2450
▁moder	-2451
▁geo	-2452
ientes	-2453
▁distancia	-2454
bi	-2455
rse	-2456
▁informa	-2457
▁cruz	-2458
▁ded	-2459
▁composi	-2460
▁rober	-2461
▁venezuela	-2462
▁academia	-2463
▁baloncesto	-2464
▁ocupa	-2465
▁debut	-2466
▁guitar	-2467
aro	-2468
▁deriva	-2469
▁sie	-2470
▁ana	-2471
ónimo	-2472
laterra	-2473
▁tre	-2474
tz	-2475
ington	-2476
▁zonas	-2477
▁econó	-2478
▁hos	-2479
inación	-2480
▁ib	-2481
▁novela	-2482
omelidae	-2483
inado	-2484
▁propio	-2485
▁extra	-2486
by	-2487
pres	-2488
▁chrysomelidae	-2489
▁descen	-2490
eld	-2491
▁incluyendo	-2492
▁india	-2493
▁japon	-2494
ciales	-2495
▁descubierto	-2496
▁juven	-2497
▁aplica	-2498
▁sociedad	-2499
ispo	-2500
▁agr	-2501
bla	-2502
▁anun	-2503
▁formación	-2504
mu	-2505
▁asociación	-2506
▁mel	-2507
▁prote	-2508
encias	-2509
▁menor	-2510
port	-2511
▁Án	-2512
▁sing	-2513
▁londres	-2514
▁baja	-2515
▁perío	-2516
bal	-2517
ash	-2518
▁vien	-2519
▁incor	-2520
▁$00.000	-2521
entemente	-2522
▁hábita	-2523
▁ministro	-2524
vie	-2525
omía	-2526
let	-2527
icul	-2528
▁pesar	-2529
▁liber	-2530
▁iv	-2531
bia	-2532
dura	-2533
din	-2534
▁ger	-2535
érico	-2536
▁deportista	-2537
▁circu	-2538
▁'	-2539
torial	-2540
▁fel	-2541
▁umbral	-2542
▁fecha	-2543
▁0000).	-2544
▁abs	-2545
cionado	-2546
cien	-2547
▁alcal	-2548
▁deportivo	-2549
▁maes	-2550
▁ms	-2551
▁medallas	-2552
illas	-2553
ciendo	-2554
▁metal	-2555
▁fan	-2556
▁fundada	-2557
ign	-2558
▁ingen	-2559
▁unas	-2560
pla	-2561
▁gon	-2562
").	-2563
ks	-2564
▁diversos	-2565
▁0000-00	-2566
▁bronce	-2567
▁acuerdo	-2568
▁jard	-2569
▁ev	-2570
culo	-2571
▁ada	-2572
▁europeo	-2573
▁miguel	-2574
leza	-2575
▁escul	-2576
▁jer	-2577
▁iz	-2578
tual	-2579
ísticas	-2580
▁mul	-2581
».	-2582
▁paso	-2583
▁venta	-2584
my	-2585
▁ejecu	-2586
▁consejo	-2587
▁defensa	-2588
puerto	-2589
▁ejer	-2590
/00	-2591
▁verano	-2592
yos	-2593
▁falleció	-2594
ker	-2595
sen	-2596
tau	-2597
▁realizar	-2598
ines	-2599
vieron	-2600
sos	-2601
▁come	-2602
▁instru	-2603
▁principios	-2604
▁portugu	-2605
▁dia	-2606
▁tour	-2607
▁personaje	-2608
iempre	-2609
ple	-2610
▁reti	-2611
▁castillo	-2612
▁tradu	-2613
▁ganador	-2614
▁sam	-2615
▁ade	-2616
▁din	-2617
tró	-2618
▁0,	-2619
ila	-2620
teto	-2621
▁cultural	-2622
ardo	-2623
▁dispon	-2624
▁inglaterra	-2625
▁oriental	-2626
▁dul	-2627
▁00%	-2628
▁manten	-2629
▁considerado	-2630
cuencia	-2631
izada	-2632
▁movimiento	-2633
▁contaba	-2634
org	-2635
rida	-2636
mis	-2637
▁Ángel	-2638
▁fuera	-2639
vidu	-2640
▁participar	-2641
iar	-2642
ney	-2643
▁minu	-2644
onado	-2645
ze	-2646
▁jam	-2647
▁ciencias	-2648
▁presen	-2649
▁nar	-2650
▁iden	-2651
▁luz	-2652
▁otor	-2653
▁<	-2654
mbo	-2655
▁hen	-2656
▁bosques	-2657
▁ofre	-2658
▁compitió	-2659
at	-2660
▁autón	-2661
▁proble	-2662
▁vive	-2663
▁negro	-2664
▁conten	-2665
▁—	-2666
posición	-2667
▁siempre	-2668
▁artícu	-2669
▁transpor	-2670
▁conte	-2671
▁vas	-2672
▁hel	-2673
▁batalla	-2674
▁disputó	-2675
▁sor	-2676
▁acer	-2677
wo	-2678
vada	-2679
▁publicó	-2680
▁lugares	-2681
nacido	-2682
▁relación	-2683
▁celeb	-2684
▁árbol	-2685
▁arch	-2686
▁rusia	-2687
▁ellas	-2688
nm	-2689
ticular	-2690
▁individu	-2691
▁corre	-2692
ão	-2693
▁roma	-2694
▁federación	-2695
▁salva	-2696
▁recu	-2697
ny	-2698
▁italiana	-2699
▁jes	-2700
use	-2701
metro	-2702
▁chris	-2703
▁proce	-2704
▁desempeñ	-2705
▁resto	-2706
▁tren	-2707
▁cel	-2708
▁clás	-2709
▁período	-2710
tif	-2711
rique	-2712
▁vin	-2713
vid	-2714
sk	-2715
zz	-2716
▁cy	-2717
espe	-2718
▁ciudades	-2719
▁infan	-2720
▁suf	-2721
▁esposa	-2722
▁iii	-2723
itan	-2724
▁noroeste	-2725
▁bib	-2726
nam	-2727
iles	-2728
▁participación	-2729
▁/	-2730
▁condu	-2731
▁ingreso	-2732
dena	-2733
▁mur	-2734
▁sea	-2735
▁0,00%	-2736
▁muestra	-2737
▁trasla	-2738
ota	-2739
cesis	-2740
▁astr	-2741
gin	-2742
▁posible	-2743
▁prueba	-2744
▁acom	-2745
▁especialmente	-2746
▁pens	-2747
ár	-2748
▁records	-2749
▁mucho	-2750
▁estar	-2751
cy	-2752
▁urb	-2753
mpla	-2754
▁diá	-2755
ung	-2756
▁expres	-2757
▁destaca	-2758
▁aeropuerto	-2759
ther	-2760
itas	-2761
pó	-2762
▁conoce	-2763
▁endémica	-2764
»,	-2765
▁wal	-2766
terna	-2767
▁siete	-2768
▁msnm	-2769
ización	-2770
▁latino	-2771
▁prob	-2772
cán	-2773
▁clase	-2774
▁libros	-2775
▁dedica	-2776
▁tel	-2777
..	-2778
▁cultura	-2779
▁camp	-2780
lante	-2781
▁electo	-2782
gor	-2783
ford	-2784
tedral	-2785
▁particular	-2786
▁marca	-2787
▁sola	-2788
▁fernando	-2789
▁clima	-2790
torias	-2791
▁ríos	-2792
▁partes	-2793
▁investigación	-2794
forme	-2795
mado	-2796
isla	-2797
▁verde	-2798
▁insta	-2799
▁ferrocar	-2800
▁ingenier	-2801
▁inició	-2802
▁dor	-2803
▁comunica	-2804
yas	-2805
▁católica	-2806
▁meses	-2807
▁arro	-2808
▁logra	-2809
▁che	-2810
taron	-2811
▁wil	-2812
▁00000	-2813
▁residen	-2814
ilar	-2815
▁epí	-2816
▁dicho	-2817
▁funcion	-2818
▁tradicional	-2819
▁avenida	-2820
onó	-2821
tol	-2822
▁corte	-2823
▁wor	-2824
▁amor	-2825
▁depen	-2826
genes	-2827
▁asia	-2828
gi	-2829
▁izquier	-2830
▁ken	-2831
dición	-2832
▁originalmente	-2833
▁ré	-2834
▁episo	-2835
▁actividad	-2836
itario	-2837
llos	-2838
▁ahora	-2839
tía	-2840
▁ocho	-2841
tional	-2842
."	-2843
▁hombre	-2844
mara	-2845
▁jefe	-2846
▁finali	-2847
▁modelo	-2848
▁mexicano	-2849
▁federal	-2850
▁sierra	-2851
▁gradu	-2852
▁cuyo	-2853
mática	-2854
ld	-2855
tte	-2856
▁nob	-2857
▁willia	-2858
tifica	-2859
logía	-2860
▁enfer	-2861
▁hábitat	-2862
▁cabeza	-2863
ane	-2864
▁brasile	-2865
▁david	-2866
ting	-2867
sal	-2868
▁anim	-2869
menta	-2870
ix	-2871
▁amplia	-2872
▁esco	-2873
dina	-2874
burgo	-2875
vía	-2876
tancia	-2877
▁concep	-2878
▁catedral	-2879
▁capacidad	-2880
vin	-2881
▁lucha	-2882
▁xvii	-2883
ficos	-2884
▁escribió	-2885
▁propia	-2886
ws	-2887
▁idi	-2888
elas	-2889
▁escrita	-2890
▁religios	-2891
▁dulce	-2892
ches	-2893
uelo	-2894
▁eu	-2895
her	-2896
iciones	-2897
▁abo	-2898
▁municipios	-2899
▁candida	-2900
▁británico	-2901
▁fís	-2902
▁espacio	-2903
▁bla	-2904
▁educación	-2905
▁ruso	-2906
▁sustitu	-2907
▁00,0%	-2908
▁favor	-2909
▁generalmente	-2910
▁construido	-2911
▁cere	-2912
dría	-2913
▁gira	-2914
▁trabajos	-2915
▁mono	-2916
▁mercado	-2917
omo	-2918
▁xx	-2919
▁fla	-2920
▁castilla	-2921
▁conde	-2922
alo	-2923
▁cristi	-2924
abe	-2925
▁diversas	-2926
ise	-2927
▁empezó	-2928
▁ima	-2929
▁mejores	-2930
▁secun	-2931
▁=	-2932
▁comunas	-2933
▁colo	-2934
▁fá	-2935
▁casó	-2936
▁extin	-2937
▁pé	-2938
▁000,	-2939
▁clasif	-2940
ive	-2941
▁varia	-2942
▁similar	-2943
rán	-2944
▁autónoma	-2945
ku	-2946
▁creada	-2947
▁rich	-2948
▁logró	-2949
tería	-2950
teca	-2951
▁jose	-2952
▁dividi	-2953
vers	-2954
▁matrimonio	-2955
adi	-2956
▁sp	-2957
▁ave	-2958
ward	-2959
jeros	-2960
▁etc	-2961
teros	-2962
▁ilus	-2963
▁consiguió	-2964
▁independiente	-2965
▁sería	-2966
▁creación	-2967
▁desapar	-2968
▁rá	-2969
▁incluso	-2970
▁exterior	-2971
▁cór	-2972
▁ram	-2973
▁planeta	-2974
américa	-2975
▁incluyen	-2976
len	-2977
▁sitio	-2978
▁periodo	-2979
▁formula	-2980
▁entrenador	-2981
▁goles	-2982
▁diferencia	-2983
▁licencia	-2984
▁kar	-2985
cir	-2986
▁realizado	-2987
ctr	-2988
▁ps	-2989
▁bah	-2990
▁gab	-2991
▁jur	-2992
▁explo	-2993
zamiento	-2994
▁cuenca	-2995
▁artistas	-2996
▁información	-2997
▁)	-2998
▁sho	-2999
trodu	-3000
▁proceso	-3001
▁bul	-3002
.)	-3003
▁bon	-3004
▁boliv	-3005
ctores	-3006
iales	-3007
▁mate	-3008
▁premios	-3009
gina	-3010
▁decla	-3011
▁cerc	-3012
▁diseño	-3013
▁escal	-3014
▁apareció	-3015
mato	-3016
▁jugadores	-3017
▁pra	-3018
fu	-3019
▁gobernador	-3020
▁defin	-3021
ctora	-3022
▁glo	-3023
▁paul	-3024
onso	-3025
ius	-3026
dientes	-3027
▁ope	-3028
pista	-3029
▁nun	-3030
▁montaña	-3031
▁redu	-3032
▁fuerte	-3033
▁concur	-3034
▁tele	-3035
enci	-3036
▁indica	-3037
▁hora	-3038
ólogo	-3039
▁lea	-3040
pital	-3041
▁far	-3042
▁puente	-3043
▁dem	-3044
▁aper	-3045
▁uruguay	-3046
▁azul	-3047
▁late	-3048
▁comprende	-3049
viado	-3050
▁pequeños	-3051
▁relacion	-3052
burg	-3053
▁administración	-3054
▁estructura	-3055
▁rango	-3056
lores	-3057
▁monu	-3058
▁cuya	-3059
cando	-3060
ters	-3061
desa	-3062
lera	-3063
iel	-3064
▁(0%)	-3065
▁porque	-3066
▁ferrovi	-3067
▁respon	-3068
▁suces	-3069
▁fundación	-3070
pción	-3071
ensis	-3072
▁deter	-3073
▁[	-3074
villa	-3075
▁aún	-3076
▁obispo	-3077
▁estatal	-3078
ey	-3079
ladas	-3080
trop	-3081
▁volvió	-3082
▁oscu	-3083
ulas	-3084
▁gracias	-3085
iado	-3086
▁primeras	-3087
▁00,00%	-3088
▁ko	-3089
▁suele	-3090
▁últimos	-3091
▁mez	-3092
pri	-3093
▁dicha	-3094
ision	-3095
▁lab	-3096
cro	-3097
▁acompañ	-3098
▁garcía	-3099
berg	-3100
▁esca	-3101
▁imperio	-3102
em	-3103
uth	-3104
▁diseñ	-3105
▁personal	-3106
▁genérico	-3107
▁agru	-3108
▁foto	-3109
▁dig	-3110
▁decir	-3111
reste	-3112
▁observatorio	-3113
uña	-3114
vera	-3115
▁alimen	-3116
▁trabaja	-3117
▁vía	-3118
▁introdu	-3119
▁patr	-3120
creto	-3121
imiento	-3122
▁internacionales	-3123
ire	-3124
▁biblio	-3125
▁xix	-3126
▁ello	-3127
▁mc	-3128
▁000.000	-3129
▁cuarto	-3130
▁guar	-3131
▁regional	-3132
lic	-3133
▁hier	-3134
▁dios	-3135
polita	-3136
▁canad	-3137
mpa	-3138
rantes	-3139
▁ec	-3140
ed	-3141
▁palabra	-3142
greso	-3143
▁destru	-3144
▁canadá	-3145
▁algo	-3146
▁comercial	-3147
▁clasificación	-3148
ings	-3149
▁ancho	-3150
▁series	-3151
▁sino	-3152
▁elementos	-3153
▁simple	-3154
éndose	-3155
▁saint	-3156
▁cop	-3157
▁parroquia	-3158
▁palacio	-3159
▁pintor	-3160
▁00:	-3161
▁ronda	-3162
▁nie	-3163
sin	-3164
▁suiza	-3165
▁compositor	-3166
vado	-3167
▁ala	-3168
gica	-3169
zaron	-3170
▁suce	-3171
ecen	-3172
▁qui	-3173
▁web	-3174
▁mita	-3175
lez	-3176
ández	-3177
▁cambio	-3178
zá	-3179
▁filip	-3180
dados	-3181
mena	-3182
▁milita	-3183
▁utilizado	-3184
ux	-3185
▁(000	-3186
▁mascul	-3187
▁jorge	-3188
▁ense	-3189
▁dic	-3190
▁gi	-3191
▁vuelta	-3192
▁diez	-3193
▁etapa	-3194
▁ráp	-3195
▁probable	-3196
▁clubes	-3197
ik	-3198
▁hun	-3199
▁alcanzó	-3200
▁histórico	-3201
▁eg	-3202
▁nota	-3203
▁pier	-3204
▁ul	-3205
▁colegio	-3206
ment	-3207
▁existe	-3208
▁llevó	-3209
ror	-3210
▁diámetro	-3211
bel	-3212
▁ecuador	-3213
clu	-3214
hib	-3215
▁nacionales	-3216
ili	-3217
▁prác	-3218
▁actividades	-3219
▁compa	-3220
bro	-3221
▁compar	-3222
▁vig	-3223
ot	-3224
▁santo	-3225
▁incorpo	-3226
▁reun	-3227
▁perió	-3228
▁ferrocarril	-3229
▁voz	-3230
0,	-3231
▁parla	-3232
▁personajes	-3233
guas	-3234
▁adap	-3235
▁rojo	-3236
mpera	-3237
▁martín	-3238
▁británica	-3239
▁(0000-0000)	-3240
▁industri	-3241
▁resultado	-3242
▁excep	-3243
▁minutos	-3244
▁xii	-3245
▁blo	-3246
▁enrique	-3247
▁cd	-3248
arias	-3249
▁apertura	-3250
▁gus	-3251
▁cadena	-3252
▁poe	-3253
▁sud	-3254
▁subfamilia	-3255
▁city	-3256
▁competición	-3257
▁pista	-3258
▁fol	-3259
▁crá	-3260
usión	-3261
▁tropical	-3262
tencia	-3263
▁compon	-3264
▁mitad	-3265
▁()	-3266
▁unió	-3267
ionales	-3268
▁libe	-3269
▁ló	-3270
▁investiga	-3271
▁fase	-3272
fin	-3273
doba	-3274
cus	-3275
▁pse	-3276
logo	-3277
eri	-3278
ji	-3279
lano	-3280
▁finan	-3281
anas	-3282
▁asteroide	-3283
):	-3284
▁deportes	-3285
olina	-3286
yen	-3287
áceas	-3288
▁sovi	-3289
▁cráter	-3290
▁flu	-3291
ierras	-3292
fil	-3293
icia	-3294
▁georg	-3295
▁dió	-3296
▁camino	-3297
▁tecn	-3298
quista	-3299
▁artista	-3300
▁sureste	-3301
▁nunca	-3302
▁rica	-3303
▁prín	-3304
eso	-3305
his	-3306
▁epíteto	-3307
▁reempla	-3308
▁alej	-3309
▁titular	-3310
▁invita	-3311
▁diputado	-3312
▁gro	-3313
▁mayores	-3314
▁integ	-3315
▁recibe	-3316
▁extremo	-3317
▁nave	-3318
▁facul	-3319
▁colon	-3320
▁acab	-3321
cran	-3322
▁veloci	-3323
ecer	-3324
▁máxima	-3325
▁originaria	-3326
ind	-3327
cipe	-3328
lín	-3329
túa	-3330
▁sé	-3331
▁000.00	-3332
▁pis	-3333
▁sar	-3334
sula	-3335
▁ide	-3336
▁regis	-3337
▁modo	-3338
▁pública	-3339
digo	-3340
▁numerosos	-3341
▁confer	-3342
onal	-3343
▁menudo	-3344
0.	-3345
trali	-3346
▁familias	-3347
▁ari	-3348
▁literatura	-3349
▁ambas	-3350
▁cau	-3351
▁yudo	-3352
▁portugal	-3353
ático	-3354
char	-3355
▁géneros	-3356
▁semi	-3357
ité	-3358
▁sello	-3359
wood	-3360
lis	-3361
▁lími	-3362
▁autom	-3363
lon	-3364
tem	-3365
▁hub	-3366
▁periodista	-3367
▁sepa	-3368
▁propiedad	-3369
▁tempera	-3370
▁hospital	-3371
▁principio	-3372
micas	-3373
▁000,0	-3374
dieron	-3375
▁ham	-3376
▁cámara	-3377
▁world	-3378
▁equ	-3379
andro	-3380
▁títulos	-3381
▁hermanos	-3382
▁pablo	-3383
bó	-3384
▁asteroides	-3385
▁restau	-3386
▁adi	-3387
ore	-3388
▁suro	-3389
ológico	-3390
▁cham	-3391
laciones	-3392
▁pequeñas	-3393
▁quí	-3394
field	-3395
ugh	-3396
rana	-3397
▁ocur	-3398
▁andr	-3399
▁latín	-3400
ridad	-3401
puesto	-3402
▁ayunta	-3403
dente	-3404
▁bahía	-3405
▁cob	-3406
izado	-3407
aciones	-3408
landia	-3409
st	-3410
▁habían	-3411
net	-3412
turón	-3413
ashington	-3414
▁celebra	-3415
▁problemas	-3416
▁toma	-3417
ite	-3418
▁war	-3419
▁natal	-3420
▁espec	-3421
▁fundó	-3422
media	-3423
ii	-3424
pes	-3425
▁decidió	-3426
▁numerosas	-3427
▁anteriormente	-3428
▁hue	-3429
▁mencion	-3430
way	-3431
▁compuesta	-3432
▁mexicana	-3433
culos	-3434
▁fuerzas	-3435
▁cinturón	-3436
▁ano	-3437
▁tes	-3438
▁comarca	-3439
▁austria	-3440
▁provincial	-3441
▁fuente	-3442
▁pró	-3443
ficas	-3444
▁dirigido	-3445
tieron	-3446
ulares	-3447
▁mediados	-3448
▁aer	-3449
▁consegu	-3450
icol	-3451
▁0000/00	-3452
▁cola	-3453
dario	-3454
▁(0000-0000),	-3455
rón	-3456
▁mine	-3457
▁orques	-3458
▁comb	-3459
▁sala	-3460
▁diócesis	-3461
▁varie	-3462
▁valencia	-3463
xim	-3464
crá	-3465
▁amena	-3466
▁league	-3467
▁publicada	-3468
▁causa	-3469
▁jean	-3470
gando	-3471
▁enferme	-3472
▁conec	-3473
▁here	-3474
puesta	-3475
▁masa	-3476
▁permite	-3477
▁aé	-3478
▁dado	-3479
▁humanos	-3480
▁peru	-3481
▁terren	-3482
▁noreste	-3483
tern	-3484
▁habi	-3485
▁james	-3486
▁extensión	-3487
▁ace	-3488
▁elab	-3489
▁tales	-3490
▁directa	-3491
ak	-3492
▁características	-3493
▁especializa	-3494
▁gam	-3495
▁ras	-3496
▁función	-3497
▁comba	-3498
▁interés	-3499
idea	-3500
▁señor	-3501
quía	-3502
▁enfr	-3503
ast	-3504
▁pul	-3505
▁córdoba	-3506
▁programas	-3507
die	-3508
▁acción	-3509
bul	-3510
▁abre	-3511
▁frontera	-3512
▁agrupa	-3513
▁astu	-3514
▁electr	-3515
▁secundar	-3516
▁príncipe	-3517
▁respec	-3518
bir	-3519
▁fic	-3520
▁cantidad	-3521
▁artículos	-3522
▁lou	-3523
▁promedio	-3524
▁0–	-3525
▁metropolita	-3526
ciformes	-3527
unda	-3528
ipe	-3529
▁dibu	-3530
jero	-3531
▁nba	-3532
dge	-3533
▁ayuntamiento	-3534
▁adqui	-3535
▁médico	-3536
▁unidad	-3537
▁dejó	-3538
▁vege	-3539
▁continuación	-3540
▁recur	-3541
tch	-3542
▁proteg	-3543
▁pér	-3544
▁ener	-3545
▁arque	-3546
▁pron	-3547
▁cump	-3548
▁abarca	-3549
▁objetivo	-3550
iller	-3551
▁secretario	-3552
▁colección	-3553
ental	-3554
▁alex	-3555
ky	-3556
mano	-3557
▁presencia	-3558
▁tierras	-3559
▁trabajar	-3560
▁suroeste	-3561
ller	-3562
▁éste	-3563
▁vista	-3564
comun	-3565
pez	-3566
▁dr	-3567
▁interpretó	-3568
art	-3569
▁fuerza	-3570
▁win	-3571
▁anda	-3572
phy	-3573
▁terminó	-3574
▁control	-3575
▁propor	-3576
▁pasar	-3577
▁alemana	-3578
▁usu	-3579
inea	-3580
terrán	-3581
▁cier	-3582
▁ministerio	-3583
▁aug	-3584
▁grabado	-3585
istán	-3586
▁bandera	-3587
orías	-3588
▁herb	-3589
▁restos	-3590
▁sigue	-3591
ecido	-3592
▁corona	-3593
▁washington	-3594
▁reina	-3595
ael	-3596
▁semana	-3597
rista	-3598
▁robert	-3599
▁protagonizada	-3600
lea	-3601
▁acceso	-3602
▁tea	-3603
▁quedó	-3604
▁transporte	-3605
iga	-3606
ínsula	-3607
▁ilustra	-3608
ticia	-3609
▁+	-3610
▁nego	-3611
▁jardín	-3612
▁contrato	-3613
▁music	-3614
▁(0000-0000).	-3615
▁figura	-3616
▁niños	-3617
▁cata	-3618
▁localidades	-3619
▁cue	-3620
▁material	-3621
pico	-3622
▁enter	-3623
ácter	-3624
▁magni	-3625
▁selec	-3626
▁velocidad	-3627
▁bio	-3628
iene	-3629
▁viol	-3630
▁george	-3631
▁alcalde	-3632
▁vio	-3633
▁estima	-3634
▁guion	-3635
▁carácter	-3636
▁península	-3637
▁líneas	-3638
▁tron	-3639
▁océ	-3640
dir	-3641
▁jó	-3642
ls	-3643
▁paz	-3644
▁congreso	-3645
micos	-3646
bio	-3647
▁templo	-3648
istente	-3649
▁corri	-3650
▁playa	-3651
▁blanca	-3652
▁código	-3653
▁menores	-3654
▁encontrar	-3655
▁chica	-3656
▁bern	-3657
▁sector	-3658
▁proces	-3659
ulo	-3660
▁bill	-3661
▁dice	-3662
rabe	-3663
▁denominación	-3664
ste	-3665
▁industria	-3666
▁jack	-3667
▁william	-3668
enas	-3669
▁relaciones	-3670
▁usa	-3671
▁piedra	-3672
▁legisla	-3673
vio	-3674
▁inicialmente	-3675
▁producido	-3676
▁enseñ	-3677
nis	-3678
tología	-3679
▁poeta	-3680
▁solar	-3681
00.	-3682
▁padres	-3683
teras	-3684
ille	-3685
▁castel	-3686
iver	-3687
osos	-3688
▁ang	-3689
▁alma	-3690
▁rebo	-3691
rir	-3692
▁izquierda	-3693
umb	-3694
▁my	-3695
▁jor	-3696
tha	-3697
▁mam	-3698
▁gesti	-3699
cencia	-3700
▁west	-3701
abel	-3702
▁gris	-3703
▁inicia	-3704
▁rosa	-3705
▁maestro	-3706
rael	-3707
venes	-3708
turo	-3709
▁larga	-3710
▁ascenso	-3711
▁ganar	-3712
▁rea	-3713
▁vivien	-3714
▁idioma	-3715
""	-3716
cente	-3717
▁salvador	-3718
▁tub	-3719
▁letras	-3720
tl	-3721
mus	-3722
▁zo	-3723
▁sudam	-3724
▁centra	-3725
▁comienza	-3726
▁elim	-3727
▁productor	-3728
▁comisión	-3729
▁sudamérica	-3730
ware	-3731
▁kg	-3732
▁convertir	-3733
▁atlán	-3734
▁papa	-3735
▁rub	-3736
todo	-3737
taba	-3738
especi	-3739
▁núcle	-3740
▁suborden	-3741
▁colle	-3742
lie	-3743
▁enfrenta	-3744
▁gor	-3745
viv	-3746
ficado	-3747
úr	-3748
▁oblig	-3749
igos	-3750
▁sección	-3751
▁00-00	-3752
▁you	-3753
▁00.0%	-3754
▁bea	-3755
▁ninguna	-3756
▁bene	-3757
▁ase	-3758
▁ganado	-3759
▁decreto	-3760
éctr	-3761
tría	-3762
▁arquitecto	-3763
guez	-3764
▁respons	-3765
ric	-3766
▁mano	-3767
▁noche	-3768
▁lenguas	-3769
▁evento	-3770
mann	-3771
mania	-3772
▁formato	-3773
kin	-3774
deste	-3775
▁jóvenes	-3776
▁probablemente	-3777
ese	-3778
▁derechos	-3779
▁chileno	-3780
pion	-3781
up	-3782
ónico	-3783
▁motor	-3784
▁emperador	-3785
torios	-3786
vel	-3787
▁áreas	-3788
▁doble	-3789
▁vivo	-3790
▁olímpico	-3791
▁absolu	-3792
▁defens	-3793
▁jac	-3794
▁fundador	-3795
▁air	-3796
ragón	-3797
▁democrá	-3798
▁elabora	-3799
▁llega	-3800
ándo	-3801
▁hú	-3802
▁ton	-3803
▁facultad	-3804
▁st	-3805
ity	-3806
rarse	-3807
▁diario	-3808
▁consiste	-3809
▁influencia	-3810
ibles	-3811
▁cercan	-3812
▁oficialmente	-3813
cidos	-3814
▁práctica	-3815
▁bajos	-3816
malmente	-3817
lados	-3818
▁órbita	-3819
▁descon	-3820
ime	-3821
▁músico	-3822
▁emba	-3823
▁avan	-3824
▁estra	-3825
▁hermana	-3826
▁agricul	-3827
▁emplea	-3828
▁distribución	-3829
▁Ángeles	-3830
▁wi	-3831
▁duque	-3832
▁fis	-3833
▁prima	-3834
▁trasladó	-3835
duras	-3836
▁memor	-3837
▁horas	-3838
▁ciclista	-3839
uno	-3840
blos	-3841
wer	-3842
▁lanzamiento	-3843
▁romano	-3844
tta	-3845
▁creó	-3846
xa	-3847
▁sos	-3848
fon	-3849
ight	-3850
dell	-3851
▁expe	-3852
ess	-3853
▁rug	-3854
▁nuevas	-3855
▁contribu	-3856
▁sha	-3857
ragü	-3858
▁tribu	-3859
▁construida	-3860
▁yu	-3861
gún	-3862
españa	-3863
▁dipl	-3864
▁polic	-3865
▁israel	-3866
▁alterna	-3867
cti	-3868
▁termina	-3869
▁denominada	-3870
▁guada	-3871
tidae	-3872
▁entrada	-3873
▁será	-3874
rago	-3875
▁scho	-3876
▁egip	-3877
▁domingo	-3878
▁musicales	-3879
▁buena	-3880
íf	-3881
vier	-3882
sis	-3883
▁madera	-3884
▁visita	-3885
ball	-3886
▁contemp	-3887
▁acadé	-3888
quis	-3889
gados	-3890
▁inferiores	-3891
cher	-3892
▁nuevos	-3893
▁delan	-3894
▁0,0%	-3895
uega	-3896
▁condi	-3897
rero	-3898
▁michael	-3899
uelas	-3900
ari	-3901
osas	-3902
ram	-3903
▁estrellas	-3904
▁raí	-3905
▁rec	-3906
▁suda	-3907
▁sonido	-3908
▁aire	-3909
cular	-3910
ertos	-3911
▁estrenó	-3912
▁ill	-3913
cola	-3914
▁economía	-3915
▁húme	-3916
▁hy	-3917
▁formada	-3918
▁texas	-3919
▁página	-3920
▁bin	-3921
▁pico	-3922
▁sel	-3923
▁técnica	-3924
ológica	-3925
▁océano	-3926
▁charles	-3927
▁australi	-3928
▁adop	-3929
▁ayuda	-3930
como	-3931
▁ucran	-3932
▁arbus	-3933
uls	-3934
ilan	-3935
▁cí	-3936
▁públ	-3937
▁!	-3938
▁vivió	-3939
▁interes	-3940
▁brasileño	-3941
▁dirigió	-3942
metros	-3943
";	-3944
▁vice	-3945
▁europea	-3946
fos	-3947
mático	-3948
▁bosque	-3949
ibe	-3950
▁gonzá	-3951
▁ciencia	-3952
isiones	-3953
olog	-3954
trás	-3955
▁inflores	-3956
▁aba	-3957
▁arquitectura	-3958
▁imagen	-3959
▁medicina	-3960
mul	-3961
▁sevilla	-3962
pp	-3963
▁martin	-3964
▁bolivia	-3965
▁caball	-3966
▁distritos	-3967
▁produce	-3968
▁rebotes	-3969
▁alcanza	-3970
▁lis	-3971
▁líder	-3972
▁magnitud	-3973
lló	-3974
ivos	-3975
yendo	-3976
menes	-3977
▁regiones	-3978
▁gonzález	-3979
▁patri	-3980
▁versiones	-3981
▁bás	-3982
...	-3983
clus	-3984
pado	-3985
▁cora	-3986
▁estan	-3987
inae	-3988
▁femenino	-3989
▁seguridad	-3990
▁punta	-3991
▁aspe	-3992
▁andalu	-3993
▁marco	-3994
▁diego	-3995
▁orb	-3996
▁abogado	-3997
▁cho	-3998
itán	-3999
▁frecu	-4000
▁fondo	-4001
▁panam	-4002
▁valor	-4003
landés	-4004
▁aplicación	-4005
▁rafa	-4006
ría	-4007
▁sep	-4008
sur	-4009
▁famoso	-4010
▁sistemas	-4011
inte	-4012
▁delantero	-4013
▁fuentes	-4014
▁fernández	-4015
▁usado	-4016
▁aves	-4017
▁atlético	-4018
▁enci	-4019
dil	-4020
▁lópez	-4021
▁cinemato	-4022
▁modal	-4023
▁single	-4024
▁regresó	-4025
▁incluido	-4026
pler	-4027
▁frank	-4028
▁alum	-4029
▁administrativa	-4030
jó	-4031
▁letra	-4032
▁tv	-4033
▁agen	-4034
▁empresas	-4035
▁máximo	-4036
istencia	-4037
▁felipe	-4038
▁acce	-4039
▁andre	-4040
▁apoyo	-4041
▁phil	-4042
torno	-4043
▁editorial	-4044
▁publicación	-4045
rey	-4046
▁jugaba	-4047
▁stu	-4048
▁ayu	-4049
▁hum	-4050
▁irlan	-4051
▁desembo	-4052
fran	-4053
▁noruega	-4054
▁transmi	-4055
leta	-4056
▁independencia	-4057
también	-4058
stru	-4059
▁importancia	-4060
éla	-4061
▁guinea	-4062
iencia	-4063
▁asun	-4064
gs	-4065
cero	-4066
▁filoso	-4067
▁montañas	-4068
quil	-4069
▁provo	-4070
▁japonés	-4071
▁circun	-4072
▁alberto	-4073
▁star	-4074
▁vocal	-4075
áfrica	-4076
hol	-4077
nor	-4078
ht	-4079
▁afec	-4080
▁amarillo	-4081
cadas	-4082
cula	-4083
▁calidad	-4084
fra	-4085
hua	-4086
▁regular	-4087
tiendo	-4088
▁mala	-4089
▁grado	-4090
▁locales	-4091
▁distintos	-4092
▁gla	-4093
▁especí	-4094
uales	-4095
▁ingles	-4096
▁deco	-4097
▁pintura	-4098
▁episodio	-4099
rera	-4100
▁campaña	-4101
▁lima	-4102
▁pocos	-4103
▁piragü	-4104
▁leon	-4105
▁monas	-4106
▁une	-4107
mber	-4108
▁biblioteca	-4109
▁comunicación	-4110
▁borde	-4111
pin	-4112
▁rico	-4113
▁sentido	-4114
ragoza	-4115
▁banco	-4116
drí	-4117
▁von	-4118
▁curso	-4119
tano	-4120
▁mejo	-4121
▁proviene	-4122
▁cataluña	-4123
icio	-4124
campista	-4125
▁anunció	-4126
enda	-4127
king	-4128
▁pic	-4129
▁orquesta	-4130
▁actuación	-4131
▁pudo	-4132
/0000	-4133
▁salud	-4134
▁comité	-4135
iera	-4136
▁polonia	-4137
omin	-4138
óvil	-4139
didad	-4140
tum	-4141
▁doctor	-4142
▁wo	-4143
▁temperatura	-4144
▁basada	-4145
esía	-4146
▁consta	-4147
▁superfamilia	-4148
▁videoj	-4149
meros	-4150
▁animales	-4151
▁clar	-4152
▁productos	-4153
▁filosofía	-4154
▁suecia	-4155
▁desarrollado	-4156
▁ediciones	-4157
▁peso	-4158
▁0000;	-4159
▁alas	-4160
raciones	-4161
▁subespeci	-4162
tiende	-4163
bró	-4164
▁carta	-4165
▁richard	-4166
▁piragüismo	-4167
▁ox	-4168
ium	-4169
▁dele	-4170
▁pareja	-4171
▁jugado	-4172
▁ses	-4173
ges	-4174
▁recorrido	-4175
▁jugando	-4176
▁daniel	-4177
▁nueve	-4178
▁acciden	-4179
iger	-4180
▁micro	-4181
▁tropicales	-4182
▁rode	-4183
▁portuguesa	-4184
▁deportiva	-4185
▁podría	-4186
▁destacan	-4187
▁extran	-4188
▁separa	-4189
▁autores	-4190
▁suel	-4191
▁kepler	-4192
tti	-4193
▁Ó	-4194
▁demás	-4195
▁llevar	-4196
▁uni	-4197
▁desarrol	-4198
▁confor	-4199
▁neo	-4200
iidae	-4201
amble	-4202
▁asim	-4203
uros	-4204
fas	-4205
▁vías	-4206
▁lagun	-4207
▁cuba	-4208
▁park	-4209
▁discos	-4210
▁escudo	-4211
▁ciclismo	-4212
▁arti	-4213
▁berlín	-4214
▁pueblos	-4215
board	-4216
▁florida	-4217
hab	-4218
mig	-4219
alió	-4220
ela	-4221
tador	-4222
▁ocupó	-4223
▁pilo	-4224
▁estudiantes	-4225
▁parece	-4226
yan	-4227
entos	-4228
olar	-4229
▁augus	-4230
▁martí	-4231
▁jesús	-4232
ag	-4233
▁vii	-4234
▁már	-4235
▁derecha	-4236
_0	-4237
▁zel	-4238
▁aceptadas	-4239
▁q	-4240
gido	-4241
▁coun	-4242
▁quienes	-4243
▁ará	-4244
▁tipos	-4245
▁energía	-4246
fal	-4247
▁adul	-4248
fol	-4249
ser	-4250
isis	-4251
▁naturales	-4252
onesia	-4253
▁pola	-4254
▁capitán	-4255
▁nombres	-4256
har	-4257
sch	-4258
▁nav	-4259
▁canadi	-4260
dríguez	-4261
▁entró	-4262
visión	-4263
ígen	-4264
ume	-4265
▁palabras	-4266
▁audi	-4267
▁naciones	-4268
▁multi	-4269
▁alfonso	-4270
▁celebró	-4271
leo	-4272
grado	-4273
oro	-4274
ua	-4275
▁grá	-4276
▁participado	-4277
▁modi	-4278
▁carolina	-4279
▁mara	-4280
▁rodríguez	-4281
▁sul	-4282
izó	-4283
▁provincias	-4284
mita	-4285
▁drama	-4286
▁categorías	-4287
▁conocidos	-4288
▁amigo	-4289
ífero	-4290
▁bru	-4291
▁ves	-4292
itt	-4293
▁cuan	-4294
▁armas	-4295
zona	-4296
nal	-4297
▁disputar	-4298
▁hill	-4299
▁lá	-4300
▁histórica	-4301
▁perciformes	-4302
▁aflu	-4303
gol	-4304
▁crear	-4305
▁inspi	-4306
▁nomina	-4307
▁fines	-4308
▁colum	-4309
▁anima	-4310
▁colaboración	-4311
▁afr	-4312
vania	-4313
▁refiere	-4314
tinos	-4315
vd	-4316
▁concurso	-4317
mia	-4318
▁casos	-4319
▁ple	-4320
▁isabel	-4321
▁abierto	-4322
▁suelo	-4323
▁lake	-4324
▁urugua	-4325
▁distintas	-4326
▁queda	-4327
▁román	-4328
▁bandas	-4329
▁reserva	-4330
▁tuvieron	-4331
▁demos	-4332
ish	-4333
▁cuarta	-4334
▁inicio	-4335
inois	-4336
▁rafael	-4337
▁convo	-4338
▁repar	-4339
▁pasando	-4340
▁arri	-4341
▁considerada	-4342
tora	-4343
▁cita	-4344
▁school	-4345
▁ceremon	-4346
▁asamble	-4347
gn	-4348
▁zam	-4349
▁fór	-4350
▁atribu	-4351
▁primar	-4352
▁ali	-4353
▁vill	-4354
mel	-4355
▁invierno	-4356
▁completar	-4357
▁produjo	-4358
ses	-4359
▁bril	-4360
▁carb	-4361
cerdo	-4362
tidos	-4363
▁desempeñó	-4364
▁estad	-4365
▁comercio	-4366
▁señal	-4367
ciar	-4368
▁roy	-4369
▁denominado	-4370
▁lun	-4371
▁álbumes	-4372
▁agricultura	-4373
▁monumento	-4374
▁árboles	-4375
▁cerro	-4376
▁fen	-4377
▁black	-4378
▁peter	-4379
▁institución	-4380
▁inscri	-4381
▁rad	-4382
▁sudáfrica	-4383
▁tramo	-4384
▁griega	-4385
▁anteriores	-4386
▁retir	-4387
▁urbano	-4388
▁situación	-4389
00,	-4390
ceno	-4391
yer	-4392
▁gil	-4393
lite	-4394
▁profundidad	-4395
▁campos	-4396
▁cabece	-4397
ure	-4398
▁lanzó	-4399
▁todavía	-4400
nez	-4401
gios	-4402
▁virgen	-4403
▁manos	-4404
▁seguido	-4405
▁basado	-4406
▁pasado	-4407
▁árabe	-4408
▁teleno	-4409
▁trenes	-4410
▁dó	-4411
▁formando	-4412
vista	-4413
▁eléctr	-4414
▁especta	-4415
▁sy	-4416
▁haciendo	-4417
inda	-4418
ansas	-4419
▁revolución	-4420
tones	-4421
▁mantuvo	-4422
▁complejo	-4423
▁arma	-4424
▁tomó	-4425
ben	-4426
▁cuadro	-4427
▁entren	-4428
enaje	-4429
▁presentó	-4430
▁xviii	-4431
▁miss	-4432
▁impres	-4433
▁conquista	-4434
▁trayec	-4435
istió	-4436
▁técnico	-4437
▁zaragoza	-4438
tiles	-4439
▁ere	-4440
▁corea	-4441
orán	-4442
tistas	-4443
▁sán	-4444
eos	-4445
▁corpo	-4446
tab	-4447
▁pérez	-4448
▁botánica	-4449
▁casas	-4450
▁sacerdo	-4451
▁emil	-4452
▁obtener	-4453
▁bir	-4454
▁repro	-4455
▁bau	-4456
▁octa	-4457
▁mont	-4458
▁college	-4459
▁vil	-4460
▁north	-4461
▁cypr	-4462
▁funciones	-4463
▁presente	-4464
▁respecto	-4465
▁ningún	-4466
tricidad	-4467
▁thomas	-4468
ipi	-4469
▁refle	-4470
cab	-4471
dón	-4472
▁llan	-4473
▁pelig	-4474
▁económica	-4475
cú	-4476
ianza	-4477
vamente	-4478
▁conciertos	-4479
▁remo	-4480
▁realizada	-4481
▁exitos	-4482
▁torres	-4483
▁alb	-4484
anza	-4485
▁rugby	-4486
▁grados	-4487
▁sirve	-4488
▁disputa	-4489
▁modalidad	-4490
▁titulado	-4491
▁halla	-4492
▁filipinas	-4493
▁colec	-4494
▁edificios	-4495
▁johan	-4496
▁contemporán	-4497
ns	-4498
▁monasterio	-4499
▁electoral	-4500
▁angel	-4501
▁bis	-4502
▁sco	-4503
▁convier	-4504
dae	-4505
usa	-4506
▁llegando	-4507
radas	-4508
▁estaciones	-4509
▁sociales	-4510
▁nace	-4511
posi	-4512
▁recono	-4513
▁nuevamente	-4514
▁trib	-4515
▁habla	-4516
▁sun	-4517
▁reno	-4518
▁policía	-4519
▁tiempos	-4520
▁fri	-4521
▁junta	-4522
▁soviética	-4523
▁chi	-4524
▁ganadora	-4525
▁completo	-4526
mith	-4527
▁teoría	-4528
▁sebas	-4529
▁hé	-4530
▁conocer	-4531
▁lec	-4532
▁log	-4533
▁vecin	-4534
▁veh	-4535
▁venezol	-4536
▁corto	-4537
▁bél	-4538
▁aragón	-4539
▁gala	-4540
▁desarrolló	-4541
▁proven	-4542
isco	-4543
▁Ál	-4544
zados	-4545
▁guitarra	-4546
▁composición	-4547
▁illinois	-4548
phor	-4549
chus	-4550
▁exclus	-4551
▁guitarrista	-4552
dd	-4553
tter	-4554
▁coo	-4555
tónico	-4556
▁coron	-4557
▁paraguay	-4558
tres	-4559
▁resultados	-4560
ival	-4561
▁parlamento	-4562
▁periódico	-4563
▁cil	-4564
wi	-4565
▁arco	-4566
▁campeones	-4567
▁orbital	-4568
▁graduó	-4569
▁guiller	-4570
▁bellas	-4571
amo	-4572
hel	-4573
hen	-4574
▁bastante	-4575
nea	-4576
▁arácn	-4577
▁unidades	-4578
▁rio	-4579
▁crea	-4580
quez	-4581
▁hidro	-4582
▁poesía	-4583
▁colores	-4584
▁pérdida	-4585
iss	-4586
▁asimismo	-4587
▁atlántico	-4588
▁lide	-4589
▁oh	-4590
▁alejandro	-4591
▁grecia	-4592
▁panamá	-4593
▁pudiendo	-4594
▁recopi	-4595
▁it	-4596
gros	-4597
carse	-4598
▁oport	-4599
▁dedicada	-4600
▁pruebas	-4601
▁rena	-4602
▁física	-4603
▁ligera	-4604
▁galard	-4605
▁carreras	-4606
éis	-4607
▁zelanda	-4608
eu	-4609
tho	-4610
▁retra	-4611
▁eduardo	-4612
▁producto	-4613
▁arena	-4614
álisis	-4615
▁sitúa	-4616
deras	-4617
▁respectivamente	-4618
omor	-4619
pus	-4620
▁meridi	-4621
▁quinto	-4622
▁determina	-4623
gadas	-4624
▁producida	-4625
▁texto	-4626
▁localizado	-4627
▁croa	-4628
ibilidad	-4629
bras	-4630
ída	-4631
▁antiguos	-4632
▁botan	-4633
▁rural	-4634
▁capilla	-4635
▁martínez	-4636
presiden	-4637
▁reprodu	-4638
▁rápida	-4639
anca	-4640
izan	-4641
▁paisa	-4642
pia	-4643
▁•	-4644
jor	-4645
▁apren	-4646
zi	-4647
▁cañ	-4648
▁vídeo	-4649
▁fórmula	-4650
▁fruto	-4651
▁sudamer	-4652
▁Álvar	-4653
▁show	-4654
millas	-4655
▁viaje	-4656
denes	-4657
▁peren	-4658
▁fas	-4659
▁colonia	-4660
édi	-4661
ald	-4662
onada	-4663
▁reconocido	-4664
mba	-4665
▁metropolitana	-4666
▁ly	-4667
▁jim	-4668
iense	-4669
▁ferroviaria	-4670
bos	-4671
▁0000-	-4672
élago	-4673
amarca	-4674
▁marina	-4675
▁arácnido	-4676
▁núcleo	-4677
▁cabal	-4678
udos	-4679
vs	-4680
▁luna	-4681
▁formas	-4682
▁oportun	-4683
▁cabecera	-4684
▁eslo	-4685
▁sebasti	-4686
▁aparecen	-4687
▁localizada	-4688
cá	-4689
▁ye	-4690
nel	-4691
▁natura	-4692
▁prepa	-4693
chen	-4694
▁obteniendo	-4695
▁esf	-4696
▁libertad	-4697
yu	-4698
▁destina	-4699
▁firmó	-4700
▁empa	-4701
▁divide	-4702
▁cé	-4703
▁identifica	-4704
orado	-4705
didos	-4706
íp	-4707
cesa	-4708
▁embaja	-4709
▁diplom	-4710
▁retiró	-4711
▁comerci	-4712
blas	-4713
▁guillermo	-4714
▁rin	-4715
▁registra	-4716
▁melo	-4717
▁inmedia	-4718
tric	-4719
▁chino	-4720
▁docto	-4721
cón	-4722
▁representación	-4723
▁hotel	-4724
▁límite	-4725
▁hacen	-4726
tto	-4727
fes	-4728
▁kra	-4729
itz	-4730
temala	-4731
▁corta	-4732
ivamente	-4733
▁asamblea	-4734
▁fora	-4735
▁juvenil	-4736
▁confir	-4737
gén	-4738
▁ingeniero	-4739
▁experimen	-4740
▁tim	-4741
▁meta	-4742
▁plu	-4743
▁posi	-4744
bado	-4745
▁misión	-4746
▁frecuencia	-4747
▁ingresó	-4748
▁dedicado	-4749
tilla	-4750
▁fichó	-4751
▁diseñado	-4752
▁lateral	-4753
pers	-4754
▁contó	-4755
▁chan	-4756
▁subtrop	-4757
eda	-4758
▁votos	-4759
taciones	-4760
▁quinta	-4761
▁variedad	-4762
sey	-4763
▁án	-4764
bes	-4765
grafo	-4766
▁nicol	-4767
olucion	-4768
▁soft	-4769
▁encontraba	-4770
gia	-4771
dol	-4772
▁levan	-4773
chez	-4774
▁defini	-4775
▁adelante	-4776
▁niño	-4777
▁proporcion	-4778
▁descubri	-4779
▁bélgica	-4780
ficación	-4781
▁hemb	-4782
▁proto	-4783
wan	-4784
▁nos	-4785
▁00,000	-4786
lec	-4787
alización	-4788
dice	-4789
▁homenaje	-4790
▁reyes	-4791
▁nuestra	-4792
▁aquí	-4793
▁pasajeros	-4794
gü	-4795
win	-4796
▁eventos	-4797
▁ámb	-4798
of	-4799
▁mide	-4800
asa	-4801
▁alguna	-4802
▁industrial	-4803
omé	-4804
▁cán	-4805
▁proyectos	-4806
máticas	-4807
(0	-4808
ilvania	-4809
ítu	-4810
mic	-4811
siones	-4812
▁absoluta	-4813
▁national	-4814
▁realidad	-4815
▁labor	-4816
▁directo	-4817
mando	-4818
▁afir	-4819
▁participaron	-4820
▁ensa	-4821
itaria	-4822
▁dólares	-4823
▁maria	-4824
▁medida	-4825
garo	-4826
well	-4827
cados	-4828
▁spor	-4829
▁inclinación	-4830
ática	-4831
liga	-4832
▁são	-4833
▁impa	-4834
▁line	-4835
minar	-4836
▁aco	-4837
▁vicente	-4838
pone	-4839
▁simplemente	-4840
▁guatemala	-4841
▁vehícu	-4842
pciones	-4843
▁estableció	-4844
▁triun	-4845
▁normalmente	-4846
▁extiende	-4847
▁corresponde	-4848
▁infor	-4849
▁escena	-4850
▁directamente	-4851
▁concen	-4852
▁convirti	-4853
▁sonora	-4854
▁carl	-4855
▁gir	-4856
quer	-4857
americana	-4858
▁desemboca	-4859
▁colombiano	-4860
ent	-4861
tone	-4862
dicos	-4863
kar	-4864
hire	-4865
inidae	-4866
▁gente	-4867
▁patrimonio	-4868
▁amigos	-4869
▁ná	-4870
▁corazón	-4871
▁integrada	-4872
▁constitución	-4873
▁redon	-4874
▁tradición	-4875
▁defen	-4876
▁eleva	-4877
▁semillas	-4878
ture	-4879
▁encuentro	-4880
▁instalaciones	-4881
▁anf	-4882
▁lob	-4883
▁parale	-4884
▁masculino	-4885
▁escuelas	-4886
tv	-4887
▁joseph	-4888
tienen	-4889
▁clara	-4890
▁objeto	-4891
uncia	-4892
▁femenina	-4893
▁breve	-4894
neos	-4895
▁conser	-4896
▁números	-4897
▁ner	-4898
vich	-4899
americano	-4900
ello	-4901
chada	-4902
daron	-4903
▁enfermedad	-4904
▁om	-4905
▁socialista	-4906
▁histor	-4907
▁volver	-4908
▁dedicó	-4909
▁aparición	-4910
▁cra	-4911
▁lanzada	-4912
try	-4913
▁alba	-4914
▁próxi	-4915
▁repub	-4916
lando	-4917
▁algún	-4918
video	-4919
▁canadiense	-4920
▁fres	-4921
▁mediterrán	-4922
▁capítu	-4923
▁mac	-4924
▁elección	-4925
▁jazz	-4926
tualmente	-4927
▁lee	-4928
▁existencia	-4929
▁finalizó	-4930
▁andrés	-4931
▁dvd	-4932
laga	-4933
▁ecua	-4934
▁comedia	-4935
ander	-4936
▁bran	-4937
ence	-4938
▁solamente	-4939
▁stan	-4940
icidad	-4941
▁enla	-4942
bl	-4943
▁justicia	-4944
▁piezas	-4945
jan	-4946
▁típ	-4947
▁asenta	-4948
▁estatu	-4949
▁señora	-4950
▁distingu	-4951
▁mando	-4952
▁granada	-4953
▁españoles	-4954
▁clases	-4955
bri	-4956
cara	-4957
▁south	-4958
bil	-4959
▁gri	-4960
▁mezcla	-4961
▁dev	-4962
▁cordil	-4963
fre	-4964
dando	-4965
▁jane	-4966
▁crítica	-4967
▁torno	-4968
▁salió	-4969
▁moscú	-4970
▁estrenada	-4971
▁mix	-4972
▁decis	-4973
ep	-4974
▁tenis	-4975
▁$00.000.	-4976
▁pam	-4977
▁aquel	-4978
▁louis	-4979
▁ofrece	-4980
▁permaneció	-4981
▁tole	-4982
▁verda	-4983
▁símb	-4984
onte	-4985
bs	-4986
▁inaugurado	-4987
▁pies	-4988
▁barro	-4989
▁gig	-4990
▁bob	-4991
▁sá	-4992
ude	-4993
▁utilizar	-4994
▁barrios	-4995
▁foramin	-4996
town	-4997
▁ésta	-4998
tnam	-4999
puestas	-5000
▁oscuro	-5001
pec	-5002
▁incluida	-5003
▁cree	-5004
▁valenci	-5005
▁operaciones	-5006
▁spr	-5007
▁promedió	-5008
▁loren	-5009
▁feder	-5010
enco	-5011
▁gusta	-5012
jara	-5013
▁trá	-5014
▁puerta	-5015
aría	-5016
gran	-5017
▁santos	-5018
▁candidato	-5019
▁crono	-5020
▁asociado	-5021
▁suelen	-5022
▁bil	-5023
▁editor	-5024
▁ramón	-5025
sel	-5026
▁fama	-5027
▁love	-5028
▁concierto	-5029
▁grabación	-5030
quina	-5031
▁mues	-5032
▁financi	-5033
▁tax	-5034
▁ku	-5035
▁00°	-5036
▁idea	-5037
▁digital	-5038
▁escas	-5039
▁tratado	-5040
▁viejo	-5041
▁fle	-5042
teur	-5043
▁columb	-5044
campe	-5045
▁condiciones	-5046
▁decide	-5047
▁caribe	-5048
chel	-5049
▁ín	-5050
mbur	-5051
▁#	-5052
▁salida	-5053
▁mí	-5054
▁ee	-5055
ken	-5056
▁sopor	-5057
▁prefec	-5058
rer	-5059
▁televis	-5060
umen	-5061
sta	-5062
▁firma	-5063
drá	-5064
▁ramas	-5065
▁cés	-5066
▁asum	-5067
etas	-5068
▁continuó	-5069
▁casado	-5070
▁congo	-5071
▁contenido	-5072
▁comand	-5073
tsu	-5074
▁dinas	-5075
▁taller	-5076
▁dur	-5077
▁coleop	-5078
jado	-5079
▁construyó	-5080
▁convierte	-5081
▁tropas	-5082
▁chicago	-5083
▁gim	-5084
▁exposición	-5085
oró	-5086
pto	-5087
▁xiii	-5088
▁anual	-5089
▁franco	-5090
▁sirvió	-5091
▁irlanda	-5092
ant	-5093
▁campeonatos	-5094
tions	-5095
jón	-5096
▁distribuye	-5097
▁plataforma	-5098
minu	-5099
centes	-5100
▁siglos	-5101
▁top	-5102
uelos	-5103
.0000	-5104
▁virgin	-5105
dato	-5106
diz	-5107
hy	-5108
tea	-5109
▁artístico	-5110
inta	-5111
▁ópera	-5112
▁viviendas	-5113
▁calles	-5114
▁cemen	-5115
rus	-5116
▁procla	-5117
▁orquí	-5118
▁conflic	-5119
gy	-5120
▁rosario	-5121
▁ampli	-5122
▁chilena	-5123
▁estudiar	-5124
hat	-5125
igue	-5126
▁oriente	-5127
▁nacimiento	-5128
▁urban	-5129
estrati	-5130
▁dec	-5131
▁rob	-5132
▁negra	-5133
▁rég	-5134
▁fiesta	-5135
graf	-5136
▁similares	-5137
▁actuó	-5138
ples	-5139
jarse	-5140
▁discur	-5141
▁actores	-5142
▁análisis	-5143
▁semifin	-5144
▁design	-5145
ket	-5146
▁pensilvania	-5147
gría	-5148
▁portugués	-5149
reo	-5150
▁joa	-5151
ónima	-5152
▁presidencia	-5153
▁judi	-5154
▁ces	-5155
▁cronoestrati	-5156
ueva	-5157
▁secundaria	-5158
▁generales	-5159
▁terres	-5160
▁terreno	-5161
▁hubo	-5162
▁oficiales	-5163
▁internet	-5164
anti	-5165
icarse	-5166
▁asturias	-5167
▁previa	-5168
▁calen	-5169
▁activo	-5170
▁bl	-5171
)"	-5172
lí	-5173
▁bomb	-5174
izar	-5175
▁diri	-5176
▁laguna	-5177
▁fort	-5178
▁navar	-5179
▁aran	-5180
▁software	-5181
▁data	-5182
▁compu	-5183
▁revistas	-5184
▁neg	-5185
▁únicamente	-5186
▁reconocimiento	-5187
▁gestión	-5188
gió	-5189
▁naturaleza	-5190
▁sánchez	-5191
▁hard	-5192
▁sara	-5193
▁crista	-5194
▁conseguir	-5195
▁tru	-5196
mbres	-5197
▁caf	-5198
▁doce	-5199
▁políticas	-5200
▁pertenecientes	-5201
idor	-5202
riel	-5203
▁green	-5204
▁som	-5205
▁vari	-5206
▁mostra	-5207
url	-5208
ulos	-5209
▁cuadrados	-5210
▁centí	-5211
▁excen	-5212
▁lum	-5213
▁nada	-5214
▁prensa	-5215
▁trabajado	-5216
▁conocidas	-5217
▁acerca	-5218
▁teniendo	-5219
▁elenco	-5220
▁aña	-5221
▁torneos	-5222
▁éxitos	-5223
ingü	-5224
▁pesca	-5225
igan	-5226
▁tenido	-5227
▁creek	-5228
▁órg	-5229
mond	-5230
▁castro	-5231
olí	-5232
▁preten	-5233
▁compro	-5234
▁ceremonia	-5235
▁progres	-5236
▁alar	-5237
▁asigna	-5238
▁excentricidad	-5239
uta	-5240
scri	-5241
▁parroqui	-5242
▁democrática	-5243
gues	-5244
▁usos	-5245
mé	-5246
tarse	-5247
▁sabe	-5248
chó	-5249
cieron	-5250
▁hec	-5251
▁wol	-5252
mont	-5253
ído	-5254
▁viena	-5255
▁listas	-5256
▁ambiente	-5257
▁american	-5258
▁química	-5259
▁noti	-5260
▁supe	-5261
▁hici	-5262
▁destacado	-5263
▁universitario	-5264
mir	-5265
lido	-5266
▁terminal	-5267
▁fuego	-5268
▁pros	-5269
▁sépti	-5270
▁aman	-5271
tár	-5272
▁consa	-5273
▁asesina	-5274
▁populares	-5275
▁figuras	-5276
▁organizado	-5277
▁carga	-5278
▁egipto	-5279
▁recupe	-5280
▁documen	-5281
▁turquía	-5282
▁imá	-5283
▁perdió	-5284
ómez	-5285
▁roja	-5286
▁paci	-5287
ons	-5288
hor	-5289
icamente	-5290
▁tecnología	-5291
▁bay	-5292
▁espi	-5293
▁junior	-5294
▁cordillera	-5295
▁atención	-5296
▁imágenes	-5297
▁juventud	-5298
▁tribun	-5299
▁latina	-5300
▁kras	-5301
▁Él	-5302
eras	-5303
▁gobern	-5304
▁nam	-5305
▁copias	-5306
▁editado	-5307
▁ficción	-5308
hal	-5309
ellido	-5310
▁artística	-5311
▁tún	-5312
▁clásico	-5313
▁denomin	-5314
▁mary	-5315
▁utilizada	-5316
▁anfib	-5317
▁reconstru	-5318
urus	-5319
▁armada	-5320
quín	-5321
ísticos	-5322
clo	-5323
▁gómez	-5324
▁reda	-5325
▁dinastía	-5326
▁educa	-5327
▁federico	-5328
▁$00,000,	-5329
cidas	-5330
dentes	-5331
▁hogares	-5332
▁ligeramente	-5333
▁recientemente	-5334
▁foot	-5335
▁marrón	-5336
ñez	-5337
▁fácil	-5338
▁fabrica	-5339
▁concentra	-5340
▁mora	-5341
▁mario	-5342
mol	-5343
▁ges	-5344
▁ahí	-5345
▁futuro	-5346
▁sudeste	-5347
grada	-5348
▁llu	-5349
▁smith	-5350
▁stre	-5351
▁tallos	-5352
▁consecu	-5353
▁japonesa	-5354
▁neu	-5355
gara	-5356
▁boca	-5357
ína	-5358
nu	-5359
▁roca	-5360
▁catalán	-5361
▁inglesa	-5362
▁historiador	-5363
▁múlti	-5364
▁discográfica	-5365
íti	-5366
zaba	-5367
▁incre	-5368
▁vuelve	-5369
▁paulo	-5370
▁transfer	-5371
▁cambió	-5372
▁llegada	-5373
▁crecimiento	-5374
▁régimen	-5375
▁otorgado	-5376
▁flora	-5377
▁compone	-5378
ür	-5379
▁competiciones	-5380
▁eso	-5381
▁apre	-5382
▁protección	-5383
▁piano	-5384
▁términos	-5385
▁ze	-5386
▁high	-5387
▁indonesia	-5388
▁notable	-5389
▁medie	-5390
▁primavera	-5391
▁cle	-5392
▁faner	-5393
▁descar	-5394
▁dura	-5395
▁javier	-5396
▁individual	-5397
▁volcán	-5398
▁fábr	-5399
▁rein	-5400
▁tabla	-5401
món	-5402
▁golpe	-5403
▁are	-5404
ara	-5405
);	-5406
▁faneróg	-5407
estas	-5408
▁dom	-5409
urt	-5410
▁cementerio	-5411
▁caracteriza	-5412
enos	-5413
▁pir	-5414
▁astrón	-5415
▁spe	-5416
▁escultor	-5417
av	-5418
▁trin	-5419
▁inaugurada	-5420
▁vicepresiden	-5421
▁claus	-5422
jal	-5423
▁gr	-5424
mido	-5425
00)	-5426
icardo	-5427
viera	-5428
▁registro	-5429
▁só	-5430
xo	-5431
▁encima	-5432
▁papeles	-5433
▁comúnmente	-5434
▁enf	-5435
▁justo	-5436
▁acercarse	-5437
▁promoción	-5438
▁cómo	-5439
▁deporte	-5440
▁músicos	-5441
▁perse	-5442
▁fallecido	-5443
▁golfo	-5444
▁refor	-5445
▁originario	-5446
posiciones	-5447
iados	-5448
▁ámbito	-5449
▁famosa	-5450
▁objetos	-5451
▁científico	-5452
▁clasificaciones	-5453
▁hierro	-5454
▁hern	-5455
taña	-5456
tánicas	-5457
▁vietnam	-5458
▁film	-5459
▁pere	-5460
▁aqu	-5461
▁0000:	-5462
▁participantes	-5463
ismos	-5464
▁circuito	-5465
▁galle	-5466
▁nacida	-5467
▁alfre	-5468
▁alianza	-5469
▁pronto	-5470
▁jan	-5471
taría	-5472
▁io	-5473
izo	-5474
ondo	-5475
▁memoria	-5476
amas	-5477
▁fusión	-5478
▁agrí	-5479
▁americano	-5480
vadas	-5481
fic	-5482
▁infantil	-5483
lina	-5484
▁ohio	-5485
▁apellido	-5486
▁cón	-5487
▁cercano	-5488
▁cargos	-5489
▁comienzos	-5490
▁representante	-5491
▁crece	-5492
▁vuelo	-5493
dería	-5494
▁orbita	-5495
▁cubierta	-5496
▁viene	-5497
ilandia	-5498
▁militares	-5499
▁trayectoria	-5500
hite	-5501
mana	-5502
▁episodios	-5503
▁%	-5504
▁listado	-5505
tier	-5506
▁descritas	-5507
▁emig	-5508
▁roberto	-5509
▁rebel	-5510
bert	-5511
ster	-5512
▁razón	-5513
▁ejerció	-5514
▁mantener	-5515
zu	-5516
▁claro	-5517
▁cuanto	-5518
▁salam	-5519
any	-5520
▁protagonista	-5521
thon	-5522
▁encontrado	-5523
▁caza	-5524
▁saté	-5525
▁magn	-5526
kov	-5527
terios	-5528
▁efecto	-5529
▁difí	-5530
▁imperial	-5531
tian	-5532
glo	-5533
▁telenovela	-5534
cimientos	-5535
lip	-5536
▁málaga	-5537
▁espectadores	-5538
ruz	-5539
▁obser	-5540
▁destacar	-5541
▁draft	-5542
▁peruano	-5543
ló	-5544
didae	-5545
ling	-5546
▁interpretación	-5547
qués	-5548
▁dijo	-5549
▁ataque	-5550
bc	-5551
▁construir	-5552
core	-5553
▁extinción	-5554
cord	-5555
▁archipi	-5556
▁expan	-5557
▁centímetros	-5558
roso	-5559
eto	-5560
▁alejarse	-5561
▁calendario	-5562
▁cambios	-5563
▁elimina	-5564
nie	-5565
▁brown	-5566
▁gregor	-5567
▁ricardo	-5568
▁completamente	-5569
▁marcha	-5570
▁apor	-5571
dimiento	-5572
▁due	-5573
▁andalucía	-5574
tios	-5575
onomía	-5576
tificado	-5577
▁rusa	-5578
▁marido	-5579
▁homónimo	-5580
▁rue	-5581
thy	-5582
▁refug	-5583
▁trabajando	-5584
▁river	-5585
▁indígen	-5586
▁prac	-5587
taria	-5588
yana	-5589
▁coor	-5590
▁estruc	-5591
▁pasaron	-5592
▁jud	-5593
▁doctorado	-5594
▁ray	-5595
▁margen	-5596
▁spa	-5597
▁lorenzo	-5598
▁concepción	-5599
▁duración	-5600
▁ocasión	-5601
▁mitología	-5602
▁evan	-5603
▁publicaciones	-5604
▁center	-5605
▁island	-5606
ralmente	-5607
▁rama	-5608
▁arizona	-5609
caba	-5610
▁quer	-5611
▁posteriores	-5612
▁llamar	-5613
▁reinado	-5614
▁turismo	-5615
▁convertirse	-5616
ámica	-5617
▁estándar	-5618
":	-5619
▁presentan	-5620
▁0000-0000.	-5621
▁exhib	-5622
▁materiales	-5623
▁manif	-5624
zob	-5625
▁cír	-5626
▁:	-5627
▁jacob	-5628
▁novelas	-5629
futbolista	-5630
raba	-5631
▁krasno	-5632
▁responsable	-5633
▁concepto	-5634
▁football	-5635
▁georgia	-5636
▁semanas	-5637
▁profesionales	-5638
bec	-5639
▁accidente	-5640
pha	-5641
▁continental	-5642
▁desp	-5643
▁ingeniería	-5644
▁investigaciones	-5645
oli	-5646
▁evitar	-5647
tiz	-5648
▁jackson	-5649
]]	-5650
▁belga	-5651
▁detrás	-5652
▁dando	-5653
▁dejar	-5654
▁mucha	-5655
▁liberal	-5656
▁somb	-5657
▁efectos	-5658
▁leo	-5659
▁0-00	-5660
▁honduras	-5661
▁glab	-5662
▁juris	-5663
▁motivo	-5664
▁busca	-5665
▁espectá	-5666
iertos	-5667
▁aumen	-5668
▁xv	-5669
▁uruguayo	-5670
▁suma	-5671
bell	-5672
▁arroyo	-5673
▁tomar	-5674
▁romana	-5675
▁finalizar	-5676
▁victorias	-5677
▁competencia	-5678
yeron	-5679
▁archipiélago	-5680
▁ucrania	-5681
▁montes	-5682
▁reforma	-5683
▁king	-5684
▁vasco	-5685
xil	-5686
▁sebastián	-5687
ualmente	-5688
▁agre	-5689
▁post	-5690
▁provision	-5691
▁dete	-5692
▁armen	-5693
▁públicas	-5694
illos	-5695
idal	-5696
▁forta	-5697
▁escritora	-5698
ning	-5699
▁princesa	-5700
▁mari	-5701
▁blancas	-5702
▁nación	-5703
▁carne	-5704
▁agus	-5705
▁perteneció	-5706
▁play	-5707
▁concejo	-5708
didas	-5709
▁humor	-5710
chan	-5711
▁tok	-5712
icanos	-5713
▁royal	-5714
▁constan	-5715
▁once	-5716
tuales	-5717
▁cercanías	-5718
ders	-5719
tiza	-5720
chu	-5721
▁hin	-5722
▁repor	-5723
▁excepto	-5724
ique	-5725
▁antár	-5726
▁últimas	-5727
”,	-5728
asia	-5729
uber	-5730
▁tai	-5731
▁vivir	-5732
▁teatral	-5733
▁conste	-5734
▁abandon	-5735
gador	-5736
gh	-5737
▁generación	-5738
lajara	-5739
▁monotí	-5740
▁interpretada	-5741
▁aspecto	-5742
▁captura	-5743
eles	-5744
▁intera	-5745
▁mada	-5746
▁henry	-5747
▁deten	-5748
rito	-5749
▁hall	-5750
▁discip	-5751
▁nucle	-5752
▁viven	-5753
▁ida	-5754
▁convirtiéndose	-5755
▁desempeña	-5756
▁consul	-5757
▁amateur	-5758
▁gales	-5759
▁inver	-5760
▁mantiene	-5761
▁agrupación	-5762
deros	-5763
▁aérea	-5764
▁mauri	-5765
▁inflorescencia	-5766
madrid	-5767
zam	-5768
kota	-5769
▁she	-5770
iros	-5771
pur	-5772
monte	-5773
▁abandonó	-5774
yne	-5775
▁senador	-5776
▁"(	-5777
▁perfec	-5778
ct	-5779
sul	-5780
▁0-	-5781
▁deportistas	-5782
▁pieza	-5783
▁ic	-5784
▁atenas	-5785
▁selecciones	-5786
▁recursos	-5787
▁conex	-5788
▁políticos	-5789
elos	-5790
▁sacerdote	-5791
▁tratamiento	-5792
▁compite	-5793
▁disponible	-5794
▁dinamarca	-5795
▁experiencia	-5796
▁by	-5797
ósito	-5798
dí	-5799
▁ki	-5800
▁centros	-5801
▁tol	-5802
▁regreso	-5803
▁narra	-5804
▁combate	-5805
▁etapas	-5806
ars	-5807
▁atlan	-5808
▁dun	-5809
▁artículo	-5810
▁navarra	-5811
▁mad	-5812
▁normal	-5813
▁fila	-5814
▁ligas	-5815
▁sueco	-5816
▁escocia	-5817
▁pap	-5818
feros	-5819
dw	-5820
ópo	-5821
▁falta	-5822
▁constituye	-5823
▁homónima	-5824
mburgo	-5825
tipo	-5826
▁poten	-5827
▁abrió	-5828
▁ambien	-5829
▁cortes	-5830
lid	-5831
lly	-5832
▁diferente	-5833
▁nombró	-5834
▁administrativo	-5835
jam	-5836
▁supri	-5837
▁demostra	-5838
cr	-5839
▁consecuencia	-5840
yro	-5841
▁env	-5842
cimo	-5843
▁dú	-5844
▁max	-5845
▁comerciales	-5846
▁mall	-5847
▁recom	-5848
▁castellano	-5849
▁documental	-5850
dilla	-5851
▁familiar	-5852
▁conclu	-5853
▁escala	-5854
▁clásica	-5855
▁posiblemente	-5856
▁big	-5857
tanos	-5858
▁regionales	-5859
▁apenas	-5860
▁unidas	-5861
▁amenazada	-5862
▁premier	-5863
▁vecinos	-5864
▁amaz	-5865
▁united	-5866
tell	-5867
▁superiores	-5868
áns	-5869
more	-5870
xe	-5871
▁relev	-5872
lidos	-5873
ái	-5874
▁ocup	-5875
▁desarrollar	-5876
▁campan	-5877
▁afluente	-5878
▁habitual	-5879
▁ue	-5880
▁pil	-5881
”.	-5882
▁solu	-5883
bilidad	-5884
gráficos	-5885
▁moto	-5886
usco	-5887
allen	-5888
▁presentado	-5889
ulin	-5890
▁vino	-5891
▁hún	-5892
▁recibido	-5893
▁interpretado	-5894
▁escribir	-5895
▁millas	-5896
▁terror	-5897
▁oce	-5898
▁commun	-5899
▁ficha	-5900
▁fundamental	-5901
sor	-5902
▁raíz	-5903
▁admi	-5904
▁hoja	-5905
▁patro	-5906
▁marqués	-5907
▁cél	-5908
▁nin	-5909
donia	-5910
▁nicolás	-5911
▁ov	-5912
▁equival	-5913
▁neer	-5914
▁coronel	-5915
vias	-5916
▁east	-5917
▁recep	-5918
▁afil	-5919
▁rap	-5920
▁subdi	-5921
tividad	-5922
▁estatura	-5923
dían	-5924
▁característica	-5925
hl	-5926
▁pseudo	-5927
▁escultura	-5928
▁laterales	-5929
lora	-5930
ray	-5931
▁org	-5932
▁ciclo	-5933
▁universal	-5934
uegos	-5935
▁margar	-5936
▁grand	-5937
roe	-5938
▁rami	-5939
▁bajas	-5940
▁brillante	-5941
▁deben	-5942
="	-5943
▁comandante	-5944
▁litu	-5945
old	-5946
ombre	-5947
▁vocalista	-5948
▁poblaciones	-5949
wor	-5950
▁comienzo	-5951
▁mismos	-5952
gráficas	-5953
▁edward	-5954
▁cosas	-5955
nesota	-5956
▁programación	-5957
▁siguió	-5958
▁gabriel	-5959
bour	-5960
▁arzob	-5961
ов	-5962
▁presti	-5963
▁guionista	-5964
non	-5965
table	-5966
▁grabó	-5967
▁entidad	-5968
▁constelación	-5969
▁moderna	-5970
▁método	-5971
▁hispano	-5972
▁republ	-5973
▁siglas	-5974
▁colaboró	-5975
▁caída	-5976
▁hielo	-5977
deres	-5978
▁seguir	-5979
▁sobr	-5980
▁foraminífero	-5981
▁blu	-5982
▁cercana	-5983
▁eug	-5984
▁subs	-5985
▁prepara	-5986
ivas	-5987
tamiento	-5988
▁[[	-5989
ridae	-5990
rue	-5991
gulo	-5992
rich	-5993
▁ok	-5994
riendo	-5995
▁insectos	-5996
▁international	-5997
fort	-5998
▁recuer	-5999
deas	-6000
ieza	-6001
▁abajo	-6002
▁mat	-6003
▁cuyos	-6004
olas	-6005
▁hectá	-6006
iber	-6007
its	-6008
▁ty	-6009
cop	-6010
ceas	-6011
▁bab	-6012
▁astronó	-6013
▁cár	-6014
▁díaz	-6015
▁subtropicales	-6016
▁adri	-6017
ilita	-6018
▁ramal	-6019
▁obstante	-6020
▁deber	-6021
▁igna	-6022
▁sobreviv	-6023
▁abreviado	-6024
▁dimen	-6025
▁humano	-6026
▁dakota	-6027
▁esperan	-6028
ding	-6029
▁coin	-6030
comune	-6031
▁capaz	-6032
▁expedición	-6033
▁lé	-6034
andés	-6035
▁minnesota	-6036
íferos	-6037
▁kir	-6038
tela	-6039
▁recién	-6040
cks	-6041
jus	-6042
▁hicieron	-6043
▁destino	-6044
▁marcó	-6045
▁ácido	-6046
▁orillas	-6047
▁conme	-6048
▁totalmente	-6049
fera	-6050
▁monotípico	-6051
ör	-6052
▁confe	-6053
▁lagos	-6054
▁sucedió	-6055
▁compitieron	-6056
olos	-6057
▁afi	-6058
gam	-6059
▁arriba	-6060
▁ojos	-6061
▁alo	-6062
▁baj	-6063
▁nas	-6064
tain	-6065
▁janeiro	-6066
ani	-6067
dney	-6068
▁dominio	-6069
▁dispone	-6070
▁enem	-6071
▁exteriores	-6072
▁him	-6073
"".	-6074
heim	-6075
▁estimada	-6076
▁supre	-6077
▁múltiples	-6078
▁inicios	-6079
▁profesora	-6080
▁subcampe	-6081
▁altas	-6082
▁opin	-6083
▁permanente	-6084
estru	-6085
▁aldea	-6086
ceola	-6087
▁modelos	-6088
lana	-6089
omen	-6090
▁fro	-6091
▁sk	-6092
▁toledo	-6093
▁universidades	-6094
▁incluía	-6095
▁escenario	-6096
▁convenciones	-6097
▁huevos	-6098
▁históricos	-6099
▁minas	-6100
▁concre	-6101
▁university	-6102
abre	-6103
traje	-6104
ológicos	-6105
▁ribe	-6106
▁auton	-6107
gri	-6108
▁mendo	-6109
▁pocas	-6110
▁raión	-6111
▁vence	-6112
▁infra	-6113
▁utilizan	-6114
▁Í	-6115
▁instituciones	-6116
▁cocina	-6117
▁asuntos	-6118
▁ejecutivo	-6119
▁ira	-6120
▁condados	-6121
▁tempo	-6122
éticamente	-6123
▁carmen	-6124
▁conoció	-6125
▁vega	-6126
▁bun	-6127
▁entorno	-6128
uk	-6129
▁norman	-6130
clas	-6131
▁labora	-6132
▁guadalajara	-6133
▁videojuego	-6134
ania	-6135
▁sua	-6136
▁asisten	-6137
tidades	-6138
▁coleoptera	-6139
mación	-6140
▁mark	-6141
▁000.0	-6142
▁atraves	-6143
▁univer	-6144
▁hacien	-6145
▁frag	-6146
▁poblado	-6147
▁+0	-6148
dium	-6149
▁mia	-6150
▁frecuentemente	-6151
▁evi	-6152
▁virginia	-6153
–0000	-6154
▁mediterráneo	-6155
▁fachada	-6156
▁krasnodar	-6157
▁pertenecía	-6158
mpo	-6159
▁alberga	-6160
ilio	-6161
▁representado	-6162
▁indiana	-6163
▁operación	-6164
gna	-6165
guer	-6166
▁norteamérica	-6167
▁tailandia	-6168
▁white	-6169
▁instal	-6170
▁aquella	-6171
▁hectáreas	-6172
"",	-6173
boa	-6174
wil	-6175
copa	-6176
cter	-6177
▁apoy	-6178
war	-6179
▁sencillos	-6180
▁dro	-6181
▁basa	-6182
▁hungría	-6183
hon	-6184
▁iba	-6185
▁plano	-6186
▁automóvil	-6187
▁wis	-6188
▁bentónico	-6189
alia	-6190
▁detal	-6191
▁marino	-6192
▁fábrica	-6193
oc	-6194
fia	-6195
▁frutos	-6196
▁balonmano	-6197
▁salón	-6198
▁fos	-6199
▁aquellos	-6200
▁valen	-6201
▁fiestas	-6202
▁desconoci	-6203
▁batería	-6204
cionar	-6205
▁piloto	-6206
▁dinero	-6207
▁solitario	-6208
▁fós	-6209
▁titulada	-6210
eses	-6211
▁radi	-6212
▁divisiones	-6213
mera	-6214
▁haya	-6215
ics	-6216
▁cate	-6217
▁actuaciones	-6218
▁grave	-6219
▁terre	-6220
▁terminar	-6221
domin	-6222
▁alco	-6223
▁facil	-6224
▁trono	-6225
misión	-6226
▁00:00	-6227
▁direc	-6228
▁aren	-6229
phorbia	-6230
▁sangre	-6231
▁bretaña	-6232
▁células	-6233
▁montevideo	-6234
▁invas	-6235
▁dub	-6236
▁antiguas	-6237
▁revolucion	-6238
▁diputados	-6239
▁wes	-6240
▁lanza	-6241
dras	-6242
▁dúo	-6243
▁ore	-6244
▁crítico	-6245
mio	-6246
árez	-6247
▁sens	-6248
▁sufrió	-6249
▁volumen	-6250
▁ll	-6251
ladolid	-6252
▁destacó	-6253
▁champion	-6254
▁lenguaje	-6255
▁césar	-6256
▁cher	-6257
▁relativamente	-6258
▁ejemplares	-6259
geno	-6260
▁recha	-6261
▁enseñanza	-6262
top	-6263
▁lie	-6264
▁nativa	-6265
tú	-6266
región	-6267
▁involu	-6268
cino	-6269
▁residencia	-6270
▁agencia	-6271
▁cristo	-6272
▁tos	-6273
quin	-6274
▁box	-6275
▁rápidamente	-6276
▁recopila	-6277
▁confun	-6278
gru	-6279
psis	-6280
▁expresión	-6281
▁empresario	-6282
▁canto	-6283
▁récord	-6284
▁ventas	-6285
idió	-6286
toma	-6287
▁psic	-6288
▁excel	-6289
▁rocas	-6290
▁conferencia	-6291
kes	-6292
oba	-6293
cabe	-6294
ulado	-6295
iéndose	-6296
iertas	-6297
istía	-6298
▁comenta	-6299
▁brinda	-6300
▁usar	-6301
▁impacto	-6302
▁fotografía	-6303
éndo	-6304
istos	-6305
▁asegu	-6306
▁primo	-6307
▁sant	-6308
gers	-6309
▁comunista	-6310
▁meridional	-6311
▁up	-6312
▁interven	-6313
▁autoridad	-6314
íso	-6315
ration	-6316
▁estadística	-6317
▁estrecho	-6318
zones	-6319
tadores	-6320
▁burgos	-6321
▁símbolo	-6322
▁joaquín	-6323
▁tráns	-6324
▁tocar	-6325
icaron	-6326
▁pierre	-6327
▁defensor	-6328
▁territorios	-6329
ider	-6330
toral	-6331
▁eri	-6332
sia	-6333
▁completa	-6334
▁mín	-6335
▁pion	-6336
▁croacia	-6337
▁rara	-6338
▁convento	-6339
▁palma	-6340
▁finlandia	-6341
gascar	-6342
tag	-6343
ttle	-6344
▁naran	-6345
teo	-6346
▁inicial	-6347
tn	-6348
▁puestos	-6349
cidae	-6350
▁conden	-6351
imos	-6352
▁resistencia	-6353
gico	-6354
▁niveles	-6355
▁comunes	-6356
gotá	-6357
▁ape	-6358
▁describe	-6359
ss	-6360
▁relacionados	-6361
▁acre	-6362
▁dobles	-6363
▁ocupar	-6364
ificación	-6365
hr	-6366
▁haw	-6367
▁garden	-6368
▁textos	-6369
▁eus	-6370
▁bailar	-6371
▁medieval	-6372
▁recibir	-6373
▁orilla	-6374
▁rol	-6375
▁noticias	-6376
▁valores	-6377
teles	-6378
▁húmedos	-6379
▁sys	-6380
▁kansas	-6381
▁hí	-6382
▁noc	-6383
▁alfab	-6384
▁madagascar	-6385
▁estimación	-6386
▁vicepresidente	-6387
▁paseri	-6388
yl	-6389
00'	-6390
tena	-6391
▁despla	-6392
▁prefer	-6393
iniformes	-6394
▁0-0,	-6395
▁muerto	-6396
▁some	-6397
▁privada	-6398
▁invers	-6399
▁pantalla	-6400
▁°	-6401
00"	-6402
isto	-6403
▁urbana	-6404
▁sexto	-6405
▁dividido	-6406
bach	-6407
▁frie	-6408
▁instrumentos	-6409
dromo	-6410
▁arre	-6411
▁popularidad	-6412
alizado	-6413
▁atravi	-6414
▁delante	-6415
▁tiro	-6416
▁sup	-6417
blast	-6418
▁escenas	-6419
▁siguiendo	-6420
▁tay	-6421
▁diseña	-6422
uu	-6423
▁mata	-6424
▁saga	-6425
▁pur	-6426
ieren	-6427
▁adoles	-6428
▁estando	-6429
▁especiales	-6430
úcar	-6431
grama	-6432
▁tránsito	-6433
▁core	-6434
éisbol	-6435
▁carden	-6436
▁lomb	-6437
rieron	-6438
▁milán	-6439
enio	-6440
▁chip	-6441
ables	-6442
▁traspas	-6443
▁representada	-6444
xia	-6445
raron	-6446
▁despe	-6447
▁décadas	-6448
▁000%	-6449
▁fusion	-6450
▁béisbol	-6451
edad	-6452
▁jeff	-6453
▁adultos	-6454
▁centrocampista	-6455
▁0:00	-6456
▁semin	-6457
▁precis	-6458
esión	-6459
▁podía	-6460
▁previamente	-6461
▁producciones	-6462
▁correspondiente	-6463
▁incen	-6464
▁moderno	-6465
cc	-6466
▁vincu	-6467
▁plato	-6468
▁puertas	-6469
osla	-6470
▁pec	-6471
vados	-6472
(0):	-6473
▁ful	-6474
▁círculo	-6475
sas	-6476
▁conservación	-6477
▁atp	-6478
▁salamanca	-6479
▁ampliamente	-6480
iada	-6481
▁filas	-6482
corpion	-6483
▁iowa	-6484
cali	-6485
▁nombrada	-6486
▁anal	-6487
▁contrario	-6488
ekw	-6489
▁obtiene	-6490
▁háb	-6491
▁vul	-6492
▁tercero	-6493
▁judicial	-6494
▁columbia	-6495
ère	-6496
icante	-6497
▁batal	-6498
▁religioso	-6499
▁mancha	-6500
▁hues	-6501
▁difícil	-6502
ckey	-6503
▁arreg	-6504
▁astrónomo	-6505
▁aprove	-6506
▁convertido	-6507
mería	-6508
▁ix	-6509
▁taekw	-6510
estados	-6511
▁costas	-6512
▁nik	-6513
▁acabó	-6514
erse	-6515
▁pseudos	-6516
▁puso	-6517
▁simb	-6518
▁massa	-6519
chester	-6520
▁ermita	-6521
▁glob	-6522
▁piel	-6523
▁entrar	-6524
vación	-6525
▁tallo	-6526
▁mendoza	-6527
▁Álvarez	-6528
▁asiático	-6529
▁taekwondo	-6530
▁treinta	-6531
jada	-6532
▁regu	-6533
▁0–0	-6534
itó	-6535
iás	-6536
▁disposi	-6537
▁contacto	-6538
▁prefectura	-6539
▁peligro	-6540
▁propios	-6541
tudes	-6542
▁fantas	-6543
▁municipales	-6544
xto	-6545
▁vícti	-6546
▁catalo	-6547
▁poemas	-6548
▁especialista	-6549
▁mace	-6550
▁licenciado	-6551
▁avión	-6552
▁anuncia	-6553
▁enam	-6554
▁hip	-6555
▁mane	-6556
uco	-6557
▁nica	-6558
▁parada	-6559
▁establecido	-6560
▁juntos	-6561
▁universo	-6562
ácea	-6563
▁cres	-6564
▁cedido	-6565
▁philip	-6566
▁union	-6567
▁originales	-6568
landes	-6569
aus	-6570
▁científica	-6571
riles	-6572
▁bell	-6573
ienta	-6574
▁tráfico	-6575
▁(0.0	-6576
▁elemento	-6577
bon	-6578
▁acces	-6579
▁salto	-6580
▁hacienda	-6581
cana	-6582
▁carn	-6583
ming	-6584
▁actuales	-6585
▁iglesias	-6586
▁jardines	-6587
▁seleccionado	-6588
▁marcel	-6589
iti	-6590
dada	-6591
deración	-6592
vila	-6593
▁gio	-6594
▁derrota	-6595
▁sín	-6596
▁solici	-6597
▁hot	-6598
▁uci	-6599
▁horiz	-6600
▁enfren	-6601
licos	-6602
▁marques	-6603
▁trabajadores	-6604
lón	-6605
unt	-6606
rico	-6607
▁ubicación	-6608
▁cumpl	-6609
▁producir	-6610
▁técnicas	-6611
▁hechos	-6612
▁directora	-6613
▁galicia	-6614
▁aje	-6615
lidae	-6616
▁constante	-6617
▁quién	-6618
▁chara	-6619
tular	-6620
▁merce	-6621
▁jurisdic	-6622
▁integrado	-6623
▁society	-6624
chado	-6625
▁peña	-6626
ule	-6627
estro	-6628
▁corriente	-6629
tle	-6630
▁paris	-6631
▁marcos	-6632
▁fé	-6633
lantes	-6634
▁ernes	-6635
▁polaco	-6636
▁representantes	-6637
cano	-6638
▁rit	-6639
anía	-6640
▁espinas	-6641
▁pia	-6642
▁nan	-6643
▁ignacio	-6644
▁caballero	-6645
▁dre	-6646
bara	-6647
▁scott	-6648
▁caracas	-6649
▁audio	-6650
▁interpreta	-6651
ois	-6652
ciano	-6653
▁integró	-6654
stein	-6655
▁malasia	-6656
▁negocios	-6657
ele	-6658
▁altos	-6659
▁europeos	-6660
ásico	-6661
▁animal	-6662
socia	-6663
zy	-6664
▁regla	-6665
▁rojas	-6666
erar	-6667
ionado	-6668
quilla	-6669
▁frecuen	-6670
ionalmente	-6671
▁activa	-6672
nar	-6673
▁quedando	-6674
vó	-6675
▁movimientos	-6676
▁exposiciones	-6677
▁constitucional	-6678
▁llegaron	-6679
▁segundos	-6680
▁sum	-6681
sus	-6682
▁viz	-6683
▁xiv	-6684
tamen	-6685
▁incorpor	-6686
ológicas	-6687
grafías	-6688
▁‘	-6689
▁plantar	-6690
▁subespecies	-6691
▁gó	-6692
▁exa	-6693
▁hugo	-6694
▁comunidades	-6695
ov	-6696
▁tin	-6697
bada	-6698
▁almacen	-6699
▁declarado	-6700
abilidad	-6701
▁acor	-6702
▁utilizando	-6703
▁nova	-6704
tander	-6705
▁mesa	-6706
gle	-6707
pta	-6708
dale	-6709
▁beb	-6710
▁poseen	-6711
▁conforma	-6712
talos	-6713
▁usando	-6714
diócesis	-6715
trico	-6716
trando	-6717
▁tribunal	-6718
▁reacción	-6719
▁café	-6720
▁ajedre	-6721
▁teniente	-6722
▁0000-0000,	-6723
▁senado	-6724
▁económico	-6725
▁abor	-6726
▁noble	-6727
mac	-6728
▁clau	-6729
darse	-6730
▁agente	-6731
▁maríti	-6732
▁leyenda	-6733
▁valladolid	-6734
▁porta	-6735
▁montaños	-6736
▁ocul	-6737
▁pale	-6738
ieta	-6739
▁mecán	-6740
▁abierta	-6741
únich	-6742
▁logrando	-6743
▁cypriniformes	-6744
▁binom	-6745
▁asistió	-6746
ficiente	-6747
▁cup	-6748
▁portada	-6749
eas	-6750
▁semifinales	-6751
▁mallor	-6752
▁elig	-6753
▁veinte	-6754
▁transcur	-6755
▁terremo	-6756
olida	-6757
tali	-6758
▁disney	-6759
cionario	-6760
▁recin	-6761
▁esos	-6762
▁deja	-6763
mosa	-6764
plan	-6765
ancia	-6766
▁argu	-6767
▁transforma	-6768
fs	-6769
ensivo	-6770
▁soldados	-6771
▁belleza	-6772
gida	-6773
▁stra	-6774
itante	-6775
▁acciones	-6776
▁oliv	-6777
▁amplio	-6778
elli	-6779
▁llamó	-6780
▁reales	-6781
▁adol	-6782
▁interpretar	-6783
▁ordenadas	-6784
▁adaptación	-6785
▁disminu	-6786
▁céle	-6787
▁límites	-6788
▁fér	-6789
▁sole	-6790
▁bud	-6791
▁liv	-6792
vina	-6793
tabria	-6794
▁niger	-6795
▁futbol	-6796
▁sem	-6797
▁alguno	-6798
▁conmemo	-6799
▁aerolí	-6800
▁hacía	-6801
▁dificul	-6802
▁mir	-6803
▁tig	-6804
▁barco	-6805
▁brook	-6806
▁católico	-6807
▁terrenos	-6808
▁llamados	-6809
▁pistas	-6810
▁arzobispo	-6811
▁bec	-6812
▁celebrado	-6813
▁fundadores	-6814
▁yuca	-6815
▁bou	-6816
ópodo	-6817
▁alban	-6818
cencias	-6819
▁contrajo	-6820
▁resolución	-6821
abreviado	-6822
▁crédi	-6823
▁encuentros	-6824
▁quiere	-6825
▁cáncer	-6826
▁linneo	-6827
randa	-6828
▁anto	-6829
▁porno	-6830
mea	-6831
▁mira	-6832
▁jaime	-6833
▁remon	-6834
▁secos	-6835
▁entrega	-6836
só	-6837
▁michel	-6838
▁seleccion	-6839
zco	-6840
▁one	-6841
deos	-6842
dita	-6843
▁maris	-6844
▁coro	-6845
▁leyes	-6846
▁water	-6847
ciente	-6848
▁escritos	-6849
▁discográfico	-6850
ult	-6851
etts	-6852
▁nacionalidad	-6853
▁glor	-6854
cing	-6855
▁escritores	-6856
▁repe	-6857
thus	-6858
▁pétalos	-6859
▁boston	-6860
nan	-6861
▁caja	-6862
▁cultivo	-6863
▁intercam	-6864
▁vegetación	-6865
une	-6866
dows	-6867
▁lingü	-6868
▁protes	-6869
▁williams	-6870
úsque	-6871
▁verti	-6872
▁integrantes	-6873
▁gl	-6874
▁county	-6875
ath	-6876
▁resultó	-6877
▁dividida	-6878
▁componentes	-6879
bao	-6880
▁andes	-6881
arte	-6882
▁espacial	-6883
onato	-6884
▁pertenecen	-6885
.),	-6886
▁singles	-6887
cht	-6888
garia	-6889
▁pelo	-6890
▁rutas	-6891
▁gib	-6892
istir	-6893
▁blue	-6894
▁transfor	-6895
derson	-6896
▁lados	-6897
▁bloque	-6898
▁llevado	-6899
▁siluri	-6900
▁encargado	-6901
▁fib	-6902
▁naval	-6903
▁ecuator	-6904
▁subespecie	-6905
▁embal	-6906
▁usada	-6907
▁historias	-6908
▁traducción	-6909
▁incluyó	-6910
inar	-6911
▁abund	-6912
▁paran	-6913
kh	-6914
▁vein	-6915
▁especializado	-6916
▁med	-6917
▁espí	-6918
▁rally	-6919
▁oportunidad	-6920
▁propiedades	-6921
▁llevan	-6922
▁legislatura	-6923
▁street	-6924
▁solista	-6925
▁relacionado	-6926
▁cambiar	-6927
▁asistente	-6928
úmenes	-6929
▁órgano	-6930
▁baile	-6931
viedo	-6932
▁endo	-6933
tome	-6934
▁ganando	-6935
▁territorial	-6936
pice	-6937
ficar	-6938
▁holly	-6939
ésimo	-6940
▁abar	-6941
▁coali	-6942
▁harris	-6943
▁murcia	-6944
▁open	-6945
▁órdenes	-6946
▁arbusto	-6947
▁binomial	-6948
▁qué	-6949
▁conforman	-6950
rat	-6951
▁checa	-6952
▁hembras	-6953
▁sean	-6954
▁búsque	-6955
itarios	-6956
▁conocimiento	-6957
▁amistos	-6958
▁billboard	-6959
▁boy	-6960
▁bogotá	-6961
drich	-6962
ficada	-6963
iaceae	-6964
▁dejando	-6965
▁cú	-6966
▁compañero	-6967
▁prisión	-6968
▁inven	-6969
▁múnich	-6970
commun	-6971
corpionida	-6972
▁atraviesa	-6973
tie	-6974
▁tradicionales	-6975
▁has	-6976
▁aro	-6977
▁cierta	-6978
énez	-6979
▁compor	-6980
▁herram	-6981
ith	-6982
▁alfabéticamente	-6983
▁sucesor	-6984
▁críticas	-6985
▁day	-6986
trica	-6987
▁sitios	-6988
▁(*	-6989
▁oto	-6990
▁establecer	-6991
▁ayudar	-6992
▁problema	-6993
▁jersey	-6994
-00,	-6995
▁oli	-6996
▁–00	-6997
▁flota	-6998
tillo	-6999
▁miami	-7000
▁salir	-7001
▁victor	-7002
lus	-7003
oni	-7004
ere	-7005
▁cubre	-7006
amp	-7007
▁vieja	-7008
▁argel	-7009
▁joan	-7010
▁dirige	-7011
▁tesis	-7012
▁raíces	-7013
▁frecuente	-7014
guar	-7015
todos	-7016
▁ries	-7017
tine	-7018
erson	-7019
▁próximo	-7020
cte	-7021
chusetts	-7022
▁jones	-7023
▁viajó	-7024
▁prohib	-7025
inete	-7026
tuario	-7027
▁víctor	-7028
▁aplicaciones	-7029
▁fabr	-7030
▁award	-7031
▁valley	-7032
▁ayud	-7033
▁yug	-7034
▁guarda	-7035
▁mandato	-7036
▁plantarum	-7037
chil	-7038
▁cis	-7039
▁cala	-7040
▁realizaron	-7041
ragua	-7042
▁fall	-7043
▁satélite	-7044
▁americana	-7045
▁irreg	-7046
▁fuertes	-7047
▁gimnas	-7048
▁literaria	-7049
hard	-7050
▁stor	-7051
tancias	-7052
▁reconocida	-7053
▁testi	-7054
lah	-7055
kaya	-7056
ices	-7057
▁impuls	-7058
▁rocos	-7059
colo	-7060
▁noven	-7061
▁company	-7062
▁jen	-7063
quero	-7064
▁materia	-7065
▁certamen	-7066
▁reconocen	-7067
gui	-7068
▁salas	-7069
yi	-7070
▁kan	-7071
iares	-7072
consin	-7073
▁bater	-7074
▁embajador	-7075
▁tokio	-7076
icula	-7077
▁anfibios	-7078
pul	-7079
▁intens	-7080
▁descenso	-7081
see	-7082
tér	-7083
than	-7084
▁mural	-7085
▁ecles	-7086
▁coral	-7087
▁costu	-7088
▁permitió	-7089
▁siluriformes	-7090
▁suje	-7091
▁clave	-7092
▁visto	-7093
▁intelig	-7094
ibol	-7095
▁puebla	-7096
▁mediocampista	-7097
kistán	-7098
jugador	-7099
▁humana	-7100
sam	-7101
▁colecciones	-7102
▁sudamericano	-7103
▁vé	-7104
ruecos	-7105
tades	-7106
andra	-7107
▁clasificado	-7108
▁filial	-7109
▁usuarios	-7110
▁dominicana	-7111
lix	-7112
entales	-7113
tible	-7114
cico	-7115
tánicos	-7116
▁associa	-7117
▁conflicto	-7118
▁terrestre	-7119
▁autoridades	-7120
▁camer	-7121
▁agustín	-7122
pt	-7123
trans	-7124
ígenes	-7125
▁mensa	-7126
▁retor	-7127
ön	-7128
umas	-7129
▁cierto	-7130
▁christian	-7131
▁culturales	-7132
▁lograr	-7133
gus	-7134
▁invitado	-7135
▁colorado	-7136
▁sw	-7137
▁igualmente	-7138
▁cf	-7139
▁jurí	-7140
▁crisis	-7141
▁kong	-7142
▁variable	-7143
▁desempeñaba	-7144
yr	-7145
▁emer	-7146
▁simon	-7147
▁motivos	-7148
yes	-7149
anista	-7150
▁actos	-7151
▁ine	-7152
▁sto	-7153
▁difun	-7154
▁catedr	-7155
ilidades	-7156
crata	-7157
▁jal	-7158
▁totalidad	-7159
▁with	-7160
gencia	-7161
▁pinturas	-7162
▁organizaciones	-7163
denas	-7164
▁oposición	-7165
▁artifici	-7166
rock	-7167
▁eva	-7168
▁hong	-7169
▁fortaleza	-7170
▁canales	-7171
auté	-7172
▁recientes	-7173
▁instrumento	-7174
▁significado	-7175
▁arn	-7176
▁conocen	-7177
▁oficinas	-7178
▁pese	-7179
zgo	-7180
▁saj	-7181
▁producen	-7182
▁empieza	-7183
▁promedia	-7184
ami	-7185
▁windows	-7186
▁cromos	-7187
▁esque	-7188
▁petro	-7189
▁minerales	-7190
▁australiano	-7191
▁sici	-7192
tarios	-7193
nada	-7194
▁enfo	-7195
▁centen	-7196
▁físico	-7197
▁scien	-7198
zadas	-7199
▁evolución	-7200
▁noctur	-7201
▁incorporó	-7202
▁individuales	-7203
▁enor	-7204
▁apos	-7205
▁botánicas	-7206
▁manus	-7207
▁steph	-7208
▁aleyro	-7209
▁extras	-7210
▁cuesti	-7211
▁presión	-7212
real	-7213
▁wisconsin	-7214
▁vuelos	-7215
▁recinto	-7216
▁potencia	-7217
▁audiencia	-7218
▁jesu	-7219
▁arbustos	-7220
▁agra	-7221
▁dicta	-7222
▁ath	-7223
tentri	-7224
▁coalición	-7225
▁anotó	-7226
▁tej	-7227
▁organismo	-7228
▁necesario	-7229
▁chu	-7230
▁asturi	-7231
▁espacios	-7232
▁decisión	-7233
vir	-7234
▁académico	-7235
▁0-0.	-7236
▁comis	-7237
▁volúmenes	-7238
fan	-7239
ski	-7240
tang	-7241
cialmente	-7242
▁fox	-7243
esco	-7244
leibol	-7245
caso	-7246
cris	-7247
▁jar	-7248
▁destacados	-7249
▁im	-7250
▁serbia	-7251
▁propias	-7252
ónicas	-7253
▁tío	-7254
▁orgán	-7255
▁mineral	-7256
▁disputado	-7257
▁gh	-7258
thur	-7259
▁fabric	-7260
▁redonde	-7261
tidas	-7262
▁recla	-7263
▁sale	-7264
▁infancia	-7265
▁santander	-7266
chy	-7267
▁wood	-7268
▁creció	-7269
▁africano	-7270
▁house	-7271
▁tomás	-7272
▁benefici	-7273
loj	-7274
uss	-7275
▁live	-7276
▁esfuer	-7277
▁septentri	-7278
▁suprimido	-7279
edor	-7280
▁reciente	-7281
pis	-7282
pedia	-7283
▁renun	-7284
▁idiomas	-7285
▁misuri	-7286
▁venezolano	-7287
▁young	-7288
▁yugosla	-7289
▁apareci	-7290
▁port	-7291
▁vehículos	-7292
tw	-7293
▁karl	-7294
▁avia	-7295
alizar	-7296
▁procede	-7297
▁cron	-7298
▁teles	-7299
▁ejemplos	-7300
▁sau	-7301
▁primaria	-7302
▁zar	-7303
▁clasificados	-7304
▁cardenal	-7305
▁excepción	-7306
bury	-7307
▁oviedo	-7308
▁00'	-7309
▁fenó	-7310
▁cursos	-7311
▁búsqueda	-7312
dias	-7313
▁izquierdo	-7314
▁walter	-7315
▁paseriforme	-7316
▁oa	-7317
quiere	-7318
▁hermanas	-7319
ough	-7320
▁prove	-7321
letismo	-7322
▁parejas	-7323
vol	-7324
kins	-7325
▁eti	-7326
teria	-7327
cate	-7328
▁eclesiás	-7329
▁manuscri	-7330
▁franceses	-7331
ginas	-7332
▁metá	-7333
chigan	-7334
▁aviones	-7335
▁escol	-7336
▁columna	-7337
▁muestran	-7338
▁australiana	-7339
áticos	-7340
▁alrededores	-7341
-0,	-7342
umo	-7343
▁nieto	-7344
▁bienes	-7345
kan	-7346
▁cádiz	-7347
▁condición	-7348
hara	-7349
▁alonso	-7350
▁herbácea	-7351
▁estructuras	-7352
▁confederación	-7353
▁marruecos	-7354
▁presentación	-7355
ος	-7356
▁albert	-7357
▁poema	-7358
▁posibilidad	-7359
junto	-7360
-000.	-7361
icus	-7362
▁alexander	-7363
ah	-7364
ij	-7365
▁prece	-7366
sion	-7367
▁misiones	-7368
jante	-7369
ívo	-7370
▁jurisdicción	-7371
▁beach	-7372
▁consigue	-7373
tana	-7374
▁massachusetts	-7375
gaz	-7376
▁gram	-7377
▁hijas	-7378
▁convocado	-7379
▁eurovisión	-7380
▁largas	-7381
▁ajedrez	-7382
▁canarias	-7383
▁atletismo	-7384
kín	-7385
▁vier	-7386
▁musul	-7387
estructura	-7388
ián	-7389
▁canta	-7390
▁acto	-7391
▁irán	-7392
▁uefa	-7393
▁habiendo	-7394
meno	-7395
▁descubierta	-7396
▁matemáticas	-7397
▁descripciones	-7398
▁colombiana	-7399
ciu	-7400
fl	-7401
cracia	-7402
▁sexual	-7403
▁exclusivamente	-7404
radora	-7405
▁hil	-7406
uts	-7407
▁agrícola	-7408
▁voleibol	-7409
nacida	-7410
▁night	-7411
▁bó	-7412
▁renomb	-7413
▁triunfo	-7414
▁epi	-7415
▁combina	-7416
▁danza	-7417
doro	-7418
amento	-7419
▁elegida	-7420
▁departamentos	-7421
gg	-7422
▁dientes	-7423
▁habitan	-7424
▁escolar	-7425
▁inflorescencias	-7426
iy	-7427
▁latitud	-7428
▁productora	-7429
▁particularmente	-7430
jano	-7431
tten	-7432
pir	-7433
▁eli	-7434
▁aconte	-7435
cons	-7436
itales	-7437
▁coinci	-7438
line	-7439
caron	-7440
▁traslada	-7441
▁alicante	-7442
▁públicos	-7443
▁tib	-7444
▁dial	-7445
ficaciones	-7446
ógica	-7447
▁representó	-7448
▁encontró	-7449
▁encabe	-7450
▁nevada	-7451
▁identif	-7452
▁0.000,00	-7453
▁menciona	-7454
▁×	-7455
govia	-7456
▁punk	-7457
▁ápice	-7458
▁electrónica	-7459
gla	-7460
▁apl	-7461
▁catalana	-7462
▁asesinado	-7463
demos	-7464
▁reper	-7465
▁talla	-7466
▁perenne	-7467
▁arquitec	-7468
-00.	-7469
▁autopista	-7470
tc	-7471
rama	-7472
▁modern	-7473
▁míchigan	-7474
▁antigü	-7475
▁compañías	-7476
▁redes	-7477
▁nicaragua	-7478
▁religión	-7479
▁ped	-7480
▁estri	-7481
▁prácticamente	-7482
▁divor	-7483
▁challen	-7484
far	-7485
▁dimensiones	-7486
▁inmig	-7487
▁servir	-7488
▁blas	-7489
▁aparecido	-7490
▁iso	-7491
▁encu	-7492
▁libres	-7493
▁0000-00,	-7494
▁brá	-7495
▁deman	-7496
idores	-7497
fc	-7498
dela	-7499
▁vila	-7500
▁cortos	-7501
dencias	-7502
▁flamen	-7503
▁utilizó	-7504
▁factor	-7505
erg	-7506
ridos	-7507
▁gigante	-7508
▁estadounidenses	-7509
▁obtenido	-7510
▁shi	-7511
▁equivalente	-7512
▁0000-000	-7513
▁correg	-7514
▁sabor	-7515
▁terra	-7516
▁eléctrica	-7517
▁representar	-7518
▁0–0,	-7519
pula	-7520
▁prés	-7521
zel	-7522
▁ultra	-7523
▁asumió	-7524
▁escrib	-7525
urnal	-7526
▁mordell	-7527
▁interpretando	-7528
ceta	-7529
▁sudo	-7530
tainment	-7531
▁mit	-7532
iáceas	-7533
▁carro	-7534
▁habría	-7535
▁paredes	-7536
índr	-7537
tein	-7538
▁enz	-7539
▁guerrero	-7540
ça	-7541
▁dona	-7542
gae	-7543
mpia	-7544
▁sec	-7545
▁biel	-7546
▁nick	-7547
▁compañeros	-7548
poles	-7549
▁humanidad	-7550
▁científicos	-7551
▁ug	-7552
▁mecan	-7553
▁define	-7554
▁extrema	-7555
▁documentos	-7556
gola	-7557
pura	-7558
pens	-7559
tense	-7560
cs	-7561
▁corrientes	-7562
▁espíri	-7563
▁trinidad	-7564
▁adecu	-7565
now	-7566
vic	-7567
tania	-7568
▁verdes	-7569
▁johnson	-7570
▁ruiz	-7571
▁teresa	-7572
▁barran	-7573
low	-7574
▁).	-7575
▁páginas	-7576
▁giovan	-7577
dt	-7578
cea	-7579
▁contar	-7580
máticos	-7581
▁comenzaron	-7582
▁religiosa	-7583
▁consideran	-7584
▁astronómico	-7585
▁law	-7586
▁habana	-7587
▁marcas	-7588
▁descubrió	-7589
▁restauración	-7590
▁médica	-7591
▁paisaje	-7592
▁funcionamiento	-7593
▁Área	-7594
palos	-7595
▁allen	-7596
▁retiro	-7597
▁videojuegos	-7598
tures	-7599
▁silva	-7600
▁procesos	-7601
communauté	-7602
▁residentes	-7603
dorf	-7604
▁exca	-7605
▁selva	-7606
▁realizan	-7607
▁móvil	-7608
▁huel	-7609
▁mallorca	-7610
▁recopilatorio	-7611
▁valenciana	-7612
▁ilustraciones	-7613
▁adquirió	-7614
▁clausura	-7615
feo	-7616
produ	-7617
▁culto	-7618
▁global	-7619
dés	-7620
▁rival	-7621
pter	-7622
minis	-7623
▁literario	-7624
inter	-7625
▁consejero	-7626
▁roll	-7627
▁llevaron	-7628
▁molusco	-7629
▁inauguró	-7630
▁estudiante	-7631
cipado	-7632
wis	-7633
▁présta	-7634
inal	-7635
▁jas	-7636
▁casta	-7637
▁hockey	-7638
mentación	-7639
iona	-7640
ñado	-7641
▁bow	-7642
▁rápido	-7643
▁radical	-7644
zen	-7645
▁gros	-7646
▁sonda	-7647
▁plás	-7648
▁cuartos	-7649
▁anualmente	-7650
▁brus	-7651
▁mana	-7652
▁0000/0000	-7653
▁state	-7654
▁friedrich	-7655
tente	-7656
iliario	-7657
▁propuesta	-7658
áz	-7659
▁ark	-7660
▁dj	-7661
▁giro	-7662
sar	-7663
▁nega	-7664
▁nativo	-7665
/0	-7666
▁oscar	-7667
▁brasileña	-7668
▁específicamente	-7669
▁faro	-7670
▁séptimo	-7671
▁periodismo	-7672
▁esté	-7673
▁cuida	-7674
▁puesta	-7675
ianos	-7676
▁bases	-7677
▁kal	-7678
▁esteban	-7679
▁otoño	-7680
▁aceite	-7681
▁cima	-7682
▁largos	-7683
cena	-7684
puestos	-7685
pun	-7686
▁yucatán	-7687
▁exter	-7688
▁azúcar	-7689
▁archivo	-7690
ear	-7691
▁0,0000	-7692
▁protagonistas	-7693
ceph	-7694
till	-7695
▁casada	-7696
▁declar	-7697
▁-00	-7698
▁sr	-7699
▁casco	-7700
back	-7701
▁llegado	-7702
▁pit	-7703
▁nordeste	-7704
ife	-7705
▁arca	-7706
▁enviado	-7707
▁gráfico	-7708
▁incluir	-7709
vido	-7710
▁johann	-7711
▁galería	-7712
▁aparecer	-7713
▁continúa	-7714
trales	-7715
fita	-7716
▁grabar	-7717
▁fotó	-7718
▁wolf	-7719
▁norma	-7720
▁escritura	-7721
▁alcanzando	-7722
▁sis	-7723
encio	-7724
▁hecha	-7725
▁ideas	-7726
▁asistencias	-7727
▁|	-7728
▁cielo	-7729
haus	-7730
pole	-7731
▁mete	-7732
▁reunión	-7733
▁peti	-7734
▁sosten	-7735
▁catedrático	-7736
▁rodri	-7737
▁sergio	-7738
▁embalse	-7739
▁islandia	-7740
▁entertainment	-7741
▁florece	-7742
▁estreno	-7743
▁dep	-7744
▁suizo	-7745
▁cueva	-7746
▁sport	-7747
▁ash	-7748
mberg	-7749
▁continente	-7750
▁rose	-7751
▁venecia	-7752
▁parroquial	-7753
00'00"	-7754
▁mañ	-7755
ílica	-7756
▁codi	-7757
geo	-7758
sky	-7759
▁viii	-7760
▁viento	-7761
▁sinónimo	-7762
▁inof	-7763
▁aparte	-7764
▁difusión	-7765
▁aerolínea	-7766
▁renfe	-7767
▁bulgaria	-7768
anes	-7769
▁cambia	-7770
▁(0.0%)	-7771
▁respuesta	-7772
long	-7773
lyn	-7774
▁cuentos	-7775
▁escritas	-7776
jeron	-7777
▁sexta	-7778
▁peruana	-7779
kal	-7780
uch	-7781
tóbal	-7782
▁desierto	-7783
▁00,0.	-7784
▁paseo	-7785
▁arcos	-7786
ingen	-7787
▁espera	-7788
leg	-7789
▁madu	-7790
▁vaca	-7791
▁antiguamente	-7792
▁latinoamérica	-7793
▁filo	-7794
bill	-7795
▁fondos	-7796
▁inno	-7797
▁romanos	-7798
▁brun	-7799
▁enterrado	-7800
eus	-7801
amos	-7802
▁alimenta	-7803
az	-7804
ute	-7805
▁extinto	-7806
pren	-7807
orada	-7808
▁romp	-7809
lal	-7810
vida	-7811
▁reta	-7812
▁visión	-7813
▁ais	-7814
▁bella	-7815
▁implica	-7816
ívar	-7817
▁vla	-7818
▁ponti	-7819
▁maci	-7820
▁luminos	-7821
▁necesidad	-7822
▁bajista	-7823
▁grabada	-7824
▁vivienda	-7825
▁bizan	-7826
▁piedras	-7827
▁grabaciones	-7828
▁amista	-7829
▁discí	-7830
▁joe	-7831
ues	-7832
greb	-7833
▁secciones	-7834
▁separación	-7835
▁búl	-7836
▁alfredo	-7837
▁hollywood	-7838
▁encontrarse	-7839
▁anillo	-7840
ocu	-7841
▁capítulo	-7842
▁cinematográfica	-7843
bón	-7844
▁labo	-7845
▁jr	-7846
▁hierba	-7847
▁indígenas	-7848
amb	-7849
▁gaster	-7850
▁variedades	-7851
▁pom	-7852
racruz	-7853
▁hipó	-7854
▁ocupación	-7855
vé	-7856
▁secu	-7857
▁esposo	-7858
▁compuestos	-7859
▁holo	-7860
vaquia	-7861
▁campus	-7862
▁acceder	-7863
▁archivos	-7864
cete	-7865
▁memb	-7866
▁rí	-7867
▁cáps	-7868
▁moreno	-7869
rilla	-7870
ison	-7871
▁augusto	-7872
▁produc	-7873
edo	-7874
▁sty	-7875
▁propósito	-7876
▁universitaria	-7877
▁peters	-7878
▁cristiana	-7879
▁fifa	-7880
▁lisboa	-7881
▁conservatorio	-7882
fen	-7883
hin	-7884
▁marie	-7885
▁cristal	-7886
▁gun	-7887
▁participan	-7888
▁posiciones	-7889
▁suspen	-7890
▁conseguido	-7891
thar	-7892
▁elíp	-7893
▁cristóbal	-7894
gl	-7895
▁mudó	-7896
▁intér	-7897
▁communes	-7898
zaje	-7899
▁barra	-7900
pher	-7901
▁patrón	-7902
▁cortome	-7903
▁reca	-7904
landesa	-7905
▁jurado	-7906
▁electro	-7907
alto	-7908
▁conecta	-7909
males	-7910
▁primi	-7911
gón	-7912
▁empate	-7913
tulari	-7914
▁intérpre	-7915
cker	-7916
▁emilio	-7917
mino	-7918
braska	-7919
▁organizada	-7920
avy	-7921
dus	-7922
▁varones	-7923
▁dieron	-7924
▁caballo	-7925
provin	-7926
▁habitualmente	-7927
▁mike	-7928
▁steve	-7929
▁nombra	-7930
▁senti	-7931
▁centrales	-7932
▁inofensivo	-7933
▁intento	-7934
▁retirado	-7935
▁lucas	-7936
▁efectu	-7937
▁ganadores	-7938
itarias	-7939
▁cilíndr	-7940
▁team	-7941
▁pared	-7942
▁doug	-7943
▁representan	-7944
▁hernández	-7945
gma	-7946
▁xxi	-7947
▁clín	-7948
wal	-7949
▁hd	-7950
▁sudoeste	-7951
▁entrevista	-7952
▁legen	-7953
▁profunda	-7954
▁asesinato	-7955
▁lanzar	-7956
▁empleado	-7957
▁diplomático	-7958
dillo	-7959
▁típico	-7960
mentales	-7961
▁orquídea	-7962
eland	-7963
tenta	-7964
▁ruinas	-7965
▁(0000–0000	-7966
▁sas	-7967
▁domina	-7968
▁consiguiendo	-7969
fru	-7970
▁lev	-7971
▁llo	-7972
▁miles	-7973
▁racing	-7974
rones	-7975
▁proteína	-7976
▁davis	-7977
▁empleados	-7978
▁principado	-7979
▁life	-7980
▁aerona	-7981
▁ak	-7982
▁sajonia	-7983
▁intención	-7984
▁serp	-7985
▁verdadero	-7986
dá	-7987
▁ori	-7988
▁pino	-7989
▁pone	-7990
▁broad	-7991
▁bilbao	-7992
▁capítulos	-7993
ffs	-7994
▁podemos	-7995
▁mars	-7996
olver	-7997
▁arañas	-7998
liz	-7999
▁(0000,	-8000
tándose	-8001
▁aéreo	-8002
ppe	-8003
ridge	-8004
▁spring	-8005
▁regresa	-8006
cies	-8007
óso	-8008
orro	-8009
▁voces	-8010
tima	-8011
▁ever	-8012
ciudad	-8013
imas	-8014
▁ross	-8015
▁vesti	-8016
▁aventuras	-8017
▁textulari	-8018
zh	-8019
onto	-8020
zano	-8021
▁aspectos	-8022
▁circular	-8023
▁abandonar	-8024
▁tetra	-8025
▁privado	-8026
▁españolas	-8027
▁atrás	-8028
▁hume	-8029
plo	-8030
gena	-8031
▁fair	-8032
▁franqu	-8033
▁geografía	-8034
▁mismas	-8035
coln	-8036
ng	-8037
ptera	-8038
▁editada	-8039
▁colón	-8040
▁demas	-8041
▁cuentan	-8042
▁vendido	-8043
▁ornam	-8044
▁prestigios	-8045
▁eru	-8046
maron	-8047
▁leche	-8048
▁pastor	-8049
▁presentes	-8050
lle	-8051
▁bacter	-8052
▁razones	-8053
ull	-8054
▁fechas	-8055
▁amazonas	-8056
▁descu	-8057
▁barroco	-8058
▁presentar	-8059
▁licenciatura	-8060
▁mone	-8061
▁incur	-8062
▁rotali	-8063
gli	-8064
▁catá	-8065
éticos	-8066
▁allá	-8067
tadora	-8068
▁veracruz	-8069
colas	-8070
quiera	-8071
▁medina	-8072
▁iniciativa	-8073
polis	-8074
▁occidente	-8075
▁usan	-8076
olis	-8077
▁propietario	-8078
cusión	-8079
▁congre	-8080
tical	-8081
▁cristian	-8082
▁absor	-8083
▁zagreb	-8084
nec	-8085
▁cuyas	-8086
▁rotación	-8087
▁chico	-8088
▁henri	-8089
orn	-8090
▁jugaron	-8091
▁publicados	-8092
▁clan	-8093
historia	-8094
▁och	-8095
cales	-8096
ecos	-8097
▁caminos	-8098
vey	-8099
▁kn	-8100
▁!!	-8101
▁practic	-8102
omba	-8103
▁corn	-8104
▁wilson	-8105
▁expansión	-8106
rosa	-8107
quinas	-8108
ال	-8109
cci	-8110
sol	-8111
capa	-8112
▁ker	-8113
▁orígenes	-8114
imb	-8115
▁compuso	-8116
abeth	-8117
▁sueca	-8118
▁pontifici	-8119
▁neerlandés	-8120
veda	-8121
▁hero	-8122
▁promin	-8123
▁esloven	-8124
▁anch	-8125
▁cultiva	-8126
▁declaró	-8127
mue	-8128
tara	-8129
▁abra	-8130
▁ball	-8131
▁naranja	-8132
▁nápoles	-8133
▁bolívar	-8134
▁patas	-8135
▁húngaro	-8136
▁bernardo	-8137
▁religiosos	-8138
▁realización	-8139
,"	-8140
ml	-8141
gne	-8142
áticas	-8143
▁ola	-8144
yente	-8145
▁ater	-8146
▁extranjero	-8147
ceoladas	-8148
rad	-8149
▁euros	-8150
▁rector	-8151
▁depende	-8152
▁sug	-8153
▁pluma	-8154
▁teología	-8155
▁fabricación	-8156
▁inmediatamente	-8157
▁daba	-8158
▁destrucción	-8159
▁distribuyen	-8160
uston	-8161
▁nebraska	-8162
▁subterrán	-8163
ículas	-8164
▁hebre	-8165
▁disciplina	-8166
▁obis	-8167
▁buenas	-8168
▁filóso	-8169
▁viajes	-8170
aux	-8171
▁dada	-8172
▁cómic	-8173
▁mencionado	-8174
▁dolor	-8175
▁ciudadanos	-8176
▁sc	-8177
entas	-8178
▁famosos	-8179
▁conservan	-8180
▁utilizados	-8181
▁apa	-8182
▁arturo	-8183
▁eng	-8184
paro	-8185
▁ingre	-8186
▁aparente	-8187
▁juez	-8188
▁económicas	-8189
▁asentamiento	-8190
▁buque	-8191
▁silves	-8192
▁convers	-8193
▁usuario	-8194
▁discurre	-8195
ará	-8196
kas	-8197
▁suici	-8198
▁ciertas	-8199
▁ng	-8200
▁adicional	-8201
inosa	-8202
▁astro	-8203
▁enten	-8204
▁cyprinidae	-8205
▁mator	-8206
ticio	-8207
▁000)	-8208
udónimo	-8209
▁fósiles	-8210
▁erig	-8211
▁zamora	-8212
▁horizon	-8213
▁desembocadura	-8214
▁secuencia	-8215
erie	-8216
▁meso	-8217
▁(000000)	-8218
phora	-8219
▁ilum	-8220
▁atlanta	-8221
▁estilos	-8222
cty	-8223
▁group	-8224
▁pardo	-8225
▁0"	-8226
▁boys	-8227
tificación	-8228
mante	-8229
wán	-8230
▁id	-8231
usto	-8232
▁poner	-8233
pé	-8234
paraíso	-8235
▁turco	-8236
ceo	-8237
dró	-8238
▁cál	-8239
▁zapa	-8240
▁cinta	-8241
▁destinado	-8242
▁plantilla	-8243
▁investigador	-8244
ázquez	-8245
▁coche	-8246
▁game	-8247
▁reparto	-8248
▁carreteras	-8249
▁kon	-8250
zania	-8251
▁kenia	-8252
▁explica	-8253
▁enfermedades	-8254
▁queens	-8255
gene	-8256
▁bes	-8257
▁nico	-8258
▁surgió	-8259
▁nuclear	-8260
▁giovanni	-8261
▁impar	-8262
▁individuos	-8263
valu	-8264
▁colonial	-8265
▁añadi	-8266
vora	-8267
▁tun	-8268
▁estatua	-8269
▁gustavo	-8270
▁documento	-8271
dul	-8272
kon	-8273
▁sla	-8274
▁brácte	-8275
▁llamadas	-8276
▁cros	-8277
▁diecis	-8278
▁profesión	-8279
▁desapareci	-8280
▁hes	-8281
▁(0.000	-8282
▁negras	-8283
▁mole	-8284
▁rema	-8285
▁remi	-8286
▁brácteas	-8287
ffe	-8288
▁moda	-8289
ctus	-8290
▁pref	-8291
▁contratado	-8292
▁gasterópodo	-8293
▁telé	-8294
cución	-8295
▁perder	-8296
▁mariano	-8297
▁sobe	-8298
▁blues	-8299
▁publicar	-8300
fel	-8301
▁docente	-8302
dicas	-8303
▁consum	-8304
▁wh	-8305
dula	-8306
▁pekín	-8307
cky	-8308
▁gole	-8309
▁mamíferos	-8310
▁antigüedad	-8311
▁tiendas	-8312
▁contienen	-8313
▁elo	-8314
▁alumnos	-8315
barcelona	-8316
▁conexión	-8317
▁indio	-8318
▁deportivos	-8319
▁kim	-8320
viendo	-8321
▁anna	-8322
▁time	-8323
▁debió	-8324
▁amistad	-8325
scar	-8326
china	-8327
▁ribera	-8328
▁retirada	-8329
▁arquidiócesis	-8330
▁arane	-8331
▁econom	-8332
▁convención	-8333
▁fores	-8334
▁contexto	-8335
ciende	-8336
▁trece	-8337
▁germán	-8338
▁formaba	-8339
▁ranking	-8340
▁estatus	-8341
▁municipalidad	-8342
bación	-8343
ée	-8344
▁plas	-8345
▁pareci	-8346
▁proxim	-8347
dano	-8348
▁larg	-8349
▁mongol	-8350
dalena	-8351
▁puntu	-8352
▁quince	-8353
▁diferencias	-8354
▁bia	-8355
▁teo	-8356
eamente	-8357
▁biología	-8358
▁soc	-8359
▁infec	-8360
▁dictadura	-8361
▁aga	-8362
dison	-8363
▁presa	-8364
▁vivían	-8365
▁peda	-8366
▁ciertos	-8367
lava	-8368
▁imple	-8369
▁kilómetro	-8370
túan	-8371
▁clo	-8372
tácico	-8373
▁legal	-8374
rí	-8375
quera	-8376
▁mundiales	-8377
▁espectáculo	-8378
thal	-8379
▁nub	-8380
▁nigeria	-8381
entre	-8382
miso	-8383
▁alp	-8384
ógico	-8385
▁negocio	-8386
▁dependiendo	-8387
elia	-8388
▁basílica	-8389
▁definición	-8390
formas	-8391
▁descubrimiento	-8392
uma	-8393
star	-8394
▁krai	-8395
▁recuerda	-8396
▁simples	-8397
zal	-8398
tula	-8399
▁seme	-8400
▁your	-8401
▁fusulin	-8402
ato	-8403
organ	-8404
▁cáted	-8405
▁from	-8406
▁hidal	-8407
▁dramatur	-8408
vard	-8409
▁lite	-8410
▁afirma	-8411
▁próxim	-8412
más	-8413
▁negros	-8414
▁resulta	-8415
▁poca	-8416
▁enorme	-8417
▁esperanza	-8418
▁reside	-8419
jera	-8420
▁guti	-8421
▁jama	-8422
▁demó	-8423
▁ibérica	-8424
▁portador	-8425
▁beat	-8426
▁cuerpos	-8427
▁viviendo	-8428
bano	-8429
▁bara	-8430
▁cumplir	-8431
▁necesita	-8432
▁irregular	-8433
▁vehículo	-8434
▁hop	-8435
érrez	-8436
▁paraná	-8437
ery	-8438
mona	-8439
▁esas	-8440
▁laboratorio	-8441
▁placa	-8442
▁estuvieron	-8443
▁space	-8444
▁animación	-8445
omorfas	-8446
▁emitido	-8447
quel	-8448
ap	-8449
elly	-8450
▁estelar	-8451
▁regresar	-8452
▁independientes	-8453
pira	-8454
▁sene	-8455
▁atleta	-8456
cionados	-8457
▁envi	-8458
▁variante	-8459
▁alimentos	-8460
▁alab	-8461
▁hipo	-8462
▁roda	-8463
▁filme	-8464
▁lesión	-8465
▁abas	-8466
cala	-8467
▁compra	-8468
▁jiménez	-8469
▁margarita	-8470
piro	-8471
ineos	-8472
▁ann	-8473
▁vál	-8474
▁buscar	-8475
▁pea	-8476
▁cambi	-8477
▁macro	-8478
▁tenerife	-8479
▁nel	-8480
▁arroz	-8481
▁dirigir	-8482
▁familiares	-8483
▁alternativa	-8484
rang	-8485
tton	-8486
▁comida	-8487
▁miranda	-8488
▁relacionadas	-8489
▁realizadas	-8490
▁vera	-8491
▁luminosidad	-8492
pie	-8493
▁das	-8494
▁impos	-8495
▁delta	-8496
▁conces	-8497
▁unirse	-8498
▁corteza	-8499
▁observar	-8500
▁robin	-8501
▁saber	-8502
▁actuar	-8503
▁automo	-8504
pía	-8505
▁púr	-8506
ittle	-8507
icando	-8508
terdam	-8509
kel	-8510
▁brian	-8511
▁vientre	-8512
▁sectores	-8513
▁motoci	-8514
▁interse	-8515
▁portero	-8516
▁posesión	-8517
▁subcampeón	-8518
▁hein	-8519
▁riv	-8520
▁alemanes	-8521
▁mina	-8522
oración	-8523
▁especialidad	-8524
▁exitosa	-8525
▁ny	-8526
▁comenzar	-8527
▁gutiérrez	-8528
lao	-8529
fónica	-8530
▁motores	-8531
▁plane	-8532
▁cosa	-8533
▁predomin	-8534
▁ejerci	-8535
▁amistoso	-8536
▁orientales	-8537
▁mantenimiento	-8538
edi	-8539
tler	-8540
▁campes	-8541
▁opción	-8542
▁seminario	-8543
▁association	-8544
▁esquí	-8545
▁paragua	-8546
▁java	-8547
▁pele	-8548
▁enlace	-8549
▁camerún	-8550
▁dibujos	-8551
▁lincoln	-8552
▁competir	-8553
▁lyn	-8554
▁pecho	-8555
▁instalación	-8556
▁Ú	-8557
00).	-8558
▁prede	-8559
▁pregun	-8560
▁funciona	-8561
на	-8562
▁road	-8563
▁cónsul	-8564
▁espectral	-8565
▁orquídeas	-8566
▁mue	-8567
▁archi	-8568
▁derivado	-8569
mur	-8570
▁atrac	-8571
▁cantabria	-8572
000.	-8573
wick	-8574
▁tony	-8575
▁morir	-8576
▁armenia	-8577
▁guardia	-8578
▁fanerógamas	-8579
gaba	-8580
▁taylor	-8581
▁hábitats	-8582
sy	-8583
▁seco	-8584
▁dibujo	-8585
▁tá	-8586
erba	-8587
▁salvo	-8588
▁mejorar	-8589
▁exfutbolista	-8590
▁hans	-8591
▁obtu	-8592
▁septentrional	-8593
▁mercedes	-8594
wen	-8595
▁pales	-8596
▁realizando	-8597
▁galardonado	-8598
▁ani	-8599
▁niña	-8600
▁basket	-8601
▁bielor	-8602
▁logrado	-8603
▁cuello	-8604
▁angeles	-8605
▁tranquil	-8606
▁santuario	-8607
ary	-8608
inger	-8609
▁anex	-8610
▁band	-8611
▁osci	-8612
▁gras	-8613
▁taiwán	-8614
▁(00.00%)	-8615
rald	-8616
▁arkansas	-8617
▁identidad	-8618
ay	-8619
▁macho	-8620
▁intelec	-8621
▁tanzania	-8622
amba	-8623
▁almi	-8624
▁venezolana	-8625
▁ocupado	-8626
▁promedi	-8627
▁wilhel	-8628
▁configu	-8629
▁natación	-8630
▁presu	-8631
alizada	-8632
▁coordina	-8633
▁kara	-8634
▁bauti	-8635
▁crimea	-8636
ceres	-8637
▁prision	-8638
▁procedente	-8639
right	-8640
uti	-8641
ardía	-8642
▁manga	-8643
clado	-8644
▁notables	-8645
▁consor	-8646
▁suelos	-8647
▁baviera	-8648
set	-8649
culares	-8650
▁mercan	-8651
▁ú	-8652
▁venció	-8653
colmo	-8654
▁reme	-8655
licas	-8656
▁danés	-8657
▁mérida	-8658
▁óblast	-8659
▁incluían	-8660
▁championship	-8661
uf	-8662
▁sobrino	-8663
▁conference	-8664
▁kur	-8665
▁vér	-8666
alizó	-8667
itando	-8668
▁gargan	-8669
▁descripción	-8670
▁0°	-8671
ícula	-8672
▁estancia	-8673
uelto	-8674
▁estrech	-8675
▁considerable	-8676
flor	-8677
▁abuelo	-8678
▁dy	-8679
▁moneda	-8680
▁anderson	-8681
ibo	-8682
▁conflu	-8683
▁quedan	-8684
▁permitir	-8685
▁florencia	-8686
▁traspasado	-8687
rump	-8688
▁roger	-8689
▁espíritu	-8690
▁baterista	-8691
▁part	-8692
▁dorsal	-8693
▁aumento	-8694
▁eric	-8695
▁fauna	-8696
▁cua	-8697
çois	-8698
▁destacada	-8699
▁extrasolar	-8700
▁liberación	-8701
▁reemplazado	-8702
▁localización	-8703
▁dialec	-8704
▁ae	-8705
▁fom	-8706
▁deba	-8707
▁alcanzan	-8708
▁stone	-8709
onales	-8710
enia	-8711
▁perro	-8712
▁nig	-8713
▁coruña	-8714
▁cantau	-8715
▁celebración	-8716
▁definitivamente	-8717
▁cura	-8718
▁mañana	-8719
▁parecido	-8720
▁terremoto	-8721
▁ky	-8722
▁décimo	-8723
▁geográfico	-8724
▁préstamo	-8725
ñar	-8726
▁castell	-8727
▁catalina	-8728
mad	-8729
▁herbáceas	-8730
▁composiciones	-8731
centa	-8732
▁piso	-8733
▁little	-8734
▁amarill	-8735
▁secretaría	-8736
fís	-8737
▁abadía	-8738
▁secundarios	-8739
fono	-8740
▁polo	-8741
▁explotación	-8742
▁pasos	-8743
▁descan	-8744
tanas	-8745
▁00.000$	-8746
▁bris	-8747
▁mega	-8748
koye	-8749
▁cie	-8750
▁fur	-8751
▁guerras	-8752
▁hacerse	-8753
▁argentinos	-8754
uelta	-8755
▁líqu	-8756
▁graves	-8757
▁simul	-8758
▁registros	-8759
▁geográfica	-8760
key	-8761
▁mantis	-8762
umi	-8763
wiki	-8764
▁huer	-8765
▁espiri	-8766
▁influencias	-8767
peración	-8768
▁000-000	-8769
▁retirarse	-8770
▁combinación	-8771
▁etnia	-8772
▁monter	-8773
▁cubierto	-8774
▁comportamiento	-8775
▁0000-00.	-8776
conoci	-8777
▁hembra	-8778
▁precio	-8779
▁determinar	-8780
íz	-8781
▁deca	-8782
▁reele	-8783
▁videoc	-8784
▁andré	-8785
▁perdido	-8786
erta	-8787
▁explos	-8788
▁america	-8789
▁preparación	-8790
▁Ín	-8791
caa	-8792
▁cultiv	-8793
▁libertadores	-8794
▁supl	-8795
▁guber	-8796
▁fallecimiento	-8797
▁anfi	-8798
▁folk	-8799
vino	-8800
onesa	-8801
▁penal	-8802
▁ernesto	-8803
▁profundas	-8804
▁delegación	-8805
▁naturalista	-8806
▁establecida	-8807
citos	-8808
▁comunicaciones	-8809
zer	-8810
▁permiten	-8811
vski	-8812
▁gratu	-8813
▁unesco	-8814
pero	-8815
▁montre	-8816
▁tomando	-8817
▁establece	-8818
▁alu	-8819
▁distribuido	-8820
▁luxe	-8821
▁desen	-8822
▁consumo	-8823
buenos	-8824
▁supone	-8825
▁dispers	-8826
▁sky	-8827
▁cañón	-8828
ídem	-8829
▁acompañado	-8830
▁yugoslavia	-8831
▁rehab	-8832
▁involuc	-8833
▁ear	-8834
grupo	-8835
tismo	-8836
▁creador	-8837
▁elevado	-8838
lá	-8839
desde	-8840
▁cursó	-8841
▁christo	-8842
▁evangel	-8843
tube	-8844
▁fanerógama	-8845
▁alternativo	-8846
▁cera	-8847
contin	-8848
provincia	-8849
▁soviético	-8850
▁compuestas	-8851
▁actúa	-8852
▁concentración	-8853
cd	-8854
kra	-8855
urs	-8856
▁raúl	-8857
▁juveniles	-8858
▁exacta	-8859
inus	-8860
tris	-8861
▁arts	-8862
▁indo	-8863
chidae	-8864
▁interme	-8865
▁emis	-8866
▁frase	-8867
▁alfabe	-8868
▁dal	-8869
▁debía	-8870
▁oak	-8871
ès	-8872
▁well	-8873
▁democrático	-8874
▁rodrigo	-8875
▁kub	-8876
bados	-8877
▁cumbre	-8878
▁emisión	-8879
▁limitada	-8880
▁magdalena	-8881
enz	-8882
▁periódicos	-8883
▁félix	-8884
rosoft	-8885
pso	-8886
maras	-8887
▁incluidos	-8888
▁participando	-8889
ranos	-8890
▁empla	-8891
▁ocurre	-8892
▁objetivos	-8893
▁otom	-8894
▁plate	-8895
▁genera	-8896
▁normandía	-8897
▁podr	-8898
eres	-8899
iers	-8900
írez	-8901
▁alpes	-8902
',	-8903
yd	-8904
laje	-8905
▁arbor	-8906
▁yan	-8907
cuenta	-8908
▁herrera	-8909
fun	-8910
▁planetas	-8911
▁federales	-8912
▁trazado	-8913
▁clásicos	-8914
▁sou	-8915
diera	-8916
▁carol	-8917
▁vendió	-8918
▁jacques	-8919
▁pintores	-8920
caf	-8921
ori	-8922
tona	-8923
▁pueda	-8924
rabes	-8925
▁sustituido	-8926
▁muse	-8927
bourne	-8928
▁democracia	-8929
▁pira	-8930
▁thea	-8931
▁pakistán	-8932
▁presidencial	-8933
▁metropolitano	-8934
▁́	-8935
▁ojo	-8936
▁sépalos	-8937
▁encargada	-8938
af	-8939
leto	-8940
ínas	-8941
▁viernes	-8942
nadas	-8943
▁gama	-8944
▁ofer	-8945
▁concretamente	-8946
▁seno	-8947
▁protegida	-8948
▁«"	-8949
▁kam	-8950
▁tubo	-8951
▁nervi	-8952
▁pisos	-8953
▁angola	-8954
▁presta	-8955
▁emitida	-8956
▁out	-8957
▁secreto	-8958
pho	-8959
▁emo	-8960
plona	-8961
dellín	-8962
sovia	-8963
▁py	-8964
ertura	-8965
▁buques	-8966
▁fácilmente	-8967
▁anivers	-8968
▁elevada	-8969
tah	-8970
▁hur	-8971
▁roji	-8972
▁riesgo	-8973
▁toronto	-8974
▁bry	-8975
tesis	-8976
▁adya	-8977
▁contras	-8978
▁circunscri	-8979
▁especializada	-8980
▁antio	-8981
▁púrpura	-8982
▁apariencia	-8983
▁ford	-8984
▁quedar	-8985
▁samuel	-8986
▁claudio	-8987
▁nepal	-8988
▁parcialmente	-8989
▁pho	-8990
▁pares	-8991
ívot	-8992
▁down	-8993
▁ganadería	-8994
▁planetario	-8995
▁lp	-8996
inam	-8997
tosa	-8998
▁arreci	-8999
losa	-9000
,00%)	-9001
▁solución	-9002
gentes	-9003
▁expon	-9004
▁franklin	-9005
▁lewis	-9006
▁prado	-9007
▁accede	-9008
▁ducado	-9009
▁arthur	-9010
cían	-9011
▁representando	-9012
ory	-9013
▁ido	-9014
▁apariciones	-9015
anth	-9016
▁notas	-9017
▁porto	-9018
▁sobres	-9019
ordin	-9020
▁vistas	-9021
▁integrante	-9022
▁republicano	-9023
▁squ	-9024
▁rivera	-9025
▁columnas	-9026
▁ocupando	-9027
▁sepul	-9028
▁críticos	-9029
erte	-9030
kers	-9031
▁ramírez	-9032
▁demasiado	-9033
▁sony	-9034
▁vela	-9035
▁hills	-9036
▁planes	-9037
▁estrecha	-9038
▁invasión	-9039
▁kas	-9040
▁cobre	-9041
▁empleo	-9042
▁glen	-9043
▁microsoft	-9044
▁belg	-9045
zuela	-9046
▁valles	-9047
quita	-9048
▁jordan	-9049
▁albacete	-9050
▁nec	-9051
▁queso	-9052
▁cuadrado	-9053
▁tranquilas	-9054
voz	-9055
▁precip	-9056
▁galaxia	-9057
▁diseñada	-9058
▁bm	-9059
▁indu	-9060
▁masas	-9061
▁recrea	-9062
▁asunción	-9063
▁incorpora	-9064
▁oportunidades	-9065
gata	-9066
▁valparaíso	-9067
▁elaboración	-9068
▁establecimiento	-9069
pido	-9070
▁entera	-9071
▁cátedra	-9072
▁logro	-9073
▁morales	-9074
estado	-9075
▁laura	-9076
▁combus	-9077
▁meteor	-9078
▁disputaron	-9079
▁nór	-9080
▁realizados	-9081
tex	-9082
▁bár	-9083
tinas	-9084
▁cero	-9085
▁diferenci	-9086
▁parlamenta	-9087
▁plataformas	-9088
iensis	-9089
▁separado	-9090
▁octavo	-9091
ert	-9092
▁salsa	-9093
▁delgado	-9094
▁intenta	-9095
▁solares	-9096
▁conservador	-9097
hue	-9098
ándole	-9099
▁triang	-9100
tua	-9101
▁gonz	-9102
▁holandés	-9103
▁aniversario	-9104
▁contemporáneo	-9105
▁noruego	-9106
▁volante	-9107
▁porte	-9108
oce	-9109
▁alan	-9110
▁bordes	-9111
▁colina	-9112
▁transmisión	-9113
spe	-9114
▁turístico	-9115
▁ritmo	-9116
▁000,000	-9117
▁escribe	-9118
▁oxford	-9119
escri	-9120
▁continuar	-9121
▁ino	-9122
▁fide	-9123
▁villar	-9124
▁houston	-9125
▁monedas	-9126
ficó	-9127
chino	-9128
inclu	-9129
iernos	-9130
▁disfru	-9131
vez	-9132
graph	-9133
▁romero	-9134
▁próxima	-9135
▁mah	-9136
▁rumania	-9137
▁pianista	-9138
▁usualmente	-9139
▁extranjeros	-9140
cole	-9141
▁berna	-9142
▁previas	-9143
▁permanece	-9144
▁ferrocarriles	-9145
▁cinematográfico	-9146
nó	-9147
»)	-9148
▁tumba	-9149
▁quinteto	-9150
sie	-9151
pulo	-9152
rente	-9153
▁espada	-9154
▁country	-9155
▁entidades	-9156
flora	-9157
▁soporte	-9158
▁túnel	-9159
▁playas	-9160
▁cabezas	-9161
dl	-9162
▁métodos	-9163
blan	-9164
▁garan	-9165
▁tienda	-9166
▁catálogo	-9167
log	-9168
▁rurales	-9169
iang	-9170
▁jon	-9171
new	-9172
ónicos	-9173
ñoz	-9174
▁ligu	-9175
▁temprana	-9176
box	-9177
▁empren	-9178
▁componen	-9179
hou	-9180
sson	-9181
▁regimiento	-9182
▁estocolmo	-9183
▁artificial	-9184
velas	-9185
▁alumno	-9186
▁episco	-9187
▁constantino	-9188
lem	-9189
ction	-9190
▁conferencias	-9191
▁pabell	-9192
▁muertos	-9193
▁carlo	-9194
▁bernard	-9195
▁historie	-9196
▁hiper	-9197
▁jerus	-9198
▁héctor	-9199
sini	-9200
▁asignado	-9201
▁isa	-9202
▁talleres	-9203
tene	-9204
torce	-9205
▁cohe	-9206
▁visitantes	-9207
dum	-9208
▁desn	-9209
▁belgrano	-9210
▁ascendencia	-9211
▁sueño	-9212
▁introducción	-9213
ose	-9214
▁destacando	-9215
sex	-9216
esas	-9217
▁prolon	-9218
▁marinos	-9219
▁marsh	-9220
▁rectang	-9221
▁eliz	-9222
ush	-9223
uera	-9224
áneo	-9225
▁duró	-9226
▁testa	-9227
▁vencedor	-9228
tive	-9229
▁paro	-9230
▁sporting	-9231
▁abrevia	-9232
ан	-9233
presión	-9234
▁villan	-9235
▁coa	-9236
▁inci	-9237
▁sofía	-9238
▁ganaron	-9239
▁ocurrió	-9240
▁maestría	-9241
▁monumentos	-9242
0)	-9243
▁ador	-9244
▁momentos	-9245
pse	-9246
worth	-9247
▁power	-9248
▁minuto	-9249
▁africana	-9250
▁contemporánea	-9251
tés	-9252
uras	-9253
▁quebec	-9254
▁acus	-9255
▁rodeado	-9256
▁barcos	-9257
▁elena	-9258
▁químico	-9259
vić	-9260
▁escla	-9261
ecía	-9262
▁glu	-9263
▁lil	-9264
▁vencer	-9265
▁medidas	-9266
▁cristina	-9267
▁cristiano	-9268
▁exig	-9269
▁cortas	-9270
hoy	-9271
íes	-9272
amar	-9273
lupe	-9274
tella	-9275
▁good	-9276
▁hidró	-9277
▁publici	-9278
eng	-9279
tun	-9280
▁free	-9281
▁laur	-9282
▁toro	-9283
▁escon	-9284
tadt	-9285
tulo	-9286
▁inédi	-9287
▁étn	-9288
▁pilar	-9289
▁escuad	-9290
▁continua	-9291
▁(,	-9292
rita	-9293
mundo	-9294
▁conca	-9295
▁catorce	-9296
feld	-9297
▁gall	-9298
▁cápsula	-9299
▁gabinete	-9300
▁otorgó	-9301
cío	-9302
▁guz	-9303
▁jub	-9304
▁posibles	-9305
▁promover	-9306
▁ejecución	-9307
▁matemático	-9308
sil	-9309
▁toca	-9310
chando	-9311
▁barre	-9312
▁muñoz	-9313
▁Óscar	-9314
▁ال	-9315
▁ayudó	-9316
▁socio	-9317
▁entrenamiento	-9318
tty	-9319
tíno	-9320
guila	-9321
▁nich	-9322
▁impues	-9323
▁occidentales	-9324
ors	-9325
sig	-9326
vre	-9327
▁patina	-9328
▁benedic	-9329
ules	-9330
▁revolucionario	-9331
tén	-9332
▁rendimiento	-9333
reros	-9334
▁cuarenta	-9335
ódromo	-9336
▁nobiliario	-9337
▁definir	-9338
▁sucesión	-9339
▁acos	-9340
▁wilhelm	-9341
▁descubre	-9342
▁muro	-9343
▁douglas	-9344
▁gine	-9345
▁vali	-9346
▁hidalgo	-9347
culi	-9348
▁diosa	-9349
▁civiles	-9350
▁acero	-9351
▁emble	-9352
▁varsovia	-9353
pidae	-9354
▁cale	-9355
▁gimnasia	-9356
▁márgenes	-9357
▁0.000.000	-9358
minas	-9359
▁gregorio	-9360
▁00"	-9361
▁siria	-9362
▁(00.0000	-9363
▁teór	-9364
▁cable	-9365
▁inunda	-9366
▁novia	-9367
alén	-9368
▁novel	-9369
▁til	-9370
▁exam	-9371
▁videos	-9372
▁tucu	-9373
▁ordenado	-9374
▁robo	-9375
▁france	-9376
▁vid	-9377
▁luisa	-9378
▁directores	-9379
—,	-9380
▁formaron	-9381
tillas	-9382
▁gallego	-9383
▁cambridge	-9384
▁decoración	-9385
▁bundes	-9386
▁núcleos	-9387
pala	-9388
▁reún	-9389
amientos	-9390
ness	-9391
▁etio	-9392
▁cance	-9393
▁designación	-9394
ped	-9395
▁sena	-9396
▁amarilla	-9397
-0.	-9398
▁bbc	-9399
▁cuevas	-9400
▁birmania	-9401
iev	-9402
tencias	-9403
▁utc	-9404
▁feria	-9405
▁alaska	-9406
sea	-9407
undan	-9408
éndez	-9409
ópolis	-9410
▁radios	-9411
entado	-9412
▁largome	-9413
▁tech	-9414
▁dueño	-9415
▁relatos	-9416
▁proteger	-9417
▁evalu	-9418
icios	-9419
queta	-9420
▁grab	-9421
▁asesor	-9422
▁tronco	-9423
▁ausencia	-9424
▁cv	-9425
▁ró	-9426
tron	-9427
▁eh	-9428
▁poly	-9429
▁lunes	-9430
▁planos	-9431
▁caliente	-9432
▁garganta	-9433
gente	-9434
▁ncaa	-9435
msterdam	-9436
▁recorre	-9437
pest	-9438
▁económicos	-9439
▁organismos	-9440
hos	-9441
▁land	-9442
▁almería	-9443
▁sicilia	-9444
▁aris	-9445
fonía	-9446
▁tocando	-9447
▁nominado	-9448
▁dama	-9449
▁Álvaro	-9450
▁bautista	-9451
▁estrechamente	-9452
tation	-9453
▁stephen	-9454
billboard	-9455
gob	-9456
▁expuls	-9457
▁refugio	-9458
▁lejos	-9459
▁mr	-9460
▁fia	-9461
▁ceci	-9462
▁compara	-9463
lips	-9464
▁inciden	-9465
end	-9466
▁pene	-9467
▁ensayo	-9468
▁diagrama	-9469
▁filósofo	-9470
▁und	-9471
▁bach	-9472
▁tono	-9473
▁requiere	-9474
▁cincuenta	-9475
▁persecución	-9476
ou	-9477
zación	-9478
lador	-9479
▁rele	-9480
▁soria	-9481
nueva	-9482
▁apostó	-9483
has	-9484
▁sri	-9485
univers	-9486
▁desapareció	-9487
igas	-9488
▁frío	-9489
▁trofeo	-9490
▁extraordin	-9491
▁(«	-9492
▁expor	-9493
oman	-9494
sell	-9495
▁pájar	-9496
▁giras	-9497
▁leopol	-9498
yentes	-9499
▁subdivi	-9500
olia	-9501
doso	-9502
▁anuales	-9503
▁orch	-9504
▁sher	-9505
▁cámaras	-9506
▁mencionada	-9507
dley	-9508
categ	-9509
enses	-9510
▁transición	-9511
▁cayó	-9512
▁holanda	-9513
▁alimentan	-9514
sing	-9515
zzo	-9516
▁ecuatoriano	-9517
▁uu	-9518
▁steven	-9519
▁eros	-9520
▁lara	-9521
▁antrop	-9522
▁fenómeno	-9523
▁vigor	-9524
▁sídney	-9525
▁alusión	-9526
▁máquina	-9527
▁ficticio	-9528
drome	-9529
ulina	-9530
▁morris	-9531
▁célebre	-9532
▁congregación	-9533
▁experimental	-9534
range	-9535
▁cruce	-9536
▁navarro	-9537
▁modernos	-9538
lé	-9539
▁duques	-9540
▁típica	-9541
lav	-9542
▁anar	-9543
▁servi	-9544
▁campañ	-9545
▁latíno	-9546
▁manchas	-9547
▁fracción	-9548
gir	-9549
▁orle	-9550
▁arqueológico	-9551
▁acús	-9552
▁apara	-9553
▁mauricio	-9554
pop	-9555
mulo	-9556
▁aviación	-9557
▁gau	-9558
▁describió	-9559
▁chel	-9560
▁cristianos	-9561
▁rehabilita	-9562
▁mordellidae	-9563
nik	-9564
tics	-9565
▁auxil	-9566
▁intersección	-9567
▁tratar	-9568
▁petersburgo	-9569
funda	-9570
garon	-9571
▁completó	-9572
▁(00.000000,	-9573
▁00–	-9574
▁camar	-9575
▁benito	-9576
▁siguen	-9577
▁procedentes	-9578
▁†	-9579
▁rie	-9580
▁crus	-9581
▁tera	-9582
▁remonta	-9583
▁realmente	-9584
▁deportivas	-9585
▁reconocidas	-9586
▁bad	-9587
▁bordo	-9588
▁carbono	-9589
▁desaparición	-9590
tlán	-9591
santa	-9592
▁radia	-9593
minación	-9594
▁challenger	-9595
▁encontraban	-9596
dinae	-9597
plica	-9598
llería	-9599
▁hierbas	-9600
pil	-9601
verde	-9602
▁soto	-9603
▁franz	-9604
▁etiopía	-9605
▁religiosas	-9606
▁descendientes	-9607
rre	-9608
▁doña	-9609
▁limp	-9610
▁grove	-9611
melo	-9612
lberg	-9613
▁hormig	-9614
▁escaños	-9615
▁tareas	-9616
▁llanura	-9617
▁considerados	-9618
oa	-9619
bios	-9620
▁himno	-9621
▁firmado	-9622
▁maestros	-9623
▁corporation	-9624
▁mtv	-9625
▁suave	-9626
quet	-9627
▁kings	-9628
▁maripos	-9629
▁pamplona	-9630
▁$00.000,	-9631
▁sexo	-9632
▁+0,00	-9633
▁ramos	-9634
▁campañas	-9635
ichi	-9636
▁dol	-9637
▁naves	-9638
▁propa	-9639
▁variantes	-9640
minó	-9641
cilla	-9642
éricas	-9643
▁roque	-9644
▁meseta	-9645
▁emite	-9646
▁-00.0000	-9647
▁derrotar	-9648
▁album	-9649
thony	-9650
trato	-9651
▁cadu	-9652
▁cartas	-9653
▁cuadrada	-9654
▁montreal	-9655
▁mio	-9656
buses	-9657
▁abandona	-9658
temp	-9659
vial	-9660
▁judíos	-9661
▁clasificó	-9662
▁lema	-9663
▁morf	-9664
▁pago	-9665
vistas	-9666
▁partida	-9667
zon	-9668
▁ax	-9669
xido	-9670
▁madri	-9671
▁turín	-9672
▁ballet	-9673
kee	-9674
obo	-9675
▁adam	-9676
▁alter	-9677
▁concejal	-9678
▁dance	-9679
▁tarje	-9680
▁festivales	-9681
▁macizo	-9682
▁austría	-9683
▁euphorbia	-9684
▁relacionada	-9685
▁gian	-9686
▁00(0):	-9687
▁goo	-9688
copio	-9689
▁pascu	-9690
▁topón	-9691
tilidad	-9692
▁huesca	-9693
teri	-9694
▁kenne	-9695
▁pleno	-9696
▁dedicarse	-9697
▁circulación	-9698
oles	-9699
▁distribuidos	-9700
▁submar	-9701
cesor	-9702
ntesis	-9703
▁buda	-9704
▁remode	-9705
▁séptima	-9706
▁temática	-9707
▁cooperación	-9708
▁característico	-9709
▁pasan	-9710
▁singa	-9711
▁supremo	-9712
▁irlandés	-9713
▁simbol	-9714
▁bot	-9715
▁autó	-9716
▁unir	-9717
▁pedan	-9718
▁abundante	-9719
bula	-9720
▁cerrado	-9721
▁springs	-9722
▁cantantes	-9723
gonal	-9724
▁home	-9725
▁transferido	-9726
▁kin	-9727
▁cancha	-9728
▁elegir	-9729
▁ascendido	-9730
▁existentes	-9731
éi	-9732
▁cama	-9733
lex	-9734
iche	-9735
▁trama	-9736
▁acredi	-9737
▁cercanas	-9738
▁medellín	-9739
▁jerusalén	-9740
▁bres	-9741
▁london	-9742
▁surinam	-9743
▁guzmán	-9744
▁hábitos	-9745
▁zu	-9746
▁asign	-9747
▁subur	-9748
▁caballos	-9749
▁arquitectos	-9750
cismo	-9751
folia	-9752
▁reser	-9753
▁lombardía	-9754
argen	-9755
▁juana	-9756
▁aventura	-9757
▁mapas	-9758
▁decidieron	-9759
▁death	-9760
sau	-9761
dere	-9762
▁bombar	-9763
▁sindica	-9764
▁ensayos	-9765
▁bruselas	-9766
▁popularmente	-9767
bis	-9768
ñón	-9769
▁amiga	-9770
▁marcado	-9771
erías	-9772
▁pelos	-9773
▁rioja	-9774
▁aterri	-9775
▁cárcel	-9776
▁selvas	-9777
nio	-9778
▁demar	-9779
▁tara	-9780
▁duran	-9781
▁Ávila	-9782
▁amante	-9783
▁marcador	-9784
▁invitados	-9785
▁proporciona	-9786
▁arm	-9787
inoidea	-9788
▁visual	-9789
▁prus	-9790
▁espal	-9791
▁sound	-9792
▁concedió	-9793
▁empresar	-9794
▁vende	-9795
▁relato	-9796
gil	-9797
▁bartol	-9798
▁otorga	-9799
▁fortuna	-9800
▁diputación	-9801
parte	-9802
▁autonó	-9803
▁comparte	-9804
▁uruguaya	-9805
▁andrea	-9806
▁mención	-9807
▁propuesto	-9808
▁carri	-9809
▁cierre	-9810
▁extensa	-9811
▁paralela	-9812
pio	-9813
▁bour	-9814
▁muros	-9815
▁pasión	-9816
▁derrotado	-9817
▁old	-9818
tonia	-9819
▁pena	-9820
ientas	-9821
▁cáliz	-9822
▁cogido	-9823
▁crimin	-9824
▁gloria	-9825
tish	-9826
house	-9827
▁acaba	-9828
▁varía	-9829
▁tendrá	-9830
▁bibliote	-9831
▁enfrentó	-9832
dev	-9833
wski	-9834
centro	-9835
lahoma	-9836
▁vargas	-9837
▁componente	-9838
bin	-9839
▁abe	-9840
categoría	-9841
▁ní	-9842
tema	-9843
▁kaza	-9844
▁pien	-9845
▁productores	-9846
▁sudamericana	-9847
ianas	-9848
▁pana	-9849
▁aj	-9850
▁¿	-9851
fro	-9852
▁acabar	-9853
▁ruedas	-9854
▁opinión	-9855
▁paralelo	-9856
▁	-9857
e	-9858
a	-9859
o	-9860
n	-9861
i	-9862
s	-9863
r	-9864
l	-9865
d	-9866
t	-9867
c	-9868
u	-9869
0	-9870
m	-9871
p	-9872
b	-9873
g	-9874
,	-9875
.	-9876
f	-9877
y	-9878
v	-9879
h	-9880
ó	-9881
"	-9882
q	-9883
í	-9884
j	-9885
z	-9886
á	-9887
é	-9888
k	-9889
(	-9890
)	-9891
ñ	-9892
x	-9893
ú	-9894
-	-9895
w	-9896
:	-9897
%	-9898
2	-9899
;	-9900
/	-9901
'	-9902
$	-9903
«	-9904
»	-9905
Á	-9906
–	-9907
ü	-9908
—	-9909
&	-9910
ö	-9911
=	-9912
”	-9913
“	-9914
!	-9915
>	-9916
<	-9917
°	-9918
а	-9919
]	-9920
É	-9921
[	-9922
_	-9923
è	-9924
о	-9925
ã	-9926
и	-9927
+	-9928
ä	-9929
ç	-9930
е	-9931
н	-9932
р	-9933
ō	-9934
?	-9935
’	-9936
à	-9937
в	-9938
α	-9939
л	-9940
к	-9941
Ó	-9942
*	-9943
ο	-9944
с	-9945
ا	-9946
|	-9947
ς	-9948
#	-9949
ð	-9950
ø	-9951
•	-9952
â	-9953
т	-9954
š	-9955
ν	-9956
ρ	-9957
ć	-9958
ι	-9959
‘	-9960
Í	-9961
ā	-9962
ل	-9963
λ	-9964
ë	-9965
ū	-9966
д	-9967
ô	-9968
́	-9969
ł	-9970
¿	-9971
τ	-9972
č	-9973
ε	-9974
×	-9975
м	-9976
ي	-9977
у	-9978
й	-9979
κ	-9980
å	-9981
ê	-9982
σ	-9983
ر	-9984
μ	-9985
م	-9986
ч	-9987
Ú	-9988
æ	-9989
ă	-9990
†	-9991
η	-9992
ن	-9993
ş	-9994
г	-9995
ò	-9996
