<unk>	0
<s>	0
</s>	0
▁d	-0
▁l	-1
es	-2
en	-3
on	-4
▁de	-5
▁p	-6
▁s	-7
an	-8
▁c	-9
00	-10
▁a	-11
re	-12
in	-13
is	-14
er	-15
ou	-16
ti	-17
ar	-18
▁la	-19
le	-20
un	-21
▁m	-22
▁e	-23
il	-24
qu	-25
▁le	-26
it	-27
▁00	-28
ent	-29
▁f	-30
or	-31
est	-32
▁en	-33
te	-34
ur	-35
▁et	-36
▁un	-37
om	-38
▁à	-39
al	-40
▁est	-41
▁t	-42
▁0000	-43
▁r	-44
▁n	-45
▁b	-46
▁du	-47
tion	-48
ie	-49
▁v	-50
▁au	-51
▁par	-52
▁g	-53
que	-54
▁des	-55
ans	-56
▁il	-57
ant	-58
▁é	-59
ra	-60
our	-61
ic	-62
us	-63
ro	-64
at	-65
▁les	-66
el	-67
ment	-68
▁j	-69
▁(	-70
as	-71
ol	-72
ée	-73
au	-74
me	-75
ce	-76
ch	-77
▁com	-78
▁dans	-79
ne	-80
ont	-81
ve	-82
▁une	-83
▁h	-84
ri	-85
se	-86
▁qu	-87
▁ch	-88
té	-89
▁"	-90
am	-91
ag	-92
▁dé	-93
de	-94
▁re	-95
ais	-96
ation	-97
si	-98
ré	-99
ci	-100
▁se	-101
ran	-102
res	-103
ai	-104
▁ré	-105
▁con	-106
os	-107
▁0000,	-108
ain	-109
et	-110
▁pour	-111
ale	-112
▁in	-113
ul	-114
ille	-115
di	-116
ait	-117
▁pl	-118
lle	-119
pe	-120
ig	-121
ut	-122
▁pro	-123
▁su	-124
ère	-125
▁sur	-126
ac	-127
oi	-128
ers	-129
ion	-130
ab	-131
▁0000.	-132
▁o	-133
mp	-134
ill	-135
iv	-136
ot	-137
ér	-138
▁qui	-139
▁son	-140
ux	-141
tu	-142
mi	-143
ist	-144
ue	-145
ité	-146
▁an	-147
vec	-148
▁0	-149
▁:	-150
ap	-151
ort	-152
▁elle	-153
▁avec	-154
ique	-155
une	-156
ge	-157
▁k	-158
▁fran	-159
op	-160
▁comm	-161
ouv	-162
▁sa	-163
ite	-164
ine	-165
tre	-166
ès	-167
ff	-168
bre	-169
né	-170
les	-171
and	-172
vi	-173
end	-174
teur	-175
ois	-176
▁plus	-177
▁comp	-178
▁que	-179
aire	-180
age	-181
oc	-182
▁mar	-183
▁ap	-184
ub	-185
▁parti	-186
▁nom	-187
▁di	-188
ad	-189
▁pr	-190
tr	-191
▁al	-192
og	-193
ord	-194
ques	-195
ien	-196
▁pe	-197
ter	-198
uis	-199
▁cl	-200
elle	-201
par	-202
▁ce	-203
ous	-204
▁w	-205
▁été	-206
▁sont	-207
ir	-208
▁pre	-209
0000	-210
entre	-211
itu	-212
▁ar	-213
▁ou	-214
ction	-215
▁pré	-216
).	-217
im	-218
um	-219
ors	-220
urs	-221
▁premi	-222
ier	-223
és	-224
▁cet	-225
ay	-226
rou	-227
▁ét	-228
),	-229
ond	-230
▁av	-231
rès	-232
ert	-233
▁deux	-234
▁aux	-235
esp	-236
all	-237
iste	-238
▁situ	-239
ui	-240
ard	-241
ph	-242
che	-243
▁cons	-244
tique	-245
▁franç	-246
▁né	-247
▁tra	-248
od	-249
éd	-250
▁cette	-251
ing	-252
aux	-253
▁mon	-254
▁ac	-255
▁ex	-256
▁je	-257
ise	-258
onn	-259
la	-260
▁for	-261
▁000	-262
em	-263
li	-264
ons	-265
▁pas	-266
▁ses	-267
▁français	-268
ure	-269
▁ne	-270
▁.	-271
▁car	-272
amp	-273
iè	-274
▁am	-275
ins	-276
",	-277
▁st	-278
id	-279
én	-280
tres	-281
▁y	-282
ces	-283
ang	-284
▁comme	-285
ence	-286
ip	-287
▁th	-288
rit	-289
ants	-290
ob	-291
▁ti	-292
oy	-293
▁déc	-294
lé	-295
▁entre	-296
▁pol	-297
oire	-298
av	-299
▁cont	-300
▁ter	-301
min	-302
int	-303
▁esp	-304
▁po	-305
▁rég	-306
▁fil	-307
ice	-308
ét	-309
▁te	-310
du	-311
▁or	-312
sent	-313
▁,	-314
▁i	-315
ov	-316
alement	-317
ées	-318
▁fait	-319
▁gran	-320
".	-321
cip	-322
▁mais	-323
aine	-324
▁»	-325
▁jou	-326
▁fut	-327
▁fin	-328
ich	-329
▁ser	-330
ron	-331
▁ma	-332
▁sous	-333
tes	-334
▁commune	-335
▁«	-336
▁vill	-337
▁lors	-338
ats	-339
ég	-340
▁col	-341
th	-342
▁(0000	-343
co	-344
ass	-345
▁as	-346
cien	-347
ture	-348
▁so	-349
aint	-350
oir	-351
▁après	-352
eur	-353
▁cou	-354
ann	-355
▁champ	-356
▁tro	-357
ours	-358
▁tou	-359
ance	-360
▁ville	-361
alis	-362
ong	-363
mes	-364
ace	-365
▁fam	-366
▁gu	-367
▁ég	-368
ens	-369
▁était	-370
sion	-371
tement	-372
▁sp	-373
ct	-374
des	-375
▁É	-376
▁tr	-377
puis	-378
▁prin	-379
éri	-380
▁puis	-381
▁rep	-382
▁sud	-383
▁inter	-384
ia	-385
ib	-386
▁région	-387
▁dis	-388
▁depuis	-389
tif	-390
éc	-391
▁ph	-392
▁ad	-393
▁champion	-394
▁aus	-395
ts	-396
nées	-397
ric	-398
▁nord	-399
alité	-400
▁rec	-401
▁ju	-402
▁famille	-403
ign	-404
érie	-405
▁située	-406
iques	-407
▁tour	-408
▁saint	-409
ante	-410
▁z	-411
ubl	-412
▁espè	-413
ta	-414
ations	-415
ma	-416
▁pos	-417
▁grou	-418
▁commun	-419
mbre	-420
mb	-421
éric	-422
aison	-423
▁per	-424
▁u	-425
▁mus	-426
lis	-427
if	-428
▁village	-429
▁trois	-430
mé	-431
ivers	-432
ême	-433
ales	-434
▁premier	-435
▁première	-436
▁bas	-437
▁partie	-438
▁éc	-439
▁mat	-440
▁trav	-441
▁mort	-442
▁vo	-443
▁france	-444
man	-445
▁ren	-446
be	-447
ieu	-448
ris	-449
▁ont	-450
qui	-451
▁dont	-452
▁che	-453
▁cré	-454
ex	-455
▁remp	-456
sement	-457
orte	-458
▁nation	-459
▁également	-460
tru	-461
po	-462
ateur	-463
agne	-464
▁où	-465
▁dépar	-466
ten	-467
ière	-468
éra	-469
▁mont	-470
onne	-471
aires	-472
igne	-473
lan	-474
▁app	-475
are	-476
▁club	-477
st	-478
▁ans	-479
▁on	-480
olog	-481
iss	-482
▁sc	-483
▁jus	-484
sid	-485
▁hab	-486
▁at	-487
tive	-488
nes	-489
▁film	-490
▁princip	-491
▁mo	-492
▁groupe	-493
ouver	-494
▁lui	-495
lu	-496
▁aussi	-497
-0000	-498
▁can	-499
▁espèce	-500
ième	-501
lè	-502
▁améric	-503
quipe	-504
▁sec	-505
être	-506
ak	-507
ae	-508
▁prov	-509
▁département	-510
use	-511
tions	-512
▁si	-513
titu	-514
▁min	-515
▁peut	-516
enne	-517
ital	-518
able	-519
▁sé	-520
▁ain	-521
▁situé	-522
▁paris	-523
endant	-524
▁grand	-525
été	-526
▁év	-527
▁ainsi	-528
lection	-529
lo	-530
▁cor	-531
▁not	-532
ments	-533
tiv	-534
▁sy	-535
▁prof	-536
▁me	-537
▁sup	-538
az	-539
ieurs	-540
▁conn	-541
▁pop	-542
▁rom	-543
ate	-544
▁diff	-545
agn	-546
▁rou	-547
▁ob	-548
▁0,	-549
cl	-550
ays	-551
▁nombre	-552
▁der	-553
▁char	-554
▁dev	-555
ouest	-556
ton	-557
▁présent	-558
app	-559
▁habit	-560
cc	-561
▁championn	-562
su	-563
ision	-564
▁réalis	-565
ouve	-566
▁dist	-567
tats	-568
▁sor	-569
rie	-570
▁pri	-571
erv	-572
▁plusieurs	-573
▁même	-574
alle	-575
▁("	-576
ball	-577
▁bar	-578
aille	-579
▁déb	-580
▁fond	-581
mar	-582
▁popul	-583
ow	-584
▁leur	-585
ath	-586
bum	-587
▁ab	-588
▁be	-589
▁jusqu	-590
vient	-591
▁jo	-592
▁man	-593
▁pers	-594
erre	-595
▁suiv	-596
▁fo	-597
▁ang	-598
uv	-599
▁mem	-600
▁cin	-601
▁pays	-602
elon	-603
▁monde	-604
ères	-605
▁co	-606
cul	-607
io	-608
▁cour	-609
▁-	-610
unis	-611
▁années	-612
▁ép	-613
ern	-614
ém	-615
ke	-616
land	-617
nation	-618
▁sorti	-619
▁alors	-620
▁soci	-621
ze	-622
omme	-623
▁imp	-624
ell	-625
▁habitants	-626
▁saison	-627
▁gé	-628
")	-629
▁ins	-630
mée	-631
▁titre	-632
lement	-633
esse	-634
ade	-635
▁produ	-636
rière	-637
▁provin	-638
▁avant	-639
▁rép	-640
▁nouv	-641
▁;	-642
gan	-643
▁don	-644
ures	-645
up	-646
▁À	-647
▁française	-648
ess	-649
tilis	-650
▁mil	-651
▁cap	-652
aut	-653
▁appar	-654
▁quat	-655
▁foot	-656
▁gen	-657
elles	-658
ème	-659
▁br	-660
ind	-661
▁long	-662
ges	-663
iel	-664
raph	-665
▁mun	-666
▁dép	-667
for	-668
▁dern	-669
▁peti	-670
▁form	-671
ues	-672
ach	-673
▁ancien	-674
erg	-675
ienne	-676
▁contre	-677
amment	-678
▁ann	-679
▁compos	-680
adi	-681
élé	-682
▁selon	-683
▁dire	-684
▁jean	-685
iversité	-686
▁alle	-687
lise	-688
▁vers	-689
▁fer	-690
tiques	-691
▁jour	-692
ki	-693
▁américain	-694
ec	-695
▁trou	-696
fin	-697
dition	-698
▁internation	-699
év	-700
one	-701
▁sep	-702
ages	-703
▁poli	-704
ents	-705
ug	-706
olu	-707
▁fois	-708
▁ces	-709
tra	-710
▁série	-711
aient	-712
com	-713
▁sou	-714
▁constru	-715
roï	-716
its	-717
art	-718
▁États	-719
▁personn	-720
▁conc	-721
▁temp	-722
▁province	-723
▁notamment	-724
he	-725
▁guerre	-726
▁publ	-727
▁div	-728
▁vi	-729
▁mal	-730
▁centre	-731
▁étu	-732
▁clas	-733
équipe	-734
jet	-735
▁no	-736
▁match	-737
▁joue	-738
▁fr	-739
▁utilis	-740
tat	-741
dé	-742
mand	-743
ire	-744
▁être	-745
▁dur	-746
icip	-747
ente	-748
▁trans	-749
▁ass	-750
rib	-751
ka	-752
ense	-753
éral	-754
ies	-755
aî	-756
cteur	-757
aill	-758
résent	-759
cont	-760
viron	-761
▁conf	-762
téroï	-763
▁ent	-764
▁loc	-765
jo	-766
ène	-767
▁ol	-768
▁ital	-769
▁représent	-770
▁ver	-771
▁hist	-772
▁rest	-773
▁municip	-774
ourg	-775
▁population	-776
▁devient	-777
▁prop	-778
emp	-779
met	-780
ive	-781
université	-782
cher	-783
riv	-784
ah	-785
▁port	-786
aise	-787
▁ils	-788
enn	-789
▁cas	-790
▁rés	-791
sig	-792
▁gra	-793
antes	-794
▁sh	-795
▁exp	-796
▁très	-797
nement	-798
▁jan	-799
▁bel	-800
ari	-801
▁championnat	-802
▁point	-803
▁off	-804
▁dom	-805
▁x	-806
▁dou	-807
ule	-808
▁cel	-809
rés	-810
vel	-811
tic	-812
onde	-813
ains	-814
▁gén	-815
▁bat	-816
tier	-817
tel	-818
▁aut	-819
▁lieu	-820
▁thé	-821
▁nouvelle	-822
tient	-823
ud	-824
ines	-825
minist	-826
▁pendant	-827
ètres	-828
ry	-829
▁télé	-830
▁vie	-831
▁cours	-832
ble	-833
éci	-834
ros	-835
ogne	-836
anc	-837
▁rencont	-838
▁cy	-839
▁bou	-840
▁politique	-841
▁cal	-842
▁fils	-843
uc	-844
ograph	-845
anton	-846
▁fem	-847
ori	-848
tin	-849
▁suite	-850
▁carrière	-851
▁grande	-852
▁quatre	-853
▁mé	-854
▁album	-855
ner	-856
▁eur	-857
▁spéci	-858
▁conse	-859
▁part	-860
▁début	-861
▁cô	-862
▁cent	-863
ministra	-864
af	-865
vier	-866
▁pat	-867
ok	-868
uit	-869
ymp	-870
▁avoir	-871
odie	-872
oit	-873
▁the	-874
▁)	-875
▁méd	-876
▁dess	-877
▁présid	-878
fic	-879
▁autres	-880
▁serv	-881
oph	-882
ile	-883
ché	-884
oci	-885
omb	-886
ganis	-887
ïv	-888
▁vic	-889
▁el	-890
uté	-891
rier	-892
sionn	-893
ellement	-894
▁trouve	-895
▁voïv	-896
▁and	-897
▁%	-898
ède	-899
ore	-900
xe	-901
État	-902
▁fl	-903
rée	-904
▁désig	-905
istes	-906
▁dro	-907
▁aff	-908
▁coupe	-909
▁gr	-910
iers	-911
▁roy	-912
▁membre	-913
▁riv	-914
▁mai	-915
rent	-916
▁football	-917
▁voïvodie	-918
▁0000-0000	-919
uss	-920
rique	-921
▁pass	-922
▁lég	-923
▁li	-924
▁partir	-925
▁communes	-926
▁jeux	-927
▁tout	-928
▁nouve	-929
ubli	-930
▁rel	-931
▁réf	-932
illet	-933
▁cir	-934
▁prix	-935
aliste	-936
▁ag	-937
▁équ	-938
ler	-939
ierre	-940
▁00,	-941
▁op	-942
▁particip	-943
aul	-944
▁poste	-945
amb	-946
▁place	-947
iens	-948
aque	-949
enant	-950
▁cert	-951
je	-952
▁déf	-953
▁quel	-954
▁disp	-955
ame	-956
▁distric	-957
000	-958
mis	-959
▁genre	-960
▁mars	-961
aï	-962
pes	-963
▁(0000-0000	-964
▁appel	-965
▁acc	-966
▁cul	-967
▁ligne	-968
enti	-969
▁publi	-970
▁vol	-971
▁général	-972
ope	-973
ras	-974
auté	-975
▁sol	-976
son	-977
▁siè	-978
▁joueur	-979
rip	-980
▁nationale	-981
▁juin	-982
▁gar	-983
▁meille	-984
ole	-985
▁cro	-986
suite	-987
▁national	-988
œuv	-989
▁rue	-990
ian	-991
▁lang	-992
ches	-993
▁tourn	-994
▁but	-995
ût	-996
▁orig	-997
▁durant	-998
ête	-999
▁mondi	-1000
pl	-1001
pr	-1002
▁républ	-1003
rig	-1004
▁chans	-1005
lev	-1006
asse	-1007
ités	-1008
▁histor	-1009
ouvert	-1010
ération	-1011
cole	-1012
uses	-1013
▁gouver	-1014
out	-1015
lin	-1016
▁différ	-1017
ép	-1018
▁eff	-1019
▁met	-1020
▁nat	-1021
▁lou	-1022
▁territ	-1023
▁société	-1024
▁hau	-1025
avi	-1026
▁sans	-1027
▁présente	-1028
aines	-1029
velop	-1030
▁of	-1031
▁municipalité	-1032
▁janvier	-1033
isse	-1034
▁tous	-1035
▁environ	-1036
▁nommé	-1037
▁mi	-1038
él	-1039
▁mét	-1040
▁constitu	-1041
ode	-1042
hist	-1043
▁ensuite	-1044
▁bien	-1045
▁men	-1046
▁chef	-1047
▁profes	-1048
▁faire	-1049
▁dévelop	-1050
▁phil	-1051
hn	-1052
tière	-1053
▁district	-1054
▁sal	-1055
port	-1056
▁permet	-1057
gra	-1058
apon	-1059
▁compte	-1060
iat	-1061
ys	-1062
éré	-1063
▁châ	-1064
▁olymp	-1065
ven	-1066
▁administra	-1067
▁juillet	-1068
core	-1069
▁deuxième	-1070
ril	-1071
ver	-1072
ina	-1073
▁lib	-1074
▁cat	-1075
▁née	-1076
▁ban	-1077
ôle	-1078
▁remporte	-1079
▁angl	-1080
▁réalisé	-1081
mble	-1082
éti	-1083
▁nor	-1084
▁géné	-1085
▁fon	-1086
tte	-1087
ute	-1088
iti	-1089
tembre	-1090
▁lig	-1091
▁rapp	-1092
▁homme	-1093
tis	-1094
ada	-1095
▁sign	-1096
ane	-1097
tivement	-1098
ologie	-1099
▁he	-1100
▁temps	-1101
els	-1102
▁septembre	-1103
▁division	-1104
yn	-1105
▁liv	-1106
gu	-1107
▁mes	-1108
oût	-1109
▁japon	-1110
▁nouveau	-1111
▁new	-1112
▁oct	-1113
▁principale	-1114
▁déce	-1115
bres	-1116
▁por	-1117
ony	-1118
obre	-1119
inture	-1120
▁journ	-1121
tant	-1122
▁canton	-1123
▁0,00	-1124
ouvent	-1125
rale	-1126
orig	-1127
▁is	-1128
▁prend	-1129
▁mod	-1130
▁père	-1131
▁professionn	-1132
▁décembre	-1133
cipe	-1134
jour	-1135
ls	-1136
▁forme	-1137
▁équip	-1138
▁ro	-1139
tit	-1140
br	-1141
ome	-1142
▁ii	-1143
▁connu	-1144
▁origin	-1145
▁offic	-1146
illes	-1147
cé	-1148
teau	-1149
rend	-1150
▁pal	-1151
▁minist	-1152
▁quar	-1153
▁comté	-1154
▁avait	-1155
cid	-1156
ast	-1157
▁communauté	-1158
ik	-1159
ail	-1160
ouse	-1161
▁carac	-1162
▁reg	-1163
ret	-1164
année	-1165
▁ty	-1166
▁public	-1167
teurs	-1168
érence	-1169
▁parc	-1170
▁succ	-1171
▁sch	-1172
mer	-1173
▁mis	-1174
ica	-1175
▁celui	-1176
ock	-1177
▁particul	-1178
ps	-1179
▁circ	-1180
oise	-1181
▁ge	-1182
▁peu	-1183
▁liste	-1184
▁non	-1185
itaire	-1186
île	-1187
▁lit	-1188
histoire	-1189
cep	-1190
uve	-1191
▁mag	-1192
▁octobre	-1193
▁brit	-1194
▁sit	-1195
ribu	-1196
aw	-1197
rage	-1198
▁val	-1199
mont	-1200
▁roman	-1201
▁république	-1202
mique	-1203
▁indi	-1204
▁international	-1205
▁mor	-1206
▁sélection	-1207
origine	-1208
▁quelques	-1209
ide	-1210
▁pow	-1211
▁actu	-1212
cou	-1213
▁organis	-1214
lac	-1215
▁allemand	-1216
era	-1217
▁».	-1218
fois	-1219
issement	-1220
▁président	-1221
vembre	-1222
ork	-1223
▁rencontre	-1224
nie	-1225
▁enf	-1226
mina	-1227
▁reç	-1228
▁mas	-1229
▁avril	-1230
idae	-1231
na	-1232
▁mer	-1233
éro	-1234
tor	-1235
cent	-1236
▁novembre	-1237
▁rejo	-1238
▁music	-1239
gent	-1240
sition	-1241
▁deven	-1242
térie	-1243
arr	-1244
▁télév	-1245
▁pra	-1246
▁ay	-1247
▁pologne	-1248
arch	-1249
▁poss	-1250
▁fonction	-1251
▁fa	-1252
ger	-1253
▁lim	-1254
▁août	-1255
▁gre	-1256
hui	-1257
ars	-1258
▁pierre	-1259
crip	-1260
▁près	-1261
▁import	-1262
▁participe	-1263
église	-1264
▁compéti	-1265
▁encore	-1266
erie	-1267
▁musique	-1268
▁doc	-1269
▁dernier	-1270
ions	-1271
▁occ	-1272
▁jac	-1273
oth	-1274
▁moins	-1275
ana	-1276
▁class	-1277
▁tant	-1278
urent	-1279
ck	-1280
▁polon	-1281
▁vit	-1282
▁super	-1283
ancien	-1284
▁rob	-1285
évrier	-1286
▁0000)	-1287
éma	-1288
▁territoire	-1289
▁san	-1290
▁capit	-1291
aume	-1292
▁ber	-1293
▁kil	-1294
▁emp	-1295
val	-1296
▁gmina	-1297
▁chez	-1298
▁février	-1299
ieux	-1300
ordre	-1301
▁mich	-1302
the	-1303
▁finale	-1304
▁chan	-1305
▁chaque	-1306
..	-1307
ix	-1308
▁powiat	-1309
▁celle	-1310
rer	-1311
ville	-1312
▁britann	-1313
âtre	-1314
ils	-1315
▁moy	-1316
rand	-1317
▁jeu	-1318
chn	-1319
▁équipe	-1320
▁cath	-1321
▁hom	-1322
▁roi	-1323
ara	-1324
crit	-1325
uel	-1326
▁lac	-1327
▁château	-1328
▁inc	-1329
autres	-1330
comp	-1331
▁féd	-1332
▁bâ	-1333
isme	-1334
▁soit	-1335
▁nombreux	-1336
▁pres	-1337
▁sub	-1338
téroïde	-1339
▁im	-1340
▁œuv	-1341
▁équipes	-1342
▁ca	-1343
▁anglais	-1344
▁ret	-1345
ète	-1346
▁leurs	-1347
lace	-1348
bourg	-1349
yl	-1350
▁ense	-1351
▁cinq	-1352
▁second	-1353
▁rivière	-1354
▁fe	-1355
▁camp	-1356
ient	-1357
alif	-1358
▁ceinture	-1359
mon	-1360
magne	-1361
imp	-1362
ensement	-1363
▁mill	-1364
neur	-1365
▁vis	-1366
tro	-1367
tés	-1368
ège	-1369
tral	-1370
▁»,	-1371
▁année	-1372
▁compt	-1373
▁bos	-1374
titude	-1375
ié	-1376
▁tard	-1377
oul	-1378
▁ayant	-1379
▁face	-1380
▁lar	-1381
▁(0000)	-1382
mo	-1383
aff	-1384
▁seconde	-1385
êt	-1386
▁référence	-1387
▁péri	-1388
▁kilom	-1389
jourd	-1390
▁chanson	-1391
rat	-1392
▁nive	-1393
▁écrit	-1394
▁bo	-1395
▁john	-1396
▁demi	-1397
▁jam	-1398
reg	-1399
▁recensement	-1400
▁six	-1401
▁astéroïde	-1402
▁dra	-1403
▁créé	-1404
▁rev	-1405
lande	-1406
▁route	-1407
▁dan	-1408
aiss	-1409
ves	-1410
▁mondiale	-1411
▁qué	-1412
aur	-1413
uf	-1414
cle	-1415
▁petit	-1416
rite	-1417
▁diffus	-1418
nom	-1419
mande	-1420
quel	-1421
▁blan	-1422
bert	-1423
▁inf	-1424
▁conseil	-1425
▁cr	-1426
▁louis	-1427
sions	-1428
usse	-1429
▁préc	-1430
▁siège	-1431
▁rév	-1432
▁jeune	-1433
▁ligue	-1434
key	-1435
èse	-1436
sh	-1437
onom	-1438
▁ly	-1439
▁maj	-1440
gé	-1441
▁comb	-1442
▁maison	-1443
▁coll	-1444
▁pa	-1445
...	-1446
▁rôle	-1447
▁seul	-1448
▁dérou	-1449
▁conserv	-1450
▁gare	-1451
album	-1452
▁troisième	-1453
opé	-1454
yp	-1455
▁es	-1456
▁gouvernement	-1457
▁points	-1458
▁monu	-1459
▁professe	-1460
ose	-1461
aud	-1462
▁porte	-1463
▁américaine	-1464
oires	-1465
ith	-1466
▁fé	-1467
▁olympiques	-1468
raî	-1469
▁franc	-1470
urg	-1471
▁tot	-1472
téroïdes	-1473
▁ven	-1474
▁premiers	-1475
▁autre	-1476
ateurs	-1477
▁fille	-1478
▁0.	-1479
by	-1480
ley	-1481
▁service	-1482
olution	-1483
aît	-1484
-0	-1485
élè	-1486
▁championnats	-1487
lée	-1488
▁base	-1489
entes	-1490
▁études	-1491
▁dém	-1492
▁compagn	-1493
▁situe	-1494
▁scien	-1495
iles	-1496
xim	-1497
▁0,0	-1498
▁site	-1499
▁toute	-1500
▁matchs	-1501
der	-1502
ano	-1503
astéroïdes	-1504
agit	-1505
▁consid	-1506
▁tur	-1507
pose	-1508
▁exemp	-1509
▁york	-1510
▁député	-1511
▁bi	-1512
seau	-1513
▁retr	-1514
poque	-1515
▁mot	-1516
▁parmi	-1517
▁beau	-1518
▁caracté	-1519
ick	-1520
▁donc	-1521
da	-1522
▁contin	-1523
▁ind	-1524
▁lab	-1525
▁ouv	-1526
▁sein	-1527
form	-1528
▁rapport	-1529
▁art	-1530
▁niveau	-1531
tives	-1532
lections	-1533
▁ant	-1534
▁ve	-1535
sur	-1536
▁endé	-1537
▁classement	-1538
▁suisse	-1539
▁femme	-1540
cription	-1541
▁théâtre	-1542
her	-1543
til	-1544
▁créée	-1545
▁pris	-1546
▁projet	-1547
oles	-1548
pendant	-1549
▁membres	-1550
téra	-1551
▁europé	-1552
ondissement	-1553
▁aujourd	-1554
édé	-1555
▁plan	-1556
▁professeur	-1557
▁comptait	-1558
▁lo	-1559
oun	-1560
▁date	-1561
tie	-1562
qué	-1563
▁del	-1564
ds	-1565
▁souvent	-1566
▁cri	-1567
europe	-1568
▁dès	-1569
▁britannique	-1570
cident	-1571
ites	-1572
▁commer	-1573
▁directeur	-1574
trice	-1575
pré	-1576
ha	-1577
ication	-1578
hi	-1579
▁techn	-1580
▁kilomètres	-1581
▁(00	-1582
▁bl	-1583
to	-1584
ockey	-1585
▁compétition	-1586
▁mois	-1587
▁recher	-1588
▁eu	-1589
▁apparten	-1590
▁stu	-1591
▁charles	-1592
▁canada	-1593
▁pouv	-1594
uni	-1595
eng	-1596
eau	-1597
▁'	-1598
âge	-1599
▁caractéris	-1600
▁él	-1601
fran	-1602
▁mesure	-1603
▁rich	-1604
▁associ	-1605
▁sau	-1606
▁retour	-1607
▁utilisé	-1608
▁ste	-1609
▁ur	-1610
▁lu	-1611
▁fle	-1612
èg	-1613
▁fais	-1614
▁commence	-1615
▁syst	-1616
résil	-1617
▁culture	-1618
▁ess	-1619
▁endémique	-1620
▁gal	-1621
▁longue	-1622
▁qualif	-1623
oss	-1624
ili	-1625
▁sour	-1626
oix	-1627
▁hockey	-1628
▁mètres	-1629
lec	-1630
▁viv	-1631
acc	-1632
ditions	-1633
exp	-1634
▁nature	-1635
▁har	-1636
occ	-1637
olue	-1638
▁geor	-1639
érique	-1640
bec	-1641
▁passe	-1642
anie	-1643
inter	-1644
yle	-1645
▁brésil	-1646
oll	-1647
▁stat	-1648
▁prom	-1649
▁italien	-1650
air	-1651
▁coule	-1652
temp	-1653
▁att	-1654
▁jeun	-1655
▁droit	-1656
idé	-1657
▁incl	-1658
▁sing	-1659
union	-1660
▁ministre	-1661
ouverte	-1662
▁sant	-1663
▁hen	-1664
▁supérie	-1665
▁syn	-1666
▁découvert	-1667
orie	-1668
rain	-1669
▁localité	-1670
▁composé	-1671
ime	-1672
▁atte	-1673
▁fré	-1674
▁étant	-1675
ino	-1676
▁cam	-1677
œur	-1678
▁let	-1679
▁bâti	-1680
▁reste	-1681
▁rap	-1682
▁désigner	-1683
▁travers	-1684
▁élu	-1685
▁meur	-1686
lex	-1687
▁signif	-1688
atta	-1689
êque	-1690
dif	-1691
▁mari	-1692
▁nombreuses	-1693
reur	-1694
balle	-1695
iteur	-1696
▁frère	-1697
armée	-1698
usion	-1699
car	-1700
▁gl	-1701
▁publié	-1702
regist	-1703
inée	-1704
▁rejoint	-1705
tég	-1706
iter	-1707
▁simp	-1708
▁lond	-1709
▁généra	-1710
let	-1711
▁record	-1712
▁quartier	-1713
▁dix	-1714
ition	-1715
▁paul	-1716
▁résul	-1717
▁fort	-1718
▁tournoi	-1719
itec	-1720
▁fig	-1721
▁fémin	-1722
▁évolue	-1723
▁pein	-1724
▁espagn	-1725
▁doit	-1726
▁num	-1727
▁bor	-1728
▁évolu	-1729
▁étab	-1730
▁films	-1731
▁radi	-1732
landais	-1733
▁obtient	-1734
▁tex	-1735
onneur	-1736
▁canadi	-1737
▁succès	-1738
vers	-1739
▁arch	-1740
▁elles	-1741
ira	-1742
èle	-1743
▁sort	-1744
▁littéra	-1745
▁version	-1746
▁cinéma	-1747
ences	-1748
hô	-1749
ko	-1750
pect	-1751
berg	-1752
▁haut	-1753
▁km	-1754
▁travaill	-1755
édition	-1756
▁médaille	-1757
▁enfants	-1758
▁dipl	-1759
▁développe	-1760
▁sera	-1761
orté	-1762
▁af	-1763
ham	-1764
▁font	-1765
▁compagnie	-1766
gar	-1767
onyme	-1768
terre	-1769
▁langue	-1770
▁voy	-1771
▁station	-1772
mine	-1773
▁professionnel	-1774
▁petite	-1775
▁terre	-1776
old	-1777
▁footballe	-1778
née	-1779
trich	-1780
▁afin	-1781
▁quit	-1782
illi	-1783
odes	-1784
ty	-1785
▁vend	-1786
isé	-1787
iller	-1788
▁tom	-1789
▁élections	-1790
▁toutes	-1791
isée	-1792
rid	-1793
ande	-1794
bo	-1795
▁principalement	-1796
▁hong	-1797
éné	-1798
▁bord	-1799
aig	-1800
jours	-1801
▁vict	-1802
▁dés	-1803
ables	-1804
ennes	-1805
ones	-1806
▁gau	-1807
ów	-1808
▁regrou	-1809
iné	-1810
gram	-1811
▁espèces	-1812
▁piè	-1813
▁milieu	-1814
▁chem	-1815
ières	-1816
▁production	-1817
▁circons	-1818
ulaire	-1819
-00	-1820
▁produit	-1821
erne	-1822
ini	-1823
▁terme	-1824
étique	-1825
ission	-1826
rises	-1827
sique	-1828
▁tête	-1829
▁pont	-1830
▁mac	-1831
▁chap	-1832
▁va	-1833
atoire	-1834
▁arr	-1835
▁footballeur	-1836
ket	-1837
▁we	-1838
▁cad	-1839
après	-1840
▁musée	-1841
do	-1842
vo	-1843
per	-1844
ules	-1845
arrondissement	-1846
▁comprend	-1847
▁rend	-1848
▁québec	-1849
▁ben	-1850
tifs	-1851
▁robert	-1852
ura	-1853
▁iss	-1854
▁réc	-1855
▁mos	-1856
▁personnes	-1857
▁royaume	-1858
iz	-1859
ca	-1860
▁préf	-1861
▁tch	-1862
▁construction	-1863
▁polonais	-1864
dic	-1865
ba	-1866
çon	-1867
serv	-1868
▁plac	-1869
olique	-1870
▁bal	-1871
yd	-1872
▁studi	-1873
aye	-1874
▁russ	-1875
▁type	-1876
bas	-1877
▁vari	-1878
go	-1879
▁maî	-1880
▁bois	-1881
indre	-1882
iment	-1883
▁inscrit	-1884
lant	-1885
ax	-1886
no	-1887
▁clubs	-1888
ardin	-1889
▁construit	-1890
▁bra	-1891
argent	-1892
▁possède	-1893
▁certains	-1894
estiv	-1895
lie	-1896
▁donn	-1897
▁dest	-1898
térieur	-1899
▁cit	-1900
leterre	-1901
▁coup	-1902
siège	-1903
▁sim	-1904
▁donné	-1905
▁ath	-1906
▁vall	-1907
gal	-1908
▁ancienne	-1909
▁étaient	-1910
èque	-1911
▁program	-1912
▁appelé	-1913
uré	-1914
▁étudi	-1915
▁jours	-1916
▁système	-1917
vent	-1918
▁toujours	-1919
▁(0000),	-1920
▁écriv	-1921
ette	-1922
ficie	-1923
prise	-1924
▁formation	-1925
èce	-1926
ôt	-1927
▁cependant	-1928
gue	-1929
▁marie	-1930
▁haute	-1931
▁fab	-1932
abord	-1933
▁unique	-1934
quelle	-1935
estival	-1936
ances	-1937
off	-1938
▁direction	-1939
▁épis	-1940
▁consac	-1941
▁table	-1942
asion	-1943
▁scène	-1944
▁belge	-1945
0)	-1946
▁gi	-1947
▁zone	-1948
rait	-1949
▁prob	-1950
rop	-1951
ula	-1952
ga	-1953
▁termin	-1954
▁suivante	-1955
▁laquelle	-1956
▁obten	-1957
my	-1958
▁bro	-1959
aissance	-1960
ase	-1961
ocra	-1962
émie	-1963
ovie	-1964
ber	-1965
aisons	-1966
honneur	-1967
▁artic	-1968
estre	-1969
▁effec	-1970
▁travaille	-1971
▁pou	-1972
▁large	-1973
▁festival	-1974
anne	-1975
▁russe	-1976
▁serbe	-1977
èrent	-1978
dec	-1979
▁propri	-1980
ustr	-1981
▁mad	-1982
▁voie	-1983
ielle	-1984
▁atta	-1985
▁capitale	-1986
▁pie	-1987
▁ir	-1988
▁grec	-1989
▁londres	-1990
▁hum	-1991
▁her	-1992
lect	-1993
han	-1994
▁tor	-1995
▁phot	-1996
▁télévision	-1997
▁peintre	-1998
▁dernière	-1999
▁collab	-2000
▁création	-2001
▁fra	-2002
▁divers	-2003
▁cer	-2004
▁meilleur	-2005
▁fc	-2006
cal	-2007
oration	-2008
tout	-2009
▁tu	-2010
▁philip	-2011
▁dit	-2012
ost	-2013
▁éd	-2014
▁historiques	-2015
▁décédé	-2016
aus	-2017
▁enregist	-2018
▁tri	-2019
ash	-2020
âce	-2021
▁parfois	-2022
lov	-2023
orth	-2024
▁univers	-2025
▁entraî	-2026
▁ed	-2027
▁fondé	-2028
sif	-2029
▁fac	-2030
▁internationale	-2031
osé	-2032
▁bu	-2033
▁période	-2034
ennent	-2035
▁feu	-2036
▁sept	-2037
▁catég	-2038
▁my	-2039
gique	-2040
▁anim	-2041
ress	-2042
▁style	-2043
we	-2044
quant	-2045
▁austral	-2046
▁titres	-2047
époque	-2048
▁00.	-2049
seph	-2050
▁eng	-2051
onie	-2052
aug	-2053
ola	-2054
▁actuellement	-2055
▁(0	-2056
ièrement	-2057
▁rome	-2058
▁inst	-2059
▁célè	-2060
cide	-2061
ral	-2062
▁travail	-2063
igh	-2064
▁meurt	-2065
▁kar	-2066
▁sport	-2067
▁tradition	-2068
▁livre	-2069
▁grâce	-2070
lip	-2071
▁corps	-2072
▁monuments	-2073
▁défin	-2074
▁superficie	-2075
inf	-2076
position	-2077
men	-2078
▁bon	-2079
▁commen	-2080
▁os	-2081
▁nav	-2082
▁suc	-2083
▁urb	-2084
▁<	-2085
grand	-2086
▁militaire	-2087
▁pet	-2088
"),	-2089
▁remplac	-2090
▁acteur	-2091
aj	-2092
▁top	-2093
▁éch	-2094
uire	-2095
titut	-2096
▁vidé	-2097
▁activ	-2098
altitude	-2099
▁cham	-2100
▁journal	-2101
ainte	-2102
▁mouve	-2103
▁remport	-2104
▁00,0	-2105
▁scén	-2106
▁mère	-2107
▁orb	-2108
▁auc	-2109
ange	-2110
duit	-2111
▁()	-2112
rist	-2113
tien	-2114
▁ten	-2115
adémie	-2116
ote	-2117
école	-2118
rages	-2119
▁ger	-2120
▁ref	-2121
za	-2122
ust	-2123
▁mex	-2124
▁pil	-2125
▁suivant	-2126
▁van	-2127
▁marque	-2128
▁épouse	-2129
▁surtout	-2130
▁reconn	-2131
▁plu	-2132
▁fondée	-2133
uk	-2134
apt	-2135
▁défense	-2136
▁rug	-2137
ouvre	-2138
action	-2139
inte	-2140
va	-2141
cs	-2142
aude	-2143
▁françois	-2144
pé	-2145
▁joué	-2146
▁mention	-2147
rom	-2148
▁lanc	-2149
▁somme	-2150
sk	-2151
▁termine	-2152
▁id	-2153
équ	-2154
ront	-2155
▁mise	-2156
fe	-2157
ologique	-2158
▁fusion	-2159
▁spor	-2160
rice	-2161
▁développement	-2162
▁légis	-2163
gré	-2164
ographie	-2165
▁répar	-2166
▁réseau	-2167
▁radio	-2168
ices	-2169
▁effet	-2170
▁course	-2171
▁bataille	-2172
cer	-2173
▁reçoit	-2174
▁000,	-2175
▁fédération	-2176
cess	-2177
sa	-2178
▁bande	-2179
▁remporté	-2180
▁civ	-2181
▁major	-2182
ifor	-2183
▁rac	-2184
lit	-2185
uvent	-2186
lig	-2187
écu	-2188
▁command	-2189
ènes	-2190
▁classe	-2191
▁seule	-2192
académie	-2193
▁bour	-2194
▁allemande	-2195
▁peuvent	-2196
nés	-2197
▁marc	-2198
nel	-2199
resp	-2200
▁côté	-2201
illiam	-2202
abb	-2203
▁travaux	-2204
att	-2205
ks	-2206
▁domaine	-2207
▁recherche	-2208
erve	-2209
▁diplô	-2210
▁médec	-2211
quer	-2212
▁particulier	-2213
▁(0000-0000)	-2214
▁latin	-2215
▁stade	-2216
").	-2217
▁four	-2218
▁chine	-2219
can	-2220
rige	-2221
allemagne	-2222
▁res	-2223
oré	-2224
▁do	-2225
▁nic	-2226
iture	-2227
dia	-2228
ly	-2229
▁édition	-2230
ingt	-2231
▁connue	-2232
▁wil	-2233
▁bre	-2234
▁rugby	-2235
▁arm	-2236
▁sem	-2237
▁différents	-2238
▁relig	-2239
orph	-2240
▁régul	-2241
▁italie	-2242
lon	-2243
▁effectu	-2244
▁fre	-2245
▁supp	-2246
die	-2247
reuve	-2248
ève	-2249
ards	-2250
▁bourg	-2251
▁furent	-2252
▁œuvres	-2253
ja	-2254
ama	-2255
inst	-2256
▁jacques	-2257
▁mul	-2258
▁circonscription	-2259
▁chaî	-2260
▁bass	-2261
▁exemple	-2262
cy	-2263
▁aur	-2264
▁us	-2265
▁pap	-2266
▁william	-2267
▁double	-2268
▁(0000-0000),	-2269
▁log	-2270
▁annon	-2271
dien	-2272
▁ara	-2273
autre	-2274
auteur	-2275
▁er	-2276
▁pi	-2277
respond	-2278
▁autour	-2279
ago	-2280
dam	-2281
▁peup	-2282
▁orbite	-2283
▁grands	-2284
ald	-2285
▁alex	-2286
▁rouge	-2287
▁lorsque	-2288
associ	-2289
tron	-2290
▁hommes	-2291
▁priv	-2292
▁ord	-2293
ora	-2294
pt	-2295
▁portu	-2296
▁nommée	-2297
mat	-2298
▁0000),	-2299
▁voit	-2300
▁libre	-2301
aqu	-2302
▁principal	-2303
▁axe	-2304
▁raison	-2305
▁–	-2306
même	-2307
part	-2308
▁seu	-2309
inaison	-2310
▁davi	-2311
▁belgique	-2312
▁0000).	-2313
▁hol	-2314
ym	-2315
tiers	-2316
▁""	-2317
▁ni	-2318
▁rh	-2319
▁correspond	-2320
▁iv	-2321
sible	-2322
environ	-2323
ed	-2324
▁résultats	-2325
▁dirige	-2326
▁sainte	-2327
coup	-2328
▁pouvoir	-2329
▁bron	-2330
▁docu	-2331
org	-2332
ney	-2333
▁vin	-2334
▁indé	-2335
▁gauche	-2336
lète	-2337
▁originaire	-2338
▁historique	-2339
▁scénar	-2340
lou	-2341
ati	-2342
▁donne	-2343
mun	-2344
▁signe	-2345
▁section	-2346
▁sciences	-2347
▁tar	-2348
▁quand	-2349
ker	-2350
▁cycl	-2351
▁contra	-2352
▁néer	-2353
▁rock	-2354
▁cop	-2355
▁jur	-2356
ho	-2357
▁lequel	-2358
▁centrale	-2359
▁vidéo	-2360
ensemble	-2361
▁sk	-2362
▁sar	-2363
ailles	-2364
▁sortie	-2365
▁tel	-2366
▁mic	-2367
▁pu	-2368
▁[	-2369
▁dirig	-2370
pi	-2371
rill	-2372
▁vain	-2373
▁(00000)	-2374
▁ps	-2375
èmes	-2376
▁label	-2377
ilité	-2378
▁cher	-2379
cée	-2380
École	-2381
▁buts	-2382
▁spécialiste	-2383
assemb	-2384
▁europe	-2385
did	-2386
▁bern	-2387
ination	-2388
oni	-2389
▁studio	-2390
▁existe	-2391
avant	-2392
▁caractérisée	-2393
▁sam	-2394
▁orient	-2395
▁vingt	-2396
▁côte	-2397
▁parois	-2398
▁différentes	-2399
▁noir	-2400
▁initi	-2401
cap	-2402
▁espagnol	-2403
▁règ	-2404
chi	-2405
isation	-2406
ici	-2407
oine	-2408
▁dispar	-2409
ban	-2410
▁maire	-2411
▁révolution	-2412
▁huit	-2413
ague	-2414
▁total	-2415
mission	-2416
▁excent	-2417
▁cadre	-2418
ata	-2419
ji	-2420
ya	-2421
▁joseph	-2422
ark	-2423
▁catégorie	-2424
▁composée	-2425
ades	-2426
▁to	-2427
▁femmes	-2428
pec	-2429
▁commerci	-2430
▁voyage	-2431
▁ua	-2432
▁propre	-2433
▁(0000).	-2434
▁sac	-2435
liptique	-2436
▁bib	-2437
▁aug	-2438
▁basket	-2439
éch	-2440
ression	-2441
▁beaucoup	-2442
▁découverte	-2443
iver	-2444
▁david	-2445
▁montré	-2446
ception	-2447
vin	-2448
▁red	-2449
▁ceux	-2450
ung	-2451
▁premières	-2452
▁michel	-2453
ricité	-2454
▁basé	-2455
▁chambre	-2456
ciation	-2457
ood	-2458
▁appartenant	-2459
kh	-2460
bi	-2461
▁chi	-2462
▁jeunes	-2463
▁math	-2464
matique	-2465
raine	-2466
▁angel	-2467
▁accue	-2468
▁œuvre	-2469
con	-2470
▁cheval	-2471
ón	-2472
▁bur	-2473
▁all	-2474
▁fron	-2475
▁tre	-2476
▁combat	-2477
▁env	-2478
institut	-2479
▁retra	-2480
itée	-2481
ft	-2482
▁généralement	-2483
enf	-2484
▁bran	-2485
▁inclinaison	-2486
▁victoire	-2487
▁célèbre	-2488
rét	-2489
▁î	-2490
▁bosnie	-2491
ancienne	-2492
▁bâtiment	-2493
▁devenu	-2494
sence	-2495
▁sén	-2496
▁élect	-2497
▁atteint	-2498
▁henri	-2499
▁excentricité	-2500
gl	-2501
▁scul	-2502
écliptique	-2503
ru	-2504
tent	-2505
anti	-2506
▁los	-2507
▁vallée	-2508
▁autom	-2509
▁single	-2510
itation	-2511
col	-2512
▁bul	-2513
luent	-2514
mment	-2515
▁russie	-2516
ani	-2517
andis	-2518
étu	-2519
▁lé	-2520
pro	-2521
▁magaz	-2522
ennis	-2523
▁jul	-2524
▁prince	-2525
▁colomb	-2526
association	-2527
▁conseiller	-2528
organis	-2529
énie	-2530
ren	-2531
bes	-2532
osse	-2533
▁dat	-2534
ny	-2535
▁patri	-2536
▁devant	-2537
▁thom	-2538
▁proche	-2539
▁réalisateur	-2540
▁comte	-2541
espagne	-2542
architec	-2543
▁000.	-2544
▁certaines	-2545
▁formé	-2546
▁source	-2547
ych	-2548
inois	-2549
▁mouvement	-2550
▁catholique	-2551
près	-2552
ene	-2553
▁em	-2554
▁proc	-2555
▁oc	-2556
espèce	-2557
▁berlin	-2558
oug	-2559
▁populaire	-2560
▁économ	-2561
▁viol	-2562
▁écrivain	-2563
▁parlement	-2564
quis	-2565
▁seulement	-2566
▁install	-2567
▁déj	-2568
▁participé	-2569
zo	-2570
▁seigne	-2571
onciation	-2572
ena	-2573
▁fit	-2574
dess	-2575
▁succes	-2576
voir	-2577
▁prot	-2578
▁débute	-2579
▁mur	-2580
▁pan	-2581
▁officielle	-2582
▁lut	-2583
mann	-2584
chev	-2585
▁martin	-2586
▁tit	-2587
▁chris	-2588
▁numéro	-2589
▁chois	-2590
lève	-2591
ni	-2592
▁millions	-2593
▁moyenne	-2594
lieu	-2595
▁formula	-2596
aceae	-2597
arc	-2598
bie	-2599
▁église	-2600
▁démocra	-2601
▁inv	-2602
▁califor	-2603
▁&	-2604
▁plupart	-2605
omorph	-2606
den	-2607
ala	-2608
▁actrice	-2609
▁direc	-2610
▁chante	-2611
zy	-2612
▁glace	-2613
▁rapide	-2614
0.	-2615
oile	-2616
duction	-2617
sive	-2618
▁chaîne	-2619
▁chansons	-2620
▁ke	-2621
rième	-2622
▁loi	-2623
▁moyen	-2624
ington	-2625
▁mâ	-2626
▁bronze	-2627
▁lign	-2628
loy	-2629
▁lance	-2630
bles	-2631
▁ray	-2632
ocèse	-2633
▁saisons	-2634
cier	-2635
▁allemagne	-2636
▁élé	-2637
▁hé	-2638
italie	-2639
▁suivantes	-2640
êté	-2641
▁cab	-2642
▁cyrill	-2643
▁occup	-2644
▁italienne	-2645
orm	-2646
alisé	-2647
saint	-2648
▁00,00	-2649
alise	-2650
▁longueur	-2651
ographique	-2652
▁déjà	-2653
▁sig	-2654
▁maître	-2655
temps	-2656
▁villes	-2657
▁reprises	-2658
▁concert	-2659
tt	-2660
▁cyrillique	-2661
▁restaur	-2662
▁auteur	-2663
▁retrouve	-2664
ii	-2665
▁représente	-2666
▁îles	-2667
alités	-2668
Ég	-2669
▁vir	-2670
▁autrich	-2671
▁asse	-2672
▁secrét	-2673
ouss	-2674
▁article	-2675
less	-2676
▁législa	-2677
án	-2678
burg	-2679
▁proxim	-2680
erse	-2681
ible	-2682
ico	-2683
rant	-2684
▁autor	-2685
arm	-2686
▁signifie	-2687
▁land	-2688
▁montréal	-2689
ël	-2690
rég	-2691
utes	-2692
▁ram	-2693
act	-2694
ares	-2695
▁collection	-2696
pend	-2697
▁groupes	-2698
▁contrat	-2699
▁japonais	-2700
▁ami	-2701
veur	-2702
▁wal	-2703
ski	-2704
▁mom	-2705
▁cant	-2706
▁proximité	-2707
icile	-2708
jou	-2709
▁ros	-2710
▁trop	-2711
▁simple	-2712
▁précéd	-2713
quée	-2714
élev	-2715
ael	-2716
▁tennis	-2717
eures	-2718
▁iii	-2719
lor	-2720
▁cos	-2721
afrique	-2722
▁reçu	-2723
oud	-2724
▁nouvelles	-2725
ek	-2726
▁diffusée	-2727
▁resp	-2728
▁classé	-2729
▁langues	-2730
▁vient	-2731
▁représentant	-2732
▁dispute	-2733
cture	-2734
▁christ	-2735
▁considéré	-2736
▁ensemble	-2737
▁perd	-2738
▁quatrième	-2739
▁page	-2740
▁rang	-2741
▁décl	-2742
▁scientif	-2743
▁vice	-2744
estion	-2745
▁arts	-2746
▁ouvert	-2747
ish	-2748
▁contr	-2749
▁plantes	-2750
objet	-2751
quent	-2752
▁spect	-2753
aite	-2754
▁py	-2755
ications	-2756
▁concours	-2757
▁maur	-2758
difice	-2759
▁etc	-2760
eff	-2761
rich	-2762
rané	-2763
▁auprès	-2764
▁construite	-2765
▁ple	-2766
actu	-2767
▁montagne	-2768
▁ba	-2769
▁artis	-2770
▁(0000-0000).	-2771
▁philos	-2772
tér	-2773
▁collè	-2774
▁personnage	-2775
▁voix	-2776
▁blanc	-2777
dom	-2778
▁joueurs	-2779
▁mand	-2780
ford	-2781
▁lie	-2782
▁transport	-2783
▁vainque	-2784
olf	-2785
▁gros	-2786
▁cra	-2787
▁évêque	-2788
▁féminin	-2789
▁revue	-2790
▁chac	-2791
net	-2792
oli	-2793
▁poursu	-2794
▁écrite	-2795
▁jamais	-2796
▁francis	-2797
éli	-2798
▁maz	-2799
▁catal	-2800
ésie	-2801
▁publie	-2802
tienne	-2803
▁polonaise	-2804
▁phy	-2805
ky	-2806
ita	-2807
▁étran	-2808
▁ru	-2809
ablement	-2810
▁norv	-2811
▁dessin	-2812
▁journaliste	-2813
vie	-2814
orn	-2815
▁terrain	-2816
illon	-2817
▁document	-2818
▁compositeur	-2819
araig	-2820
ld	-2821
▁chapelle	-2822
char	-2823
▁west	-2824
andre	-2825
▁important	-2826
▁chant	-2827
itale	-2828
ots	-2829
▁ill	-2830
otte	-2831
▁tunis	-2832
don	-2833
▁éditions	-2834
▁royal	-2835
▁0000-0000,	-2836
▁magazine	-2837
tell	-2838
▁médi	-2839
▁appelée	-2840
▁pian	-2841
▁devenir	-2842
ical	-2843
▁suff	-2844
▁anti	-2845
▁stru	-2846
itaires	-2847
▁navi	-2848
▁ja	-2849
▁finalement	-2850
▁lorsqu	-2851
own	-2852
▁sovi	-2853
main	-2854
arts	-2855
▁von	-2856
▁californie	-2857
lég	-2858
▁surf	-2859
ox	-2860
▁sens	-2861
▁cycliste	-2862
▁décide	-2863
▁faisant	-2864
▁remar	-2865
▁trouv	-2866
▁voir	-2867
▁chemin	-2868
ende	-2869
▁tels	-2870
▁auton	-2871
omorphes	-2872
▁officiel	-2873
▁flor	-2874
▁quitte	-2875
empire	-2876
▁mou	-2877
obile	-2878
ott	-2879
▁cela	-2880
ovine	-2881
▁vois	-2882
▁mine	-2883
hab	-2884
rive	-2885
har	-2886
▁résid	-2887
▁hô	-2888
▁histoire	-2889
▁suivants	-2890
▁luc	-2891
▁argent	-2892
▁cinqu	-2893
▁anne	-2894
▁victor	-2895
rise	-2896
fique	-2897
▁épisodes	-2898
ecture	-2899
▁utilisée	-2900
ult	-2901
▁lettres	-2902
anim	-2903
▁rad	-2904
▁tandis	-2905
▁secrétaire	-2906
auv	-2907
ourt	-2908
0,	-2909
dire	-2910
▁programme	-2911
▁Ł	-2912
▁grandes	-2913
▁transf	-2914
araignées	-2915
ètre	-2916
▁rive	-2917
"'	-2918
▁brun	-2919
▁rela	-2920
▁basse	-2921
▁court	-2922
▁candid	-2923
▁sus	-2924
▁regroupe	-2925
och	-2926
▁cardin	-2927
▁pic	-2928
▁prév	-2929
▁meilleurs	-2930
lat	-2931
érée	-2932
étend	-2933
▁producteur	-2934
▁débuts	-2935
▁comité	-2936
forme	-2937
▁pron	-2938
hen	-2939
wa	-2940
épreuve	-2941
▁sculp	-2942
▁alg	-2943
▁explo	-2944
rées	-2945
▁bus	-2946
tig	-2947
▁0000-0000.	-2948
▁seigneur	-2949
▁int	-2950
▁frontière	-2951
▁accomp	-2952
▁hu	-2953
▁ble	-2954
▁obtenu	-2955
éries	-2956
▁cause	-2957
▁james	-2958
este	-2959
mond	-2960
pierre	-2961
aître	-2962
titul	-2963
▁desc	-2964
▁duc	-2965
dique	-2966
▁brux	-2967
itch	-2968
olas	-2969
▁salle	-2970
▁reli	-2971
ste	-2972
▁pois	-2973
▁intég	-2974
▁départ	-2975
▁poi	-2976
▁sépar	-2977
▁principaux	-2978
herz	-2979
▁trib	-2980
▁étudie	-2981
ye	-2982
.<	-2983
▁|	-2984
▁sil	-2985
iée	-2986
▁vra	-2987
▁respons	-2988
▁taille	-2989
▁mascul	-2990
▁0-0	-2991
▁manière	-2992
▁esti	-2993
▁bure	-2994
▁main	-2995
était	-2996
▁vale	-2997
▁élev	-2998
way	-2999
égovine	-3000
▁tableau	-3001
▁prote	-3002
chestre	-3003
▁bibli	-3004
▁nob	-3005
agé	-3006
herzégovine	-3007
▁droite	-3008
ône	-3009
▁bras	-3010
vir	-3011
▁désigne	-3012
▁domin	-3013
▁philippe	-3014
dae	-3015
▁organ	-3016
angleterre	-3017
red	-3018
▁olympique	-3019
▁recue	-3020
resse	-3021
▁commande	-3022
▁enfin	-3023
▁déroule	-3024
▁maint	-3025
dy	-3026
fs	-3027
▁records	-3028
▁angeles	-3029
sec	-3030
])	-3031
▁contient	-3032
ester	-3033
▁occident	-3034
▁produits	-3035
▁mu	-3036
▁air	-3037
▁figure	-3038
hol	-3039
ager	-3040
lissement	-3041
▁richard	-3042
capitale	-3043
tième	-3044
▁livres	-3045
▁canadien	-3046
ave	-3047
▁appartient	-3048
▁thomas	-3049
▁intitul	-3050
▁chanteur	-3051
oux	-3052
agu	-3053
fort	-3054
▁chron	-3055
▁taux	-3056
▁dam	-3057
▁conç	-3058
▁juni	-3059
▁nap	-3060
▁aucun	-3061
œuvre	-3062
▁essenti	-3063
▁faisait	-3064
ack	-3065
tian	-3066
▁mol	-3067
▁var	-3068
▁plate	-3069
▁distribu	-3070
roph	-3071
ouverture	-3072
▁supérieur	-3073
issant	-3074
div	-3075
las	-3076
endance	-3077
▁go	-3078
▁porté	-3079
▁suéd	-3080
istan	-3081
▁espagne	-3082
▁entraîneur	-3083
▁guit	-3084
▁villages	-3085
▁cre	-3086
▁séries	-3087
▁monument	-3088
éroport	-3089
ôme	-3090
▁récomp	-3091
▁hal	-3092
nelle	-3093
▁sen	-3094
formation	-3095
▁gro	-3096
vention	-3097
▁nations	-3098
▁devint	-3099
▁rur	-3100
aix	-3101
▁ouest	-3102
▁kh	-3103
homme	-3104
eth	-3105
▁circuit	-3106
▁pièces	-3107
▁couleur	-3108
▁tal	-3109
▁george	-3110
▁bri	-3111
isc	-3112
▁présence	-3113
▁palais	-3114
▁reprend	-3115
▁ratta	-3116
▁attribu	-3117
intérieur	-3118
endre	-3119
▁pén	-3120
seur	-3121
▁réd	-3122
ova	-3123
gement	-3124
iction	-3125
ona	-3126
▁télévisée	-3127
-000	-3128
▁cong	-3129
améric	-3130
atrice	-3131
▁georges	-3132
ape	-3133
▁jouer	-3134
cience	-3135
▁gall	-3136
▁cav	-3137
naire	-3138
▁aurait	-3139
▁mel	-3140
ignement	-3141
sp	-3142
atique	-3143
▁petits	-3144
▁béné	-3145
▁albums	-3146
▁lyon	-3147
landaise	-3148
▁passage	-3149
occasion	-3150
dor	-3151
▁0,0°	-3152
▁publique	-3153
élection	-3154
▁commission	-3155
▁mondial	-3156
▁lic	-3157
▁albert	-3158
pos	-3159
acteur	-3160
▁services	-3161
▁bud	-3162
▁tent	-3163
▁pape	-3164
▁diocèse	-3165
inc	-3166
azz	-3167
ublin	-3168
êts	-3169
▁monte	-3170
▁suit	-3171
▁entière	-3172
▁disc	-3173
gon	-3174
▁desserv	-3175
▁vé	-3176
▁malgré	-3177
sitions	-3178
▁réalise	-3179
▁parties	-3180
▁importante	-3181
jec	-3182
▁décrit	-3183
inat	-3184
orient	-3185
▁miss	-3186
▁minutes	-3187
▁lublin	-3188
▁position	-3189
▁cardinal	-3190
▁pér	-3191
ings	-3192
▁poly	-3193
▁européenne	-3194
▁ministère	-3195
ity	-3196
ologue	-3197
▁supérieure	-3198
▁sm	-3199
▁pièce	-3200
ward	-3201
▁lin	-3202
rim	-3203
▁derniers	-3204
hum	-3205
▁gab	-3206
▁outre	-3207
▁arriv	-3208
▁morte	-3209
▁appro	-3210
▁!	-3211
▁sujet	-3212
▁moment	-3213
▁indivi	-3214
austral	-3215
▁xv	-3216
ota	-3217
rovi	-3218
▁lux	-3219
sch	-3220
▁paru	-3221
oti	-3222
▁neuf	-3223
upe	-3224
▁may	-3225
oute	-3226
▁moi	-3227
ez	-3228
assemblée	-3229
▁autonome	-3230
orp	-3231
▁central	-3232
uves	-3233
▁pin	-3234
▁prog	-3235
▁cité	-3236
▁code	-3237
▁soviétique	-3238
fa	-3239
▁eux	-3240
▁multi	-3241
▁bless	-3242
▁tours	-3243
▁données	-3244
▁moscou	-3245
ates	-3246
▁interpré	-3247
▁continent	-3248
▁puiss	-3249
▁bill	-3250
entreprise	-3251
émission	-3252
zé	-3253
▁propos	-3254
▁psych	-3255
▁tchèque	-3256
▁arané	-3257
▁aranéomorphes	-3258
nements	-3259
onné	-3260
légu	-3261
▁canal	-3262
▁patron	-3263
ophie	-3264
aide	-3265
administra	-3266
▁march	-3267
entrée	-3268
utilis	-3269
roy	-3270
▁vienne	-3271
heim	-3272
▁mission	-3273
▁mexique	-3274
▁propriété	-3275
▁urbaine	-3276
▁chanteuse	-3277
▁néerlandais	-3278
ario	-3279
ami	-3280
▁classique	-3281
▁lignes	-3282
▁scénariste	-3283
fer	-3284
▁développé	-3285
▁slov	-3286
bar	-3287
ype	-3288
▁reven	-3289
▁vert	-3290
esc	-3291
▁institu	-3292
▁croix	-3293
und	-3294
ster	-3295
▁nécess	-3296
▁industr	-3297
▁q	-3298
▁contemp	-3299
▁employ	-3300
olo	-3301
▁capitaine	-3302
ss	-3303
▁artistes	-3304
▁michael	-3305
opt	-3306
▁littérature	-3307
itz	-3308
▁celles	-3309
▁technique	-3310
▁(«	-3311
alisée	-3312
▁jeunesse	-3313
ling	-3314
amérique	-3315
▁lor	-3316
orld	-3317
dou	-3318
▁marine	-3319
▁rio	-3320
▁emb	-3321
agnes	-3322
étaire	-3323
▁comporte	-3324
tées	-3325
▁som	-3326
▁exer	-3327
▁graph	-3328
▁pratique	-3329
▁extra	-3330
▁côtés	-3331
▁association	-3332
ogue	-3333
ize	-3334
▁notre	-3335
▁ham	-3336
france	-3337
▁mass	-3338
écur	-3339
oure	-3340
▁guy	-3341
▁stra	-3342
▁gard	-3343
▁ko	-3344
▁bruxelles	-3345
anth	-3346
▁—	-3347
ément	-3348
▁beaux	-3349
▁angleterre	-3350
▁regroup	-3351
▁publiée	-3352
▁ferrovi	-3353
▁statut	-3354
aven	-3355
seud	-3356
ires	-3357
▁maroc	-3358
▁passé	-3359
▁mathéma	-3360
▁renom	-3361
▁serbie	-3362
▁ing	-3363
▁forces	-3364
▁»)	-3365
▁critique	-3366
▁wall	-3367
▁vue	-3368
▁compo	-3369
istant	-3370
lacement	-3371
riture	-3372
abbaye	-3373
▁fi	-3374
▁bol	-3375
▁dél	-3376
gin	-3377
anger	-3378
▁métro	-3379
▁reti	-3380
▁plante	-3381
del	-3382
▁/	-3383
▁disput	-3384
▁band	-3385
▁reb	-3386
▁générale	-3387
▁hauteur	-3388
▁anton	-3389
▁toutefois	-3390
▁collège	-3391
édie	-3392
rois	-3393
▁vér	-3394
▁déta	-3395
▁suède	-3396
çant	-3397
▁caract	-3398
▁contempor	-3399
▁ordre	-3400
pital	-3401
ça	-3402
▁city	-3403
▁guill	-3404
océ	-3405
▁élim	-3406
▁chic	-3407
édifice	-3408
▁fonctions	-3409
any	-3410
▁ry	-3411
dit	-3412
pin	-3413
êtes	-3414
▁andré	-3415
ries	-3416
▁vainqueur	-3417
▁dédi	-3418
ms	-3419
▁ul	-3420
▁demande	-3421
▁apparaît	-3422
ttes	-3423
lam	-3424
▁instru	-3425
organisation	-3426
hel	-3427
▁hon	-3428
▁dyn	-3429
▁surnom	-3430
arn	-3431
élevait	-3432
▁amb	-3433
administration	-3434
▁cime	-3435
bur	-3436
état	-3437
▁affaires	-3438
tivité	-3439
▁den	-3440
▁activités	-3441
▁claude	-3442
▁frères	-3443
ides	-3444
▁mém	-3445
ctions	-3446
pereur	-3447
▁évoluant	-3448
dro	-3449
jean	-3450
opéra	-3451
sud	-3452
side	-3453
asie	-3454
▁colombie	-3455
▁dessinée	-3456
▁sert	-3457
uy	-3458
mph	-3459
▁cathéd	-3460
▁régionale	-3461
▁administrative	-3462
gen	-3463
▁disting	-3464
▁régions	-3465
▁diverses	-3466
▁biblioth	-3467
illeurs	-3468
tié	-3469
▁belle	-3470
zz	-3471
tur	-3472
ologne	-3473
▁sommet	-3474
▁organisé	-3475
▁quin	-3476
▁françaises	-3477
▁rapidement	-3478
oque	-3479
▁méc	-3480
▁front	-3481
mbl	-3482
▁architec	-3483
▁test	-3484
ets	-3485
▁disque	-3486
▁assez	-3487
tice	-3488
▁carl	-3489
▁park	-3490
▁noms	-3491
▁dispose	-3492
▁fleuve	-3493
▁gas	-3494
▁bret	-3495
▁commencé	-3496
Église	-3497
▁heures	-3498
iant	-3499
▁forêt	-3500
▁gouverneur	-3501
▁naturel	-3502
▁athlète	-3503
▁afrique	-3504
▁bernard	-3505
▁jack	-3506
hann	-3507
▁agric	-3508
▁hame	-3509
▁continu	-3510
▁ho	-3511
▁santa	-3512
▁fonde	-3513
▁peint	-3514
ographe	-3515
▁issu	-3516
▁parall	-3517
▁police	-3518
▁),	-3519
bor	-3520
▁uti	-3521
▁appartenait	-3522
▁législatives	-3523
▁ci	-3524
▁colon	-3525
australie	-3526
▁fondateur	-3527
▁pon	-3528
▁sœur	-3529
▁modèle	-3530
▁pot	-3531
▁problè	-3532
▁politiques	-3533
▁bot	-3534
istique	-3535
entraî	-3536
▁bay	-3537
▁proté	-3538
ative	-3539
ht	-3540
▁poète	-3541
▁gui	-3542
louis	-3543
oue	-3544
▁réparti	-3545
▁crée	-3546
mière	-3547
00.	-3548
chée	-3549
ocat	-3550
ovo	-3551
uelle	-3552
▁collec	-3553
▁recons	-3554
▁meilleure	-3555
▁wh	-3556
agné	-3557
▁constitué	-3558
ses	-3559
▁camer	-3560
▁professionnelle	-3561
▁fou	-3562
▁personnages	-3563
▁étrang	-3564
ll	-3565
▁chinois	-3566
▁contribu	-3567
▁eut	-3568
▁réserve	-3569
▁chargé	-3570
▁lis	-3571
bl	-3572
onomie	-3573
▁pseud	-3574
fication	-3575
▁retraite	-3576
kin	-3577
▁paroisse	-3578
cht	-3579
▁aband	-3580
aste	-3581
ado	-3582
▁titulaire	-3583
mage	-3584
▁serait	-3585
▁coureur	-3586
▁essentiellement	-3587
hiver	-3588
yo	-3589
▁ra	-3590
ives	-3591
▁symb	-3592
cosse	-3593
observ	-3594
uste	-3595
▁sav	-3596
▁fai	-3597
▁mc	-3598
▁pom	-3599
béc	-3600
ão	-3601
▁cathédrale	-3602
moine	-3603
ius	-3604
▁prendre	-3605
▁nuit	-3606
▁australie	-3607
▁hand	-3608
ration	-3609
nord	-3610
bon	-3611
vre	-3612
▁toul	-3613
▁époque	-3614
▁social	-3615
▁surface	-3616
▁ouvrages	-3617
rs	-3618
▁bassin	-3619
▁phase	-3620
astique	-3621
▁danse	-3622
indi	-3623
▁commerce	-3624
▁tournée	-3625
hône	-3626
▁influ	-3627
▁jui	-3628
▁objet	-3629
rir	-3630
duc	-3631
itant	-3632
▁campagne	-3633
din	-3634
▁hor	-3635
pal	-3636
fil	-3637
▁cimetière	-3638
▁hongrie	-3639
▁romans	-3640
chant	-3641
▁fondation	-3642
▁ferroviaire	-3643
ydro	-3644
▁affluent	-3645
arg	-3646
▁constitue	-3647
▁dor	-3648
ield	-3649
▁cinquième	-3650
▁force	-3651
▁méth	-3652
▁municipal	-3653
▁royale	-3654
▁bes	-3655
iciel	-3656
▁officiellement	-3657
xte	-3658
manie	-3659
lav	-3660
hé	-3661
▁polic	-3662
▁science	-3663
▁original	-3664
▁diam	-3665
ault	-3666
▁revient	-3667
▁bé	-3668
▁inaug	-3669
▁prénom	-3670
▁fant	-3671
▁rog	-3672
▁chasse	-3673
orchestre	-3674
▁cur	-3675
▁québéc	-3676
▁personne	-3677
▁world	-3678
▁cœur	-3679
▁cu	-3680
ormais	-3681
▁marché	-3682
▁â	-3683
▁classi	-3684
▁majorité	-3685
."	-3686
emb	-3687
cha	-3688
▁vars	-3689
ali	-3690
▁évé	-3691
alg	-3692
ulté	-3693
▁anciens	-3694
▁champions	-3695
ater	-3696
▁peter	-3697
▁couleurs	-3698
,0	-3699
▁gam	-3700
▁façon	-3701
▁artistique	-3702
sons	-3703
ôles	-3704
▁cub	-3705
▁opéra	-3706
▁plut	-3707
onique	-3708
unes	-3709
▁sab	-3710
▁league	-3711
▁desservie	-3712
pa	-3713
▁naissance	-3714
aya	-3715
appel	-3716
ín	-3717
uil	-3718
autor	-3719
yme	-3720
lément	-3721
▁bob	-3722
▁mariage	-3723
▁désormais	-3724
▁permettant	-3725
▁soc	-3726
explo	-3727
▁maria	-3728
eux	-3729
▁rejoindre	-3730
▁participation	-3731
cia	-3732
inet	-3733
ram	-3734
▁varsovie	-3735
iro	-3736
▁dos	-3737
▁presse	-3738
▁actuel	-3739
▁bureau	-3740
onnes	-3741
▁accord	-3742
▁pied	-3743
▁bonne	-3744
▁(),	-3745
▁envoy	-3746
▁prod	-3747
aly	-3748
▁portug	-3749
▁mode	-3750
▁amérique	-3751
ulture	-3752
▁places	-3753
_0	-3754
▁brig	-3755
▁réun	-3756
▁dénom	-3757
kov	-3758
▁préfecture	-3759
êche	-3760
▁charge	-3761
issue	-3762
anique	-3763
▁respec	-3764
▁propose	-3765
▁remplacé	-3766
▁ém	-3767
▁lycée	-3768
▁quoti	-3769
utenant	-3770
▁pilote	-3771
▁tok	-3772
▁spectac	-3773
▁dispon	-3774
▁nam	-3775
▁pen	-3776
ature	-3777
hôtel	-3778
▁principales	-3779
▁marse	-3780
▁entreprise	-3781
▁colle	-3782
énage	-3783
▁flam	-3784
▁fav	-3785
▁travaillé	-3786
ary	-3787
▁fu	-3788
▁européen	-3789
ód	-3790
▁tient	-3791
inaire	-3792
▁promo	-3793
▁scientifique	-3794
▁limite	-3795
idi	-3796
fl	-3797
hom	-3798
▁max	-3799
ieuse	-3800
▁naturelle	-3801
▁andre	-3802
▁défenseur	-3803
▁na	-3804
▁protection	-3805
▁là	-3806
▁tombe	-3807
▁ailleurs	-3808
▁patrimoine	-3809
angl	-3810
olit	-3811
▁cd	-3812
nd	-3813
joint	-3814
reuves	-3815
▁droits	-3816
▁gren	-3817
▁finan	-3818
▁possible	-3819
▁maxim	-3820
▁chicago	-3821
▁relie	-3822
bel	-3823
▁franch	-3824
▁peinture	-3825
nent	-3826
hu	-3827
▁traite	-3828
▁indépend	-3829
▁parents	-3830
▁observ	-3831
ight	-3832
▁détru	-3833
anterie	-3834
▁gaz	-3835
termin	-3836
▁école	-3837
▁die	-3838
avec	-3839
▁défini	-3840
time	-3841
hic	-3842
▁moitié	-3843
acité	-3844
▁franco	-3845
arité	-3846
▁inférie	-3847
▁christian	-3848
▁université	-3849
▁individu	-3850
▁cord	-3851
▁sélections	-3852
▁contrôle	-3853
bé	-3854
▁traverse	-3855
▁structure	-3856
▁massif	-3857
▁(000	-3858
inde	-3859
ètes	-3860
ato	-3861
▁expéri	-3862
▁mach	-3863
▁fourn	-3864
▁annonce	-3865
▁républic	-3866
ory	-3867
▁gagn	-3868
▁baie	-3869
bonne	-3870
▁arrêté	-3871
▁canadienne	-3872
▁vu	-3873
▁tomb	-3874
otype	-3875
ila	-3876
▁calend	-3877
mit	-3878
▁sécur	-3879
▁formule	-3880
▁dr	-3881
ègre	-3882
▁constitution	-3883
rick	-3884
▁disputé	-3885
▁gestion	-3886
sib	-3887
▁ach	-3888
▁loire	-3889
ige	-3890
industr	-3891
cin	-3892
▁docteur	-3893
▁borde	-3894
wood	-3895
tention	-3896
▁poule	-3897
▁vitesse	-3898
▁exist	-3899
uits	-3900
franç	-3901
▁berg	-3902
▁contraire	-3903
rénées	-3904
▁médecine	-3905
dr	-3906
hal	-3907
itime	-3908
▁réserv	-3909
▁guillaume	-3910
▁alph	-3911
alisation	-3912
aga	-3913
champ	-3914
▁jazz	-3915
▁pé	-3916
lique	-3917
▁semble	-3918
▁sn	-3919
empereur	-3920
▁barc	-3921
▁nous	-3922
▁compétitions	-3923
▁administratif	-3924
oup	-3925
▁altitude	-3926
enseignement	-3927
▁final	-3928
▁inde	-3929
▁frank	-3930
qués	-3931
▁iden	-3932
marie	-3933
▁former	-3934
▁mit	-3935
▁certain	-3936
uz	-3937
▁probablement	-3938
▁chemins	-3939
▁médecin	-3940
dessus	-3941
▁douze	-3942
df	-3943
rov	-3944
erson	-3945
▁congrès	-3946
lack	-3947
▁chevalier	-3948
▁fau	-3949
▁far	-3950
érale	-3951
appar	-3952
▁chré	-3953
▁suédois	-3954
▁mour	-3955
iés	-3956
▁daniel	-3957
▁discip	-3958
bach	-3959
▁josé	-3960
autrich	-3961
▁milan	-3962
▁ferme	-3963
enir	-3964
▁occupe	-3965
▁it	-3966
▁édité	-3967
▁compose	-3968
▁roche	-3969
▁maurice	-3970
▁féminine	-3971
laires	-3972
▁actif	-3973
océan	-3974
voie	-3975
▁fol	-3976
sivement	-3977
▁gir	-3978
▁barb	-3979
▁dirigé	-3980
istance	-3981
▁entrep	-3982
cles	-3983
▁diplômé	-3984
▁conv	-3985
esti	-3986
mas	-3987
icien	-3988
iser	-3989
quels	-3990
ima	-3991
▁baseball	-3992
énieur	-3993
loire	-3994
▁om	-3995
sc	-3996
▁johann	-3997
nov	-3998
rement	-3999
illa	-4000
▁épreuves	-4001
▁épous	-4002
olé	-4003
▁alli	-4004
▁physique	-4005
fam	-4006
▁circul	-4007
▁mazovie	-4008
▁activité	-4009
èles	-4010
▁nicolas	-4011
▁presque	-4012
ophe	-4013
aka	-4014
amph	-4015
▁sold	-4016
▁pau	-4017
jac	-4018
▁calendrier	-4019
aro	-4020
aptis	-4021
▁voi	-4022
▁hall	-4023
▁quant	-4024
▁locale	-4025
ousse	-4026
▁morce	-4027
▁diss	-4028
eric	-4029
▁derrière	-4030
▁nig	-4031
▁"",	-4032
▁véhic	-4033
ologiques	-4034
▁littéraire	-4035
nant	-4036
▁mess	-4037
▁victoires	-4038
▁via	-4039
non	-4040
▁stock	-4041
▁poids	-4042
▁basée	-4043
▁siècle	-4044
▁bir	-4045
▁temple	-4046
▁afric	-4047
▁peuple	-4048
aces	-4049
pare	-4050
▁santé	-4051
▁dj	-4052
otes	-4053
▁change	-4054
▁propriétaire	-4055
▁éléments	-4056
▁da	-4057
▁souten	-4058
ignant	-4059
▁marseille	-4060
mor	-4061
▁spr	-4062
▁régional	-4063
ander	-4064
enc	-4065
hy	-4066
▁Łód	-4067
▁aéri	-4068
▁cm	-4069
rad	-4070
▁battu	-4071
▁ball	-4072
▁petites	-4073
▁hel	-4074
▁Łódź	-4075
▁entièrement	-4076
▁inté	-4077
▁barcelon	-4078
▁rece	-4079
▁moderne	-4080
dan	-4081
gée	-4082
▁gor	-4083
inté	-4084
lem	-4085
▁céré	-4086
présid	-4087
▁trente	-4088
▁zones	-4089
wan	-4090
▁maje	-4091
▁traité	-4092
▁lettre	-4093
▁couple	-4094
▁doctor	-4095
▁lun	-4096
▁feuilles	-4097
▁paci	-4098
▁banque	-4099
▁montre	-4100
▁troupes	-4101
adel	-4102
iennes	-4103
tré	-4104
▁junior	-4105
▁jardin	-4106
▁lieux	-4107
mal	-4108
mos	-4109
▁magn	-4110
architecte	-4111
▁automobile	-4112
déric	-4113
▁normand	-4114
▁nouveaux	-4115
▁cherche	-4116
▁règne	-4117
▁plutôt	-4118
▁artiste	-4119
autriche	-4120
▁devi	-4121
▁enseigne	-4122
industrie	-4123
▁attaché	-4124
pron	-4125
obil	-4126
▁monast	-4127
▁blanche	-4128
ross	-4129
▁pav	-4130
ipp	-4131
▁déclar	-4132
awa	-4133
émo	-4134
▁eaux	-4135
▁ha	-4136
lectron	-4137
▁compil	-4138
jan	-4139
▁diffusé	-4140
adie	-4141
▁texte	-4142
▁henry	-4143
▁laiss	-4144
▁avaient	-4145
▁terres	-4146
▁classée	-4147
▁mê	-4148
▁pod	-4149
cro	-4150
▁suivi	-4151
▁bert	-4152
▁=	-4153
▁finlande	-4154
▁collaboration	-4155
infanterie	-4156
▁espagnole	-4157
▁boy	-4158
iche	-4159
▁piano	-4160
▁cameroun	-4161
▁zo	-4162
▁culturel	-4163
▁volley	-4164
▁concep	-4165
▁distance	-4166
▁organisée	-4167
▁bibliothèque	-4168
titre	-4169
onte	-4170
▁rurale	-4171
▁régulièrement	-4172
ashington	-4173
▁sélectionné	-4174
▁philosophie	-4175
▁dériv	-4176
▁bâtiments	-4177
▁chau	-4178
▁lieutenant	-4179
ics	-4180
iège	-4181
▁sécurité	-4182
▁valeur	-4183
▁arb	-4184
icale	-4185
ava	-4186
▁sul	-4187
▁recherches	-4188
▁prague	-4189
▁rencontres	-4190
rup	-4191
▁utilise	-4192
▁hy	-4193
rh	-4194
▁noire	-4195
quie	-4196
umes	-4197
où	-4198
long	-4199
▁faç	-4200
▁devenue	-4201
▁plat	-4202
▁moteur	-4203
tine	-4204
dd	-4205
osa	-4206
▁aucune	-4207
▁boulev	-4208
ader	-4209
▁garde	-4210
abe	-4211
▁continue	-4212
▁cantons	-4213
▁qualité	-4214
▁récompens	-4215
▁initialement	-4216
▁trains	-4217
.-	-4218
▁mettre	-4219
ores	-4220
install	-4221
▁sat	-4222
zi	-4223
▁économique	-4224
▁abrite	-4225
▁dépend	-4226
▁secteur	-4227
commun	-4228
truire	-4229
▁syndic	-4230
étab	-4231
▁hameau	-4232
▁jaune	-4233
▁prépar	-4234
▁concerne	-4235
nor	-4236
quête	-4237
iteurs	-4238
▁comédie	-4239
▁responsable	-4240
rire	-4241
▁reine	-4242
▁deme	-4243
▁ruis	-4244
▁ress	-4245
▁posséd	-4246
ingen	-4247
▁fas	-4248
▁chacun	-4249
▁nov	-4250
▁camb	-4251
▁ouvrage	-4252
▁?	-4253
érer	-4254
gh	-4255
itre	-4256
▁(0000,	-4257
oser	-4258
ivre	-4259
lir	-4260
▁guer	-4261
="	-4262
▁stand	-4263
▁concern	-4264
▁femelle	-4265
▁toulouse	-4266
▁île	-4267
▁uk	-4268
▁avocat	-4269
▁semaine	-4270
ister	-4271
▁réuss	-4272
▁impéri	-4273
▁directement	-4274
occup	-4275
▁jon	-4276
aéroport	-4277
▁consul	-4278
▁intitulé	-4279
▁vieux	-4280
ev	-4281
ep	-4282
▁orth	-4283
ju	-4284
roche	-4285
▁hug	-4286
▁prononciation	-4287
▁rod	-4288
cf	-4289
duite	-4290
▁barcelone	-4291
▁alter	-4292
▁élector	-4293
rel	-4294
vet	-4295
▁grav	-4296
▁socialiste	-4297
▁sports	-4298
▁dernières	-4299
cop	-4300
ppe	-4301
▁dieu	-4302
urée	-4303
omo	-4304
onge	-4305
▁accep	-4306
▁couvre	-4307
▁enregistré	-4308
▁succède	-4309
▁sites	-4310
sw	-4311
▁inspi	-4312
▁décret	-4313
▁défaite	-4314
▁passer	-4315
▁mandat	-4316
uela	-4317
▁adop	-4318
als	-4319
▁relations	-4320
▁semaines	-4321
reau	-4322
criptions	-4323
trême	-4324
dame	-4325
▁sang	-4326
▁chev	-4327
▁anglaise	-4328
▁pâ	-4329
▁imm	-4330
▁démocratique	-4331
alpes	-4332
▁terr	-4333
▁rose	-4334
installe	-4335
aquie	-4336
engage	-4337
▁adap	-4338
▁témo	-4339
▁députés	-4340
▁washington	-4341
étude	-4342
anda	-4343
▁bil	-4344
▁fabric	-4345
▁post	-4346
▁hommage	-4347
▁kos	-4348
▁neu	-4349
anes	-4350
paravant	-4351
▁gol	-4352
▁isra	-4353
▁promotion	-4354
▁piste	-4355
▁articles	-4356
opération	-4357
▁ouverte	-4358
▁rôles	-4359
cteurs	-4360
lexe	-4361
lier	-4362
ophone	-4363
illy	-4364
▁carol	-4365
▁portugal	-4366
▁comé	-4367
oivent	-4368
▁prati	-4369
▁logiciel	-4370
▁japonaise	-4371
▁intro	-4372
▁hongrois	-4373
▁train	-4374
▁barrage	-4375
▁nar	-4376
ensis	-4377
lent	-4378
alisme	-4379
eld	-4380
▁liber	-4381
ival	-4382
mation	-4383
bra	-4384
▁arabe	-4385
▁fleurs	-4386
▁léon	-4387
▁stan	-4388
▁by	-4389
dium	-4390
▁parcours	-4391
mét	-4392
▁américains	-4393
agon	-4394
▁branche	-4395
▁longtemps	-4396
▁composition	-4397
▁doll	-4398
▁illus	-4399
ida	-4400
arriv	-4401
angé	-4402
ool	-4403
▁adapt	-4404
▁réalisée	-4405
oto	-4406
▁arrive	-4407
▁mâle	-4408
▁intègre	-4409
▁forêts	-4410
zer	-4411
▁war	-4412
▁rené	-4413
▁reprise	-4414
▁sin	-4415
▁condam	-4416
▁lan	-4417
ison	-4418
riques	-4419
moins	-4420
▁juste	-4421
▁régiment	-4422
endra	-4423
▁bourgogne	-4424
▁fréqu	-4425
▁format	-4426
ussi	-4427
▁norvège	-4428
▁entour	-4429
▁recueil	-4430
▁appelés	-4431
élève	-4432
line	-4433
avoir	-4434
▁play	-4435
▁quelque	-4436
▁sw	-4437
arde	-4438
▁consacré	-4439
quier	-4440
▁enfant	-4441
▁officier	-4442
amour	-4443
▁sportive	-4444
abilité	-4445
▁filles	-4446
orég	-4447
▁constituée	-4448
rien	-4449
lantique	-4450
▁().	-4451
▁ski	-4452
▁nour	-4453
▁ot	-4454
ser	-4455
▁voc	-4456
▁universitaire	-4457
igu	-4458
▁formes	-4459
▁rach	-4460
écriture	-4461
architecture	-4462
▁fid	-4463
▁bate	-4464
▁frédéric	-4465
▁sole	-4466
▁créer	-4467
▁confir	-4468
rin	-4469
famille	-4470
hor	-4471
▁cha	-4472
▁familles	-4473
▁lub	-4474
umb	-4475
▁masculin	-4476
▁ris	-4477
formations	-4478
tab	-4479
hr	-4480
tille	-4481
▁domicile	-4482
▁sources	-4483
animation	-4484
▁doctorat	-4485
▁publication	-4486
▁séné	-4487
pre	-4488
▁bordeaux	-4489
▁marcel	-4490
▁nu	-4491
paul	-4492
ited	-4493
dier	-4494
▁black	-4495
olis	-4496
▁violon	-4497
▁sel	-4498
▁navire	-4499
▁xii	-4500
/00	-4501
import	-4502
▁pét	-4503
arque	-4504
▁cous	-4505
▁finit	-4506
ried	-4507
▁dun	-4508
▁soir	-4509
▁clo	-4510
▁sex	-4511
▁occasion	-4512
▁auparavant	-4513
▁favor	-4514
▁textes	-4515
érant	-4516
▁personnalités	-4517
▁originale	-4518
▁exc	-4519
▁courant	-4520
▁uniquement	-4521
més	-4522
▁rav	-4523
▁pier	-4524
▁servi	-4525
indép	-4526
▁conservatoire	-4527
issent	-4528
▁régime	-4529
▁monastère	-4530
▁prison	-4531
▁nul	-4532
▁local	-4533
▁glob	-4534
▁montagnes	-4535
pologne	-4536
▁trouver	-4537
▁représenté	-4538
vd	-4539
▁exemplaires	-4540
▁ng	-4541
▁hui	-4542
▁trouvent	-4543
▁musicale	-4544
▁alexandre	-4545
▁serp	-4546
▁participer	-4547
itat	-4548
▁tam	-4549
▁découvre	-4550
▁stras	-4551
inv	-4552
▁commandant	-4553
▁tub	-4554
dis	-4555
ider	-4556
▁approxim	-4557
prononciation	-4558
▁romaine	-4559
▁prise	-4560
mir	-4561
▁thème	-4562
▁auteurs	-4563
écriv	-4564
anni	-4565
▁gh	-4566
▁corée	-4567
▁fus	-4568
▁faut	-4569
▁web	-4570
▁dub	-4571
lication	-4572
▁nos	-4573
▁retrouv	-4574
▁ri	-4575
▁arché	-4576
èd	-4577
▁hors	-4578
▁musical	-4579
▁modif	-4580
▁maintenant	-4581
ulation	-4582
▁"(	-4583
▁dol	-4584
▁réunion	-4585
▁oise	-4586
phe	-4587
▁amis	-4588
luence	-4589
▁téléfil	-4590
▁madrid	-4591
▁théorie	-4592
▁événements	-4593
abeth	-4594
▁mang	-4595
▁indépendant	-4596
▁rencontrent	-4597
ía	-4598
▁seine	-4599
▁veut	-4600
▁north	-4601
▁riche	-4602
entiel	-4603
tisme	-4604
▁you	-4605
▁reconstru	-4606
itude	-4607
▁forte	-4608
agric	-4609
▁net	-4610
.,	-4611
haus	-4612
▁(00,0	-4613
cule	-4614
Écosse	-4615
▁choix	-4616
▁antoine	-4617
▁francisco	-4618
▁fabri	-4619
▁esc	-4620
▁prêtre	-4621
▁maisons	-4622
fond	-4623
▁relation	-4624
▁salon	-4625
▁bretagne	-4626
rey	-4627
▁diman	-4628
▁limitée	-4629
▁princes	-4630
sen	-4631
▁gagne	-4632
▁mam	-4633
▁naît	-4634
▁justice	-4635
▁lee	-4636
rol	-4637
▁bleu	-4638
▁parten	-4639
▁ailes	-4640
vić	-4641
▁conçu	-4642
deux	-4643
/0000	-4644
▁développ	-4645
▁faculté	-4646
cen	-4647
hou	-4648
médi	-4649
assade	-4650
▁évoluait	-4651
▁han	-4652
ignon	-4653
▁ther	-4654
▁médailles	-4655
êtres	-4656
emark	-4657
artic	-4658
▁college	-4659
▁venez	-4660
œurs	-4661
térêt	-4662
ticien	-4663
▁courses	-4664
▁capacité	-4665
isés	-4666
▁nage	-4667
fred	-4668
▁anciennes	-4669
alph	-4670
▁territori	-4671
uck	-4672
gi	-4673
jon	-4674
▁théor	-4675
▁diplôme	-4676
▁décor	-4677
▁troph	-4678
division	-4679
tières	-4680
▁retourne	-4681
▁kaz	-4682
▁loin	-4683
iner	-4684
▁vivant	-4685
▁portant	-4686
▁myth	-4687
elli	-4688
▁rall	-4689
ibiens	-4690
see	-4691
cor	-4692
iale	-4693
▁king	-4694
▁Ég	-4695
▁totale	-4696
chen	-4697
▁bru	-4698
▁grèce	-4699
▁brésilienne	-4700
ibles	-4701
▁comment	-4702
▁répartis	-4703
tée	-4704
▁solo	-4705
glom	-4706
▁ling	-4707
clus	-4708
observatoire	-4709
wo	-4710
ypte	-4711
▁insc	-4712
▁vent	-4713
▁partis	-4714
▁industriel	-4715
aptiste	-4716
▁variété	-4717
▁choisi	-4718
▁subs	-4719
▁jules	-4720
▁géorg	-4721
▁étudié	-4722
▁fro	-4723
ergie	-4724
ref	-4725
ridge	-4726
▁avent	-4727
▁rot	-4728
▁civile	-4729
indépendance	-4730
▁anth	-4731
Île	-4732
▁manif	-4733
▁stre	-4734
▁financi	-4735
vic	-4736
tric	-4737
▁établissement	-4738
▁gold	-4739
mil	-4740
▁joueuse	-4741
quin	-4742
▁soi	-4743
▁aliment	-4744
▁présenté	-4745
▁vii	-4746
nien	-4747
▁demand	-4748
▁meilleures	-4749
térieure	-4750
win	-4751
▁tan	-4752
aisse	-4753
thur	-4754
▁britanniques	-4755
▁traditionn	-4756
ailleurs	-4757
unk	-4758
annes	-4759
▁star	-4760
anmoins	-4761
bs	-4762
▁utilisés	-4763
▁ajou	-4764
00)	-4765
▁bac	-4766
▁mémoire	-4767
▁tempéra	-4768
▁bab	-4769
▁roger	-4770
zélande	-4771
▁néanmoins	-4772
chevêque	-4773
▁forment	-4774
▁mark	-4775
positions	-4776
▁diffic	-4777
▁norm	-4778
▁bomb	-4779
ipel	-4780
▁rub	-4781
▁tribun	-4782
trém	-4783
▁trip	-4784
zaine	-4785
▁ern	-4786
autom	-4787
▁saut	-4788
pen	-4789
run	-4790
▁genève	-4791
▁réé	-4792
oirs	-4793
▁personnel	-4794
guer	-4795
▁tokyo	-4796
▁arc	-4797
▁romain	-4798
arrivée	-4799
uclé	-4800
▁lancé	-4801
mel	-4802
▁pêche	-4803
▁cyc	-4804
ben	-4805
exploitation	-4806
▁civil	-4807
▁fir	-4808
ativement	-4809
univers	-4810
▁liège	-4811
▁majeure	-4812
information	-4813
▁german	-4814
uer	-4815
▁strasbourg	-4816
prète	-4817
mier	-4818
▁marié	-4819
▁fern	-4820
▁pénins	-4821
▁allemands	-4822
▁rare	-4823
▁volont	-4824
▁légère	-4825
loi	-4826
ionn	-4827
jectif	-4828
▁terminé	-4829
▁patronyme	-4830
▁sauv	-4831
▁wind	-4832
wn	-4833
▁lev	-4834
▁surv	-4835
▁offre	-4836
miques	-4837
▁lutte	-4838
▁nik	-4839
▁découv	-4840
▁méri	-4841
▁élève	-4842
monte	-4843
▁venezuela	-4844
▁turquie	-4845
agriculture	-4846
espace	-4847
▁accident	-4848
▁associé	-4849
geois	-4850
▁futur	-4851
▁kr	-4852
▁prim	-4853
ariste	-4854
▁donner	-4855
▁norvég	-4856
▁entreprises	-4857
▁compr	-4858
ows	-4859
auc	-4860
▁portugais	-4861
▁techniques	-4862
erine	-4863
▁adjoint	-4864
▁paix	-4865
▁sixième	-4866
▁internet	-4867
▁color	-4868
▁convention	-4869
▁licence	-4870
▁bad	-4871
▁sportif	-4872
▁nomme	-4873
▁aller	-4874
▁voies	-4875
▁poursuit	-4876
cz	-4877
▁cade	-4878
▁dar	-4879
iées	-4880
▁occit	-4881
▁clip	-4882
▁mons	-4883
▁détermin	-4884
▁passant	-4885
▁connaît	-4886
tures	-4887
▁school	-4888
▁fal	-4889
▁indien	-4890
▁conséqu	-4891
riel	-4892
▁texas	-4893
▁provinci	-4894
aki	-4895
▁union	-4896
▁relégu	-4897
ella	-4898
attaquant	-4899
▁vrai	-4900
▁ev	-4901
légation	-4902
▁nég	-4903
▁mig	-4904
ctures	-4905
▁traduit	-4906
▁boulevard	-4907
cio	-4908
ctor	-4909
▁monts	-4910
▁promu	-4911
▁crat	-4912
▁naz	-4913
▁cuis	-4914
▁chamb	-4915
▁maladie	-4916
owo	-4917
▁flori	-4918
amphibiens	-4919
▁gardien	-4920
▁conseill	-4921
▁ts	-4922
président	-4923
▁accueille	-4924
▁occidentale	-4925
ugu	-4926
▁hôtel	-4927
▁toponyme	-4928
alie	-4929
▁inconn	-4930
sier	-4931
▁poissons	-4932
▁lour	-4933
ellation	-4934
icales	-4935
tim	-4936
lot	-4937
▁lois	-4938
fr	-4939
▁hautes	-4940
▁actuelle	-4941
▁ali	-4942
▁simil	-4943
isées	-4944
ographiques	-4945
▁candidat	-4946
entraîneur	-4947
▁problèmes	-4948
▁durée	-4949
▁eug	-4950
dienne	-4951
gg	-4952
rec	-4953
ray	-4954
▁danemark	-4955
▁ruisseau	-4956
▁constant	-4957
onale	-4958
tein	-4959
▁volu	-4960
ero	-4961
▁macéd	-4962
▁assure	-4963
▁pouvant	-4964
▁jim	-4965
irlande	-4966
▁fédéral	-4967
▁argentine	-4968
ament	-4969
▁élus	-4970
▁militaires	-4971
osh	-4972
inage	-4973
▁(,	-4974
gare	-4975
▁fix	-4976
▁munich	-4977
▁sand	-4978
oh	-4979
heure	-4980
▁religieux	-4981
▁repê	-4982
▁confond	-4983
▁lesquels	-4984
iance	-4985
▁mans	-4986
olie	-4987
▁antérie	-4988
▁tran	-4989
embourg	-4990
▁onze	-4991
▁soleil	-4992
▁grecque	-4993
mie	-4994
▁diffusion	-4995
▁rol	-4996
▁congo	-4997
▁amoure	-4998
▁faveur	-4999
)"	-5000
▁effectue	-5001
▁travailler	-5002
unité	-5003
▁duo	-5004
▁musicien	-5005
▁pourrait	-5006
▁fréquent	-5007
▁cup	-5008
artiste	-5009
▁villa	-5010
rime	-5011
▁placé	-5012
bc	-5013
▁navires	-5014
▁destin	-5015
▁sie	-5016
tiennent	-5017
▁pens	-5018
▁relais	-5019
aies	-5020
▁parle	-5021
▁gris	-5022
eter	-5023
arrière	-5024
▁fête	-5025
ensité	-5026
▁hauts	-5027
aissent	-5028
▁chim	-5029
amo	-5030
dfn	-5031
▁majeur	-5032
▁boul	-5033
▁vérit	-5034
▁dollars	-5035
mus	-5036
▁ib	-5037
▁hyp	-5038
▁sénateur	-5039
▁line	-5040
▁décision	-5041
▁gér	-5042
▁chili	-5043
▁alpes	-5044
▁caval	-5045
▁mary	-5046
▁hill	-5047
pour	-5048
▁disney	-5049
▁gil	-5050
▁québécois	-5051
▁méditer	-5052
▁traduction	-5053
▁normandie	-5054
▁smith	-5055
▁péninsule	-5056
▁documentaire	-5057
oiles	-5058
eri	-5059
▁assass	-5060
▁pointe	-5061
extérieur	-5062
▁inspiré	-5063
▁bell	-5064
▁coun	-5065
▁telles	-5066
▁gla	-5067
iki	-5068
▁sl	-5069
▁hans	-5070
sia	-5071
por	-5072
▁simon	-5073
▁émission	-5074
études	-5075
▁hos	-5076
martin	-5077
▁sociale	-5078
bret	-5079
▁oppos	-5080
▁situation	-5081
▁baron	-5082
endu	-5083
▁diplom	-5084
rut	-5085
▁plateau	-5086
▁voiture	-5087
onto	-5088
▁plein	-5089
françois	-5090
▁compris	-5091
ropolit	-5092
▁partage	-5093
▁référ	-5094
▁symph	-5095
▁conditions	-5096
alyse	-5097
ribue	-5098
chement	-5099
▁cabinet	-5100
mich	-5101
onnée	-5102
▁metal	-5103
▁démission	-5104
▁élevé	-5105
bour	-5106
affaires	-5107
gro	-5108
▁célé	-5109
▁support	-5110
ria	-5111
▁faible	-5112
▁contrairement	-5113
▁virgin	-5114
▁augment	-5115
▁médaill	-5116
lées	-5117
field	-5118
tz	-5119
▁juge	-5120
mile	-5121
▁versions	-5122
▁vég	-5123
ergne	-5124
▁seront	-5125
agas	-5126
▁transfor	-5127
▁sun	-5128
▁tib	-5129
▁répert	-5130
alex	-5131
get	-5132
▁conne	-5133
▁sénat	-5134
low	-5135
létisme	-5136
▁nouvel	-5137
omp	-5138
▁électron	-5139
dio	-5140
▁labor	-5141
▁vas	-5142
▁Â	-5143
pp	-5144
▁parf	-5145
▁sculpteur	-5146
▁domaines	-5147
▁réélu	-5148
▁disponible	-5149
▁kn	-5150
▁départemental	-5151
▁importants	-5152
ild	-5153
économie	-5154
▁famili	-5155
ken	-5156
quelles	-5157
▁inscrits	-5158
jam	-5159
meub	-5160
▁volume	-5161
▁arn	-5162
▁concernant	-5163
▁live	-5164
ör	-5165
▁dynas	-5166
▁kam	-5167
▁aqu	-5168
▁nationales	-5169
▁',	-5170
▁scol	-5171
▁fonds	-5172
ogie	-5173
avière	-5174
écrivain	-5175
▁lot	-5176
sor	-5177
▁vont	-5178
▁apprend	-5179
léans	-5180
▁rendre	-5181
▁fleur	-5182
▁phare	-5183
▁atti	-5184
akh	-5185
▁fédérale	-5186
▁internationales	-5187
▁complexe	-5188
▁mathématiques	-5189
▁giov	-5190
▁érig	-5191
▁métrage	-5192
▁tué	-5193
▁oblig	-5194
▁passion	-5195
▁profonde	-5196
ng	-5197
usé	-5198
oupage	-5199
▁infor	-5200
▁typ	-5201
sectes	-5202
▁bosnien	-5203
▁appare	-5204
▁sénégal	-5205
atri	-5206
▁émis	-5207
▁mys	-5208
▁doivent	-5209
tern	-5210
▁vendu	-5211
▁cercle	-5212
ouch	-5213
▁héros	-5214
acées	-5215
▁manche	-5216
onse	-5217
xique	-5218
▁blu	-5219
▁remportée	-5220
asi	-5221
bat	-5222
▁restauration	-5223
▁antonio	-5224
▁voyageurs	-5225
bro	-5226
lic	-5227
▁dal	-5228
▁établi	-5229
▁patrick	-5230
▁rat	-5231
▁).	-5232
▁pacifique	-5233
▁luxembourg	-5234
▁végét	-5235
▁juan	-5236
▁légion	-5237
▁dramatique	-5238
ür	-5239
monie	-5240
▁nad	-5241
▁architecte	-5242
▁conte	-5243
▁décès	-5244
▁perform	-5245
▁championne	-5246
▁spécialisée	-5247
États	-5248
▁diamètre	-5249
▁nuclé	-5250
uration	-5251
▁dames	-5252
▁connus	-5253
▁jane	-5254
▁caractère	-5255
▁péd	-5256
vad	-5257
▁manus	-5258
▁din	-5259
▁natur	-5260
▁jér	-5261
▁réalisation	-5262
▁saur	-5263
années	-5264
▁studios	-5265
▁concerts	-5266
ueur	-5267
▁enter	-5268
▁amateur	-5269
▁issue	-5270
▁néerlandaise	-5271
▁az	-5272
▁caf	-5273
▁jés	-5274
▁vig	-5275
▁accueill	-5276
▁provinces	-5277
▁kir	-5278
ops	-5279
▁fontaine	-5280
py	-5281
▁sièges	-5282
▁pérou	-5283
vis	-5284
▁historien	-5285
▁distribution	-5286
onien	-5287
tronome	-5288
▁descend	-5289
▁quartiers	-5290
bu	-5291
tle	-5292
obl	-5293
activité	-5294
ake	-5295
▁situés	-5296
igny	-5297
▁identif	-5298
▁marche	-5299
▁scènes	-5300
▁dav	-5301
▁chiff	-5302
glomération	-5303
▁relativement	-5304
ivier	-5305
fi	-5306
▁dig	-5307
▁professionnels	-5308
▁hydro	-5309
▁cell	-5310
▁spécialisé	-5311
aute	-5312
▁enc	-5313
▁perdu	-5314
▁phén	-5315
dies	-5316
oï	-5317
éder	-5318
▁action	-5319
lave	-5320
▁permis	-5321
ymn	-5322
▁sté	-5323
usta	-5324
▁chin	-5325
new	-5326
ista	-5327
évêque	-5328
▁reconnu	-5329
▁épisode	-5330
douard	-5331
▁considérée	-5332
▁dite	-5333
▁%)	-5334
▁résistance	-5335
▁consom	-5336
▁atteindre	-5337
▁synth	-5338
▁envir	-5339
▁arrondissement	-5340
▁direct	-5341
zième	-5342
▁ciném	-5343
▁from	-5344
▁kur	-5345
▁repro	-5346
pol	-5347
igner	-5348
▁ici	-5349
accès	-5350
erican	-5351
▁squ	-5352
insp	-5353
équip	-5354
▁pel	-5355
▁perman	-5356
▁merc	-5357
▁devait	-5358
▁néo	-5359
▁laur	-5360
hôpital	-5361
▁bout	-5362
▁critiques	-5363
mad	-5364
▁unité	-5365
▁lille	-5366
▁écoss	-5367
▁communication	-5368
▁musiciens	-5369
▁kg	-5370
ink	-5371
œuf	-5372
▁seuls	-5373
▁acces	-5374
▁voici	-5375
▁sz	-5376
▁décrite	-5377
atie	-5378
▁datant	-5379
▁compilation	-5380
▁tron	-5381
▁représentants	-5382
▁venise	-5383
▁toronto	-5384
ska	-5385
▁dég	-5386
occident	-5387
▁contenant	-5388
▁mieux	-5389
▁raconte	-5390
▁portent	-5391
▁conservé	-5392
▁résultat	-5393
▁chute	-5394
▁façade	-5395
</	-5396
▁fun	-5397
tation	-5398
▁ale	-5399
▁aî	-5400
pole	-5401
ij	-5402
▁endro	-5403
▁minim	-5404
▁transféré	-5405
▁las	-5406
▁projets	-5407
troit	-5408
▁mut	-5409
ariat	-5410
▁prisonn	-5411
asa	-5412
rhône	-5413
▁ken	-5414
▁armées	-5415
▁compar	-5416
baptiste	-5417
▁ta	-5418
▁objets	-5419
utilisation	-5420
ylv	-5421
▁xi	-5422
▁standard	-5423
▁philipp	-5424
ancy	-5425
père	-5426
▁élè	-5427
▁pit	-5428
▁consiste	-5429
▁sauf	-5430
▁ingénieur	-5431
▁0000-00	-5432
▁nantes	-5433
rez	-5434
olly	-5435
▁faci	-5436
▁vel	-5437
effec	-5438
▁lancer	-5439
▁largement	-5440
▁navig	-5441
▁localités	-5442
verse	-5443
▁conten	-5444
▁cass	-5445
▁pay	-5446
▁kal	-5447
▁handball	-5448
▁enregistre	-5449
▁balle	-5450
▁carte	-5451
▁libération	-5452
▁soldats	-5453
▁connaître	-5454
uth	-5455
chet	-5456
▁vente	-5457
▁note	-5458
▁municipalités	-5459
mise	-5460
▁manuscrit	-5461
▁systèmes	-5462
▁téléfilm	-5463
éduc	-5464
athlétisme	-5465
▁construire	-5466
owa	-5467
illé	-5468
▁masse	-5469
▁organisation	-5470
▁prit	-5471
▁repris	-5472
érés	-5473
so	-5474
itaine	-5475
▁communiste	-5476
▁remont	-5477
redi	-5478
▁river	-5479
▁savoir	-5480
▁dynastie	-5481
▁comport	-5482
▁épreuve	-5483
▁voul	-5484
▁rê	-5485
▁animaux	-5486
▁lomb	-5487
▁missions	-5488
.)	-5489
▁calcul	-5490
▁élèves	-5491
urr	-5492
▁envoyé	-5493
’"	-5494
onal	-5495
▁mélan	-5496
ologiste	-5497
▁soutien	-5498
mans	-5499
wards	-5500
▁gri	-5501
▁portes	-5502
fils	-5503
▁remarqu	-5504
▁brésilien	-5505
bus	-5506
▁gon	-5507
shire	-5508
▁basque	-5509
▁protest	-5510
ela	-5511
iga	-5512
▁pyrénées	-5513
▁south	-5514
▁roumanie	-5515
▁mexic	-5516
▁tenant	-5517
oble	-5518
▁autrefois	-5519
▁locaux	-5520
▁côtes	-5521
▁collabore	-5522
actrice	-5523
▁matière	-5524
bul	-5525
▁médiév	-5526
▁dispos	-5527
▁indon	-5528
▁privée	-5529
▁stations	-5530
▁ait	-5531
lisme	-5532
agence	-5533
ieur	-5534
▁réforme	-5535
agée	-5536
▁galax	-5537
▁habitu	-5538
▁exéc	-5539
eria	-5540
▁micro	-5541
▁spir	-5542
▁souh	-5543
▁multip	-5544
▁types	-5545
exist	-5546
archipel	-5547
hl	-5548
peau	-5549
▁reliant	-5550
quet	-5551
▁big	-5552
bretagne	-5553
aches	-5554
▁thèse	-5555
una	-5556
ns	-5557
ctu	-5558
acte	-5559
▁souff	-5560
▁retrouver	-5561
▁état	-5562
hard	-5563
veu	-5564
issi	-5565
onymes	-5566
▁lud	-5567
peur	-5568
édée	-5569
▁dvd	-5570
oin	-5571
avent	-5572
anglais	-5573
istiques	-5574
▁tourne	-5575
wig	-5576
▁écoles	-5577
▁marqué	-5578
dessous	-5579
▁barème	-5580
▁situées	-5581
▁tente	-5582
reurs	-5583
algérie	-5584
entielle	-5585
▁lumière	-5586
ery	-5587
▁termes	-5588
▁tab	-5589
▁désigné	-5590
▁internationaux	-5591
▁orientale	-5592
▁étudiants	-5593
▁baptis	-5594
▁respectivement	-5595
nh	-5596
leur	-5597
▁genres	-5598
▁ak	-5599
▁chacune	-5600
▁trophée	-5601
▁ze	-5602
albert	-5603
trémité	-5604
comté	-5605
seine	-5606
▁matérie	-5607
▁australien	-5608
zna	-5609
▁tribunal	-5610
▁giovanni	-5611
exposition	-5612
ougos	-5613
▁Âge	-5614
▁pseudonyme	-5615
uci	-5616
▁jouant	-5617
érite	-5618
▁alban	-5619
ardo	-5620
▁demeure	-5621
▁exclus	-5622
▁étape	-5623
cel	-5624
brun	-5625
▁alain	-5626
▁signé	-5627
cu	-5628
▁box	-5629
▁instrument	-5630
▁quotidien	-5631
▁commercial	-5632
angle	-5633
▁dimen	-5634
mou	-5635
▁adul	-5636
▁ard	-5637
tile	-5638
▁natale	-5639
▁photographie	-5640
▁renommée	-5641
med	-5642
▁aven	-5643
optères	-5644
▁raymond	-5645
▁légende	-5646
▁permettent	-5647
ondes	-5648
▁gares	-5649
▁honor	-5650
▁syl	-5651
▁déroulée	-5652
sterdam	-5653
▁déten	-5654
affront	-5655
▁castel	-5656
rag	-5657
geant	-5658
▁progres	-5659
kar	-5660
▁vier	-5661
▁floride	-5662
▁apost	-5663
▁séjour	-5664
▁nobles	-5665
▁véhicules	-5666
▁queue	-5667
éducation	-5668
▁acteurs	-5669
brit	-5670
▁mau	-5671
liers	-5672
kos	-5673
board	-5674
dans	-5675
accord	-5676
▁défait	-5677
▁gymn	-5678
▁spe	-5679
aco	-5680
▁pert	-5681
enregist	-5682
▁productions	-5683
▁humi	-5684
ieuses	-5685
▁crist	-5686
lises	-5687
▁karl	-5688
▁laurent	-5689
ship	-5690
▁comitat	-5691
▁mauv	-5692
▁classification	-5693
dorf	-5694
étrique	-5695
▁renouv	-5696
▁améli	-5697
▁programmes	-5698
dont	-5699
▁satell	-5700
chester	-5701
▁algéri	-5702
▁cycle	-5703
▁destiné	-5704
▁provient	-5705
▁cach	-5706
▁resse	-5707
▁telle	-5708
ories	-5709
▁cler	-5710
▁cle	-5711
▁morts	-5712
▁score	-5713
▁conserve	-5714
▁conférence	-5715
▁installé	-5716
avenue	-5717
▁méthode	-5718
▁kra	-5719
expression	-5720
▁fame	-5721
bou	-5722
▁danois	-5723
▁green	-5724
▁clim	-5725
▁souver	-5726
cus	-5727
▁"".	-5728
▁mains	-5729
▁lag	-5730
apest	-5731
▁rien	-5732
▁parallèle	-5733
▁cot	-5734
▁doute	-5735
▁quinze	-5736
assi	-5737
▁reten	-5738
▁fen	-5739
ey	-5740
idée	-5741
▁éponyme	-5742
nik	-5743
▁utilisant	-5744
enci	-5745
▁high	-5746
▁plans	-5747
article	-5748
▁commandement	-5749
▁poésie	-5750
aid	-5751
grade	-5752
utée	-5753
arre	-5754
▁protég	-5755
▁rassemb	-5756
ît	-5757
▁sacré	-5758
éran	-5759
▁("")	-5760
▁conservateur	-5761
▁question	-5762
▁guitariste	-5763
▁supplément	-5764
ési	-5765
▁printemps	-5766
▁ga	-5767
▁jeanne	-5768
▁julien	-5769
▁adam	-5770
alem	-5771
▁liberté	-5772
▁libéral	-5773
▁scientifiques	-5774
urss	-5775
eries	-5776
▁septième	-5777
▁déci	-5778
▁florence	-5779
lerie	-5780
▁visite	-5781
▁signifiant	-5782
▁tv	-5783
▁remonte	-5784
chan	-5785
▁européens	-5786
▁vivre	-5787
canada	-5788
quées	-5789
▁puissance	-5790
▁guitare	-5791
▁distingue	-5792
▁0.0	-5793
court	-5794
once	-5795
▁conduit	-5796
▁ker	-5797
▁chir	-5798
of	-5799
▁publics	-5800
▁vac	-5801
▁traitement	-5802
▁hav	-5803
▁produite	-5804
dal	-5805
▁spati	-5806
▁boston	-5807
▁gérard	-5808
▁successivement	-5809
▁rédi	-5810
now	-5811
▁budapest	-5812
▁são	-5813
ultan	-5814
ophones	-5815
▁densité	-5816
châ	-5817
lette	-5818
marne	-5819
uguay	-5820
▁courte	-5821
▁répond	-5822
▁performance	-5823
urant	-5824
▁dimanche	-5825
étran	-5826
▁districts	-5827
usz	-5828
▁armén	-5829
hon	-5830
▁dre	-5831
▁bah	-5832
▁dû	-5833
▁bavière	-5834
igné	-5835
▁nationaux	-5836
oz	-5837
▁armes	-5838
jacques	-5839
arrêt	-5840
▁caroline	-5841
bin	-5842
▁hard	-5843
▁mid	-5844
▁majoritaire	-5845
▁autriche	-5846
▁ep	-5847
▁golfe	-5848
apes	-5849
▁clair	-5850
orien	-5851
▁cultiv	-5852
oyer	-5853
▁fres	-5854
▁cond	-5855
▁island	-5856
▁poisson	-5857
▁milli	-5858
▁walter	-5859
enh	-5860
grou	-5861
▁marchand	-5862
▁holotype	-5863
▁anal	-5864
▁arthur	-5865
▁souv	-5866
▁couronne	-5867
▁spectacle	-5868
lia	-5869
▁cinémat	-5870
van	-5871
icon	-5872
▁agricole	-5873
gre	-5874
▁fried	-5875
▁réussit	-5876
ué	-5877
▁pur	-5878
▁halte	-5879
oyen	-5880
▁spécifique	-5881
▁grég	-5882
odo	-5883
rac	-5884
▁dédiée	-5885
▁consécu	-5886
écos	-5887
▁mène	-5888
▁sorte	-5889
lètes	-5890
▁semi	-5891
▁matéri	-5892
▁déte	-5893
▁gram	-5894
▁process	-5895
argentine	-5896
▁frances	-5897
▁scénario	-5898
▁quitter	-5899
uellement	-5900
▁blo	-5901
▁laisse	-5902
▁kat	-5903
▁cartes	-5904
▁caractères	-5905
orde	-5906
tia	-5907
▁classés	-5908
oiseaux	-5909
▁iran	-5910
▁illustra	-5911
▁détroit	-5912
nam	-5913
inger	-5914
▁sembl	-5915
▁united	-5916
▁sociétés	-5917
çons	-5918
ignent	-5919
▁démar	-5920
▁paroles	-5921
▁bun	-5922
chage	-5923
ciel	-5924
initi	-5925
▁penn	-5926
osc	-5927
▁importantes	-5928
ols	-5929
aises	-5930
▁adapté	-5931
américain	-5932
▁étrangères	-5933
ás	-5934
checs	-5935
inn	-5936
ylvanie	-5937
yes	-5938
▁singles	-5939
aria	-5940
▁group	-5941
▁véritable	-5942
▁ky	-5943
kina	-5944
▁loge	-5945
▁chœur	-5946
▁ouvre	-5947
▁tourné	-5948
pét	-5949
▁collabor	-5950
▁territoires	-5951
igan	-5952
▁concept	-5953
▁température	-5954
▁délégu	-5955
▁heure	-5956
hors	-5957
▁prolong	-5958
▁répartition	-5959
tements	-5960
▁yougos	-5961
▁mm	-5962
èdent	-5963
▁bloc	-5964
▁volcan	-5965
national	-5966
sé	-5967
▁disparu	-5968
▁rues	-5969
▁bak	-5970
zu	-5971
▁participent	-5972
▁conception	-5973
▁naples	-5974
▁confront	-5975
▁parvient	-5976
▁bet	-5977
▁métropolit	-5978
▁manifest	-5979
agers	-5980
▁jette	-5981
▁simplement	-5982
tour	-5983
▁tournois	-5984
▁princesse	-5985
try	-5986
▁magas	-5987
▁vite	-5988
▁colonel	-5989
lim	-5990
▁rand	-5991
not	-5992
▁inscription	-5993
▁ah	-5994
▁conflit	-5995
▁linguis	-5996
▁impériale	-5997
▁quator	-5998
▁plaine	-5999
vid	-6000
▁hou	-6001
terie	-6002
▁tire	-6003
▁couvert	-6004
▁galerie	-6005
actuel	-6006
▁issus	-6007
mid	-6008
▁statue	-6009
▁fortement	-6010
▁versant	-6011
▁mixte	-6012
▁étro	-6013
▁syd	-6014
▁mots	-6015
actuelle	-6016
tir	-6017
▁concent	-6018
▁acquis	-6019
franche	-6020
▁possib	-6021
▁wid	-6022
▁commiss	-6023
00,	-6024
▁dirigée	-6025
▁catherine	-6026
▁permettre	-6027
▁croise	-6028
▁représentation	-6029
▁lauré	-6030
▁rentre	-6031
▁hun	-6032
▁ton	-6033
▁tourisme	-6034
▁employé	-6035
▁policier	-6036
▁traversée	-6037
iec	-6038
orer	-6039
▁invent	-6040
▁asie	-6041
abil	-6042
seaux	-6043
▁connaissance	-6044
inae	-6045
▁tax	-6046
▁pauv	-6047
▁résidence	-6048
holm	-6049
▁fel	-6050
▁habite	-6051
fiction	-6052
znań	-6053
▁tableaux	-6054
▁archives	-6055
▁noc	-6056
▁tun	-6057
ouveau	-6058
sal	-6059
▁informations	-6060
▁rares	-6061
▁tunisie	-6062
▁cyclisme	-6063
▁bow	-6064
▁limit	-6065
▁mén	-6066
▁grade	-6067
phère	-6068
▁aérienne	-6069
▁opération	-6070
atre	-6071
▁régulière	-6072
▁tôt	-6073
agglomération	-6074
ixe	-6075
agent	-6076
▁vécu	-6077
ulaires	-6078
▁proches	-6079
▁correspondant	-6080
▁inhum	-6081
▁hi	-6082
▁âge	-6083
clam	-6084
▁race	-6085
▁poznań	-6086
–0000	-6087
▁formée	-6088
▁occupé	-6089
▁réfug	-6090
allemand	-6091
régé	-6092
michel	-6093
mexique	-6094
▁sir	-6095
roise	-6096
▁redéc	-6097
▁edward	-6098
▁conseillers	-6099
swick	-6100
▁lorraine	-6101
▁complet	-6102
ito	-6103
▁battant	-6104
mberg	-6105
oléon	-6106
▁haw	-6107
▁attribué	-6108
▁salles	-6109
▁mourut	-6110
▁foss	-6111
mbourg	-6112
▁planète	-6113
oro	-6114
ffe	-6115
▁sigle	-6116
▁maîtres	-6117
▁privé	-6118
bri	-6119
▁corp	-6120
▁mouvements	-6121
là	-6122
▁élément	-6123
▁pros	-6124
▁certaine	-6125
▁Š	-6126
▁alphab	-6127
▁précédente	-6128
tue	-6129
dific	-6130
▁étoiles	-6131
▁mécan	-6132
ontario	-6133
▁fabrication	-6134
nis	-6135
▁fondateurs	-6136
▁conféd	-6137
▁apostolique	-6138
office	-6139
▁gagné	-6140
▁auv	-6141
cession	-6142
▁consacre	-6143
▁ari	-6144
▁grave	-6145
ûte	-6146
instru	-6147
cheté	-6148
▁vincent	-6149
▁lép	-6150
▁poursuiv	-6151
ife	-6152
écoslov	-6153
▁claire	-6154
ull	-6155
pell	-6156
▁bandes	-6157
▁tir	-6158
▁corn	-6159
environnement	-6160
diens	-6161
tiens	-6162
tar	-6163
▁hect	-6164
▁apparition	-6165
cas	-6166
▁engagé	-6167
adelph	-6168
▁award	-6169
▁propres	-6170
▁annoncé	-6171
▁én	-6172
▁provis	-6173
▁suppri	-6174
▁écrits	-6175
▁rattachée	-6176
▁départementale	-6177
▁génération	-6178
▁xiii	-6179
▁processus	-6180
▁dén	-6181
▁chal	-6182
▁secondaire	-6183
▁aura	-6184
▁organise	-6185
ku	-6186
▁décer	-6187
▁rouen	-6188
▁principe	-6189
gr	-6190
elin	-6191
▁street	-6192
▁she	-6193
▁jacob	-6194
isté	-6195
autoroute	-6196
cons	-6197
▁clar	-6198
prin	-6199
▁détruit	-6200
km	-6201
▁brown	-6202
▁mêmes	-6203
▁tribu	-6204
gio	-6205
lieue	-6206
usement	-6207
▁produire	-6208
▁surnommé	-6209
▁bag	-6210
▁nice	-6211
▁divisé	-6212
▁gabriel	-6213
dez	-6214
▁will	-6215
▁interprète	-6216
▁exécu	-6217
▁routes	-6218
▁matches	-6219
▁réaliser	-6220
▁provo	-6221
▁journée	-6222
▁spécial	-6223
▁chinoise	-6224
▁décro	-6225
iev	-6226
▁ques	-6227
▁ku	-6228
▁trône	-6229
trie	-6230
èces	-6231
▁disques	-6232
pas	-6233
▁scrut	-6234
▁zur	-6235
▁mâles	-6236
▁report	-6237
▁armée	-6238
▁poèmes	-6239
aph	-6240
▁présidence	-6241
▁bin	-6242
▁marquis	-6243
▁thaï	-6244
▁neveu	-6245
iano	-6246
athlon	-6247
▁algérie	-6248
▁établir	-6249
▁vla	-6250
▁contrô	-6251
▁couv	-6252
▁surve	-6253
oman	-6254
▁sydney	-6255
avance	-6256
térieures	-6257
▁advers	-6258
▁anciennement	-6259
avait	-6260
▁consacrée	-6261
▁vesti	-6262
▁steph	-6263
▁dési	-6264
▁appré	-6265
▁belgrade	-6266
▁stratég	-6267
well	-6268
▁end	-6269
▁téléph	-6270
▁saxe	-6271
▁company	-6272
▁distin	-6273
ingham	-6274
▁cratère	-6275
yde	-6276
▁plant	-6277
▁espace	-6278
▁européennes	-6279
▁entier	-6280
▁exerce	-6281
▁dau	-6282
▁yeux	-6283
yer	-6284
▁maréch	-6285
espèces	-6286
▁réalité	-6287
omie	-6288
▁chen	-6289
oblast	-6290
▁blues	-6291
▁doub	-6292
▁réaction	-6293
▁ut	-6294
▁avenue	-6295
▁rud	-6296
▁valen	-6297
▁appli	-6298
▁départements	-6299
garonne	-6300
entin	-6301
estres	-6302
▁portrait	-6303
▁arrière	-6304
▁nancy	-6305
▁socie	-6306
▁ordres	-6307
▁morceaux	-6308
riers	-6309
▁complète	-6310
▁victoria	-6311
len	-6312
bal	-6313
ouvrage	-6314
▁tchécoslov	-6315
▁auguste	-6316
▁love	-6317
▁leon	-6318
▁noy	-6319
▁électrique	-6320
sol	-6321
yr	-6322
▁publiés	-6323
▁franchise	-6324
▁ryth	-6325
▁chronique	-6326
▁musul	-6327
▁Č	-6328
anche	-6329
▁ott	-6330
▁wood	-6331
▁gens	-6332
▁herb	-6333
▁const	-6334
▁récup	-6335
▁accès	-6336
▁affir	-6337
▁indique	-6338
ío	-6339
▁comprenant	-6340
▁culmin	-6341
èche	-6342
▁castille	-6343
▁autrichienne	-6344
▁inclut	-6345
▁sier	-6346
▁galles	-6347
▁jurid	-6348
▁négoci	-6349
▁dessinateur	-6350
kins	-6351
ount	-6352
gas	-6353
▁vern	-6354
▁pla	-6355
maj	-6356
ardie	-6357
▁roc	-6358
▁marin	-6359
▁rénov	-6360
oung	-6361
ua	-6362
▁trés	-6363
ön	-6364
▁soul	-6365
▁crois	-6366
▁impli	-6367
▁femelles	-6368
▁fur	-6369
illus	-6370
▁kong	-6371
▁banlieue	-6372
▁lacs	-6373
▁up	-6374
aujourd	-6375
▁indépendante	-6376
▁seize	-6377
▁rouges	-6378
afric	-6379
préf	-6380
▁boliv	-6381
èlement	-6382
▁entrée	-6383
▁modèles	-6384
telle	-6385
▁croatie	-6386
▁constell	-6387
ason	-6388
via	-6389
aniste	-6390
▁russes	-6391
▁fri	-6392
▁difficile	-6393
gn	-6394
▁célèbres	-6395
▁tenu	-6396
▁impos	-6397
énergie	-6398
manuel	-6399
▁abb	-6400
tidae	-6401
▁unités	-6402
▁coc	-6403
cemment	-6404
gation	-6405
▁aéroport	-6406
▁scrutin	-6407
▁(000000)	-6408
▁géorgie	-6409
oma	-6410
▁muet	-6411
enfant	-6412
zen	-6413
▁crise	-6414
▁provisoire	-6415
▁intégré	-6416
▁+	-6417
▁peine	-6418
▁volumes	-6419
▁légèrement	-6420
▁sépare	-6421
stra	-6422
ün	-6423
▁tak	-6424
▁eli	-6425
▁dessins	-6426
oriz	-6427
intérêt	-6428
lore	-6429
▁ox	-6430
▁mines	-6431
orial	-6432
▁ax	-6433
gor	-6434
▁récemment	-6435
▁liban	-6436
▁slovaquie	-6437
▁manuel	-6438
yc	-6439
êter	-6440
▁rédacteur	-6441
▁lamb	-6442
▁fich	-6443
▁participa	-6444
adis	-6445
▁précédent	-6446
▁mettant	-6447
▁gras	-6448
nic	-6449
olet	-6450
▁lion	-6451
avier	-6452
▁boudd	-6453
ium	-6454
anna	-6455
▁alterna	-6456
itions	-6457
▁étoile	-6458
▁té	-6459
▁eau	-6460
drome	-6461
▁créd	-6462
▁muse	-6463
▁bulgar	-6464
wer	-6465
▁alfred	-6466
▁collections	-6467
▁..	-6468
▁ligues	-6469
▁bét	-6470
▁sanc	-6471
▁rab	-6472
▁expos	-6473
▁dév	-6474
▁refus	-6475
ologies	-6476
éron	-6477
▁»).	-6478
imm	-6479
andré	-6480
élor	-6481
▁lié	-6482
tal	-6483
▁liaison	-6484
▁tiss	-6485
▁éditeur	-6486
maine	-6487
▁laus	-6488
ims	-6489
britann	-6490
gs	-6491
▁moléc	-6492
uels	-6493
▁certif	-6494
▁génér	-6495
▁sémin	-6496
▁sauriens	-6497
▁électronique	-6498
zig	-6499
▁ji	-6500
▁posses	-6501
▁trin	-6502
▁kan	-6503
▁aires	-6504
▁archevêque	-6505
,00	-6506
▁bateau	-6507
rome	-6508
isément	-6509
▁émissions	-6510
▁litu	-6511
▁awards	-6512
allen	-6513
▁adaptation	-6514
▁filiale	-6515
ków	-6516
ersey	-6517
▁vote	-6518
▁bach	-6519
▁présentée	-6520
▁carlos	-6521
▁autrichien	-6522
▁métall	-6523
tillerie	-6524
ombe	-6525
athan	-6526
▁ventes	-6527
▁fernand	-6528
ducation	-6529
▁ross	-6530
orléans	-6531
▁attest	-6532
existence	-6533
▁×	-6534
stein	-6535
▁ras	-6536
▁scott	-6537
▁treize	-6538
▁seg	-6539
calif	-6540
▁allant	-6541
▁irlandais	-6542
sept	-6543
▁ki	-6544
▁vivent	-6545
▁fiction	-6546
▁conver	-6547
teaux	-6548
▁rhône	-6549
oa	-6550
▁quai	-6551
▁sait	-6552
▁pianiste	-6553
▁mineures	-6554
yin	-6555
▁philadelph	-6556
▁napoléon	-6557
▁renaissance	-6558
▁pétro	-6559
▁assistant	-6560
chés	-6561
▁raisons	-6562
▁bénéfic	-6563
onner	-6564
▁faite	-6565
rhin	-6566
tint	-6567
▁luis	-6568
rières	-6569
▁peuplée	-6570
▁ign	-6571
joseph	-6572
▁sujets	-6573
▁joe	-6574
▁town	-6575
▁chirurg	-6576
▁inauguré	-6577
▁postes	-6578
▁metz	-6579
▁vaud	-6580
▁cathol	-6581
▁wolf	-6582
▁maîtr	-6583
uge	-6584
▁brass	-6585
▁juifs	-6586
▁fortif	-6587
occidentale	-6588
ough	-6589
▁roch	-6590
cidae	-6591
▁intitulée	-6592
▁élue	-6593
▁représentée	-6594
▁%).	-6595
pellier	-6596
▁accompagné	-6597
▁personnalité	-6598
anges	-6599
esprit	-6600
▁costa	-6601
ises	-6602
▁tré	-6603
agascar	-6604
▁constellation	-6605
gène	-6606
dinand	-6607
▁jersey	-6608
▁kim	-6609
▁enne	-6610
▁proje	-6611
▁canon	-6612
laurent	-6613
▁entrepr	-6614
▁confér	-6615
▁aventures	-6616
bdom	-6617
▁aide	-6618
▁achev	-6619
▁phénom	-6620
▁langage	-6621
▁voitures	-6622
▁voisine	-6623
guerite	-6624
▁huitième	-6625
usage	-6626
▁réussi	-6627
éros	-6628
▁dic	-6629
inki	-6630
▁aj	-6631
▁évolué	-6632
▁agent	-6633
tension	-6634
bdomad	-6635
▁gó	-6636
▁locales	-6637
▁bourse	-6638
▁masculine	-6639
▁utilisées	-6640
obi	-6641
▁fred	-6642
▁affec	-6643
▁récompense	-6644
ernes	-6645
▁basil	-6646
▁sculpture	-6647
▁électorale	-6648
êché	-6649
▁rhén	-6650
▁mobil	-6651
intég	-6652
▁cart	-6653
▁turin	-6654
orro	-6655
▁moz	-6656
gers	-6657
▁god	-6658
▁kon	-6659
lés	-6660
liga	-6661
▁fland	-6662
▁moulin	-6663
▁ngc	-6664
▁cérémonie	-6665
▁maréchal	-6666
▁devenant	-6667
▁lind	-6668
▁égyp	-6669
▁accessible	-6670
▁puisque	-6671
▁sociales	-6672
bell	-6673
▁successeur	-6674
▁subdivision	-6675
▁fruits	-6676
▁mariée	-6677
var	-6678
acre	-6679
▁sprint	-6680
▁photographe	-6681
▁autorités	-6682
inal	-6683
▁auvergne	-6684
▁soix	-6685
▁brill	-6686
▁qualification	-6687
▁posi	-6688
▁publications	-6689
▁active	-6690
urie	-6691
▁mini	-6692
onnais	-6693
▁républicain	-6694
▁cod	-6695
▁véné	-6696
▁lanceur	-6697
▁hay	-6698
▁phyl	-6699
ivoire	-6700
▁"")	-6701
atus	-6702
paris	-6703
▁mong	-6704
▁comtes	-6705
▁quanti	-6706
▁noël	-6707
▁pad	-6708
▁remplace	-6709
▁produis	-6710
▁ran	-6711
▁soient	-6712
▁maritime	-6713
média	-6714
vième	-6715
range	-6716
▁malais	-6717
▁str	-6718
thi	-6719
▁sty	-6720
▁orch	-6721
▁montpellier	-6722
ticul	-6723
▁déplac	-6724
meuble	-6725
▁jones	-6726
▁sœurs	-6727
▁perfor	-6728
▁catégories	-6729
▁finlandais	-6730
▁serpents	-6731
▁nécessaire	-6732
▁emprun	-6733
set	-6734
▁jer	-6735
▁charl	-6736
▁blancs	-6737
▁symbole	-6738
techn	-6739
formes	-6740
▁biélor	-6741
Étienne	-6742
▁leader	-6743
▁white	-6744
▁madagascar	-6745
matiques	-6746
▁mythologie	-6747
▁relev	-6748
▁friedrich	-6749
▁pages	-6750
▁peintures	-6751
ws	-6752
▁turc	-6753
▁prises	-6754
▁recense	-6755
uri	-6756
▁savoie	-6757
▁manque	-6758
▁questions	-6759
▁hub	-6760
▁insp	-6761
▁parce	-6762
▁coord	-6763
uts	-6764
▁quad	-6765
▁auquel	-6766
▁puisqu	-6767
▁effectué	-6768
▁municipale	-6769
isp	-6770
britannique	-6771
west	-6772
▁ment	-6773
▁oncle	-6774
▁brigade	-6775
▁philippines	-6776
▁héri	-6777
étranger	-6778
▁clan	-6779
▁discipline	-6780
aure	-6781
▁ukrain	-6782
irs	-6783
avie	-6784
sous	-6785
ansas	-6786
▁écossais	-6787
▁religieuse	-6788
fre	-6789
▁raï	-6790
▁faits	-6791
▁jury	-6792
▁juridiction	-6793
omes	-6794
▁xvi	-6795
sibles	-6796
adé	-6797
▁ny	-6798
▁pul	-6799
orégion	-6800
▁latine	-6801
umul	-6802
▁aîné	-6803
oses	-6804
▁environs	-6805
▁cardi	-6806
▁imag	-6807
▁cés	-6808
▁nef	-6809
▁valle	-6810
▁tim	-6811
▁dédié	-6812
▁décla	-6813
▁maill	-6814
▁windows	-6815
▁jouent	-6816
▁constituent	-6817
▁traditionnel	-6818
times	-6819
ush	-6820
affrontent	-6821
▁théologie	-6822
▁cousin	-6823
▁moul	-6824
▁senti	-6825
▁deviendra	-6826
▁condamné	-6827
▁expériment	-6828
▁inférieur	-6829
▁same	-6830
▁récol	-6831
▁olivier	-6832
▁tend	-6833
▁podium	-6834
▁religion	-6835
ław	-6836
exception	-6837
bury	-6838
agement	-6839
ornie	-6840
ume	-6841
▁secondes	-6842
ingue	-6843
▁servant	-6844
▁économiques	-6845
▁secret	-6846
▁faso	-6847
▁victime	-6848
▁dimin	-6849
▁communautés	-6850
obe	-6851
▁columb	-6852
▁contemporain	-6853
californie	-6854
":	-6855
bois	-6856
▁remplacement	-6857
▁pak	-6858
▁astr	-6859
▁mike	-6860
aquitaine	-6861
nia	-6862
▁vaste	-6863
assadeur	-6864
▁recr	-6865
▁pleine	-6866
▁compter	-6867
lisabeth	-6868
éry	-6869
▁jackson	-6870
▁lav	-6871
ivalent	-6872
▁urbain	-6873
▁secondaires	-6874
▁amén	-6875
▁juniors	-6876
▁[ˈ	-6877
nowiki	-6878
▁biens	-6879
▁disputée	-6880
▁occitanie	-6881
helm	-6882
▁sié	-6883
▁ecc	-6884
▁ernest	-6885
rot	-6886
▁limitroph	-6887
▁repêchage	-6888
▁appr	-6889
▁remportant	-6890
▁débuté	-6891
▁morceau	-6892
▁lausanne	-6893
▁norvégien	-6894
ultés	-6895
ouri	-6896
alphab	-6897
▁prévu	-6898
▁constantin	-6899
▁décède	-6900
▁crimin	-6901
ersbourg	-6902
adt	-6903
▁dure	-6904
▁reçut	-6905
▁burkina	-6906
▁bog	-6907
▁croiss	-6908
ár	-6909
▁combats	-6910
▁corse	-6911
▁buc	-6912
▁bris	-6913
▁anc	-6914
▁vil	-6915
étiques	-6916
▁définitivement	-6917
▁boh	-6918
▁kab	-6919
▁décidé	-6920
▁affront	-6921
▁ron	-6922
ailier	-6923
▁autant	-6924
▁matériel	-6925
▁laboratoire	-6926
▁influen	-6927
▁cry	-6928
tv	-6929
▁récit	-6930
▁plas	-6931
▁enseign	-6932
ashi	-6933
▁banc	-6934
▁accompagn	-6935
elsinki	-6936
▁culminant	-6937
▁lesquelles	-6938
▁albanais	-6939
cie	-6940
▁palé	-6941
analyse	-6942
ator	-6943
env	-6944
▁navy	-6945
url	-6946
▁rattaché	-6947
san	-6948
finale	-6949
▁rail	-6950
▁frag	-6951
▁documents	-6952
ao	-6953
huit	-6954
▁goth	-6955
quateur	-6956
trois	-6957
▁moh	-6958
astronome	-6959
▁majeures	-6960
▁représenter	-6961
▁rhin	-6962
▁journaux	-6963
▁présentent	-6964
iane	-6965
▁ceci	-6966
▁différence	-6967
fra	-6968
▁sû	-6969
▁tradu	-6970
zan	-6971
▁pékin	-6972
ayant	-6973
phil	-6974
▁rédaction	-6975
▁wat	-6976
▁tournage	-6977
extrême	-6978
▁society	-6979
▁pourtant	-6980
▁quart	-6981
▁numérique	-6982
▁inéd	-6983
▁complé	-6984
agen	-6985
rivi	-6986
dém	-6987
▁bis	-6988
▁essais	-6989
▁rennes	-6990
occupation	-6991
▁ye	-6992
▁congré	-6993
èvement	-6994
▁aspect	-6995
▁orange	-6996
▁profit	-6997
▁finances	-6998
▁exclusive	-6999
▁remis	-7000
▁mah	-7001
▁terra	-7002
▁dame	-7003
imposer	-7004
▁brook	-7005
▁implant	-7006
lications	-7007
coré	-7008
▁climat	-7009
▁signal	-7010
▁guerres	-7011
▁classiques	-7012
Égypte	-7013
▁width	-7014
ceau	-7015
dele	-7016
arte	-7017
lési	-7018
▁traditionnelle	-7019
yan	-7020
▁williams	-7021
extrémité	-7022
▁folk	-7023
▁paulo	-7024
▁fall	-7025
ocrate	-7026
▁tol	-7027
▁coal	-7028
naires	-7029
▁présents	-7030
▁vierge	-7031
▁siècles	-7032
▁décid	-7033
▁tram	-7034
▁lépid	-7035
▁blessé	-7036
▁étapes	-7037
är	-7038
hop	-7039
▁rn	-7040
▁design	-7041
▁obtenir	-7042
▁dominique	-7043
▁vot	-7044
▁coloni	-7045
▁porto	-7046
▁gou	-7047
▁transports	-7048
acé	-7049
▁mens	-7050
▁drapeau	-7051
▁coureurs	-7052
▁qualifie	-7053
archie	-7054
▁médias	-7055
viennent	-7056
▁queens	-7057
▁alb	-7058
endo	-7059
▁raf	-7060
▁one	-7061
▁révol	-7062
▁flan	-7063
house	-7064
ione	-7065
▁ric	-7066
issait	-7067
▁vaut	-7068
lix	-7069
▁nba	-7070
▁laval	-7071
▁contact	-7072
▁législat	-7073
nouveau	-7074
▁nag	-7075
▁lune	-7076
▁mille	-7077
▁couvent	-7078
▁opérations	-7079
▁amoureux	-7080
▁problème	-7081
▁circulation	-7082
▁émig	-7083
▁moto	-7084
▁cli	-7085
image	-7086
évolution	-7087
ardins	-7088
claude	-7089
graph	-7090
▁duché	-7091
▁calc	-7092
aba	-7093
▁vien	-7094
▁moyens	-7095
lavie	-7096
▁ressour	-7097
▁marqu	-7098
▁incar	-7099
omé	-7100
▁water	-7101
▁quarante	-7102
▁exception	-7103
▁pouss	-7104
▁pinyin	-7105
▁plage	-7106
oba	-7107
oît	-7108
▁thèmes	-7109
▁lew	-7110
▁lake	-7111
▁open	-7112
▁duquel	-7113
▁attaque	-7114
orpions	-7115
▁candidats	-7116
▁inscrite	-7117
▁00,0°	-7118
▁hamb	-7119
utation	-7120
▁culte	-7121
▁voire	-7122
ertain	-7123
▁métier	-7124
▁philadelphie	-7125
▁comics	-7126
▁placée	-7127
▁estimée	-7128
élite	-7129
gy	-7130
owe	-7131
tica	-7132
▁joua	-7133
nouv	-7134
reux	-7135
▁lien	-7136
▁compren	-7137
▁profondeur	-7138
▁État	-7139
uset	-7140
sant	-7141
▁machine	-7142
▁bulgarie	-7143
▁bén	-7144
▁hein	-7145
entité	-7146
▁eugène	-7147
▁souvenir	-7148
▁rempla	-7149
▁coupes	-7150
▁enterré	-7151
▁blue	-7152
▁méridi	-7153
▁délim	-7154
estin	-7155
▁fantas	-7156
▁(0-0	-7157
▁noter	-7158
alb	-7159
▁micr	-7160
▁athlètes	-7161
▁vieille	-7162
▁mesurent	-7163
dra	-7164
endie	-7165
▁reims	-7166
tus	-7167
▁stockholm	-7168
▁alphabétique	-7169
▁intéress	-7170
hai	-7171
▁parent	-7172
▁house	-7173
▁trafic	-7174
erts	-7175
usalem	-7176
kan	-7177
▁eric	-7178
▁marron	-7179
alo	-7180
▁enfance	-7181
▁donna	-7182
▁procès	-7183
▁départementales	-7184
▁real	-7185
▁adoles	-7186
marin	-7187
▁scand	-7188
▁»),	-7189
▁rhénanie	-7190
▁kl	-7191
▁servir	-7192
atelier	-7193
iration	-7194
▁incorp	-7195
▁desser	-7196
orce	-7197
pétersbourg	-7198
▁vision	-7199
▁vign	-7200
bdomadaire	-7201
▁territoriale	-7202
▁ethn	-7203
▁brian	-7204
enos	-7205
▁zurich	-7206
▁atlantique	-7207
enberg	-7208
▁réside	-7209
▁développer	-7210
affaire	-7211
▁lnh	-7212
▁valencien	-7213
▁jeff	-7214
▁poème	-7215
▁quatorze	-7216
▁suffixe	-7217
▁fermée	-7218
▁images	-7219
▁remplacée	-7220
▁serge	-7221
▁oiseaux	-7222
▁extrême	-7223
▁rib	-7224
▁clocher	-7225
▁champs	-7226
lach	-7227
établissement	-7228
lines	-7229
isa	-7230
▁hit	-7231
▁invité	-7232
▁trouvait	-7233
/0	-7234
▁mart	-7235
▁espoirs	-7236
▁noble	-7237
▁proven	-7238
▁chil	-7239
▁universités	-7240
▁donnée	-7241
▁lende	-7242
▁visible	-7243
▁technologie	-7244
oko	-7245
▁réputé	-7246
▁steve	-7247
▁coalition	-7248
▁expositions	-7249
mu	-7250
▁kent	-7251
▁janeiro	-7252
▁rois	-7253
▁noirs	-7254
▁sher	-7255
ollywood	-7256
top	-7257
▁rame	-7258
▁grenoble	-7259
urb	-7260
nier	-7261
eta	-7262
▁colline	-7263
▁ferdinand	-7264
▁prêté	-7265
▁prét	-7266
▁sid	-7267
ilé	-7268
olymp	-7269
▁chevaux	-7270
eli	-7271
▁noblesse	-7272
▁renouvel	-7273
insectes	-7274
▁changement	-7275
▁mentionné	-7276
mées	-7277
▁call	-7278
dl	-7279
cope	-7280
▁surmont	-7281
xi	-7282
▁gib	-7283
▁géré	-7284
▁similaire	-7285
▁matin	-7286
▁Émile	-7287
▁reconnaissance	-7288
▁mélange	-7289
erica	-7290
émont	-7291
▁raïon	-7292
▁niveaux	-7293
▁provenant	-7294
▁nau	-7295
▁gamme	-7296
▁bouddh	-7297
▁tiers	-7298
▁tony	-7299
inés	-7300
importance	-7301
uma	-7302
▁gener	-7303
henri	-7304
finales	-7305
▁beach	-7306
▁parler	-7307
odore	-7308
ett	-7309
▁café	-7310
▁théâ	-7311
work	-7312
▁rig	-7313
▁sib	-7314
▁chauss	-7315
▁sax	-7316
vil	-7317
major	-7318
▁bruno	-7319
ancé	-7320
▁botanique	-7321
▁prolon	-7322
▁constructeur	-7323
▁précisément	-7324
hér	-7325
▁vous	-7326
▁cn	-7327
▁démocrate	-7328
▁nick	-7329
▁normale	-7330
éditeur	-7331
▁possédait	-7332
denis	-7333
▁doté	-7334
▁murs	-7335
▁alexander	-7336
rane	-7337
ople	-7338
▁jr	-7339
▁baroque	-7340
▁ka	-7341
attaque	-7342
▁marguerite	-7343
▁papillon	-7344
venir	-7345
mix	-7346
hall	-7347
▁deb	-7348
utt	-7349
▁gö	-7350
feld	-7351
▁cyl	-7352
▁lendemain	-7353
▁mix	-7354
▁tay	-7355
hydro	-7356
irent	-7357
itt	-7358
▁entraîne	-7359
▁varie	-7360
▁courts	-7361
▁succéd	-7362
▁primaire	-7363
asser	-7364
▁virginie	-7365
▁río	-7366
influence	-7367
agh	-7368
▁troupe	-7369
gues	-7370
▁renommé	-7371
▁paroisses	-7372
acide	-7373
▁coopération	-7374
atlantique	-7375
▁retire	-7376
▁origine	-7377
lets	-7378
▁lip	-7379
▁dérivé	-7380
▁géographique	-7381
▁ecclési	-7382
▁largeur	-7383
▁racing	-7384
▁suivre	-7385
mettre	-7386
optère	-7387
▁considéra	-7388
▁populaires	-7389
▁contemporaine	-7390
itement	-7391
ensif	-7392
achuset	-7393
alu	-7394
pecteur	-7395
▁donnant	-7396
ographies	-7397
ogo	-7398
zów	-7399
▁arrêt	-7400
▁édifice	-7401
▁remporter	-7402
▁jum	-7403
appelle	-7404
▁confédération	-7405
▁guide	-7406
lectric	-7407
▁pionn	-7408
▁compét	-7409
▁relève	-7410
▁ordonné	-7411
▁cess	-7412
▁flotte	-7413
achusetts	-7414
blan	-7415
▁orn	-7416
▁maine	-7417
▁london	-7418
▁préfet	-7419
▁has	-7420
▁jar	-7421
calais	-7422
demment	-7423
▁compatri	-7424
sylvanie	-7425
▁connues	-7426
▁bart	-7427
doc	-7428
illés	-7429
▁00-00	-7430
▁succession	-7431
▁parallèlement	-7432
▁revues	-7433
▁congrégation	-7434
▁(0000–0000	-7435
▁construits	-7436
over	-7437
▁musiques	-7438
▁césar	-7439
▁chimie	-7440
▁informatique	-7441
▁choc	-7442
arb	-7443
▁caractéristique	-7444
▁culturelle	-7445
▁win	-7446
titution	-7447
▁remporta	-7448
▁trésor	-7449
▁divisée	-7450
▁remplacer	-7451
">	-7452
▁disparition	-7453
▁dehors	-7454
oe	-7455
▁pontif	-7456
▁endroit	-7457
cô	-7458
hong	-7459
▁environnement	-7460
▁parlementaire	-7461
▁océ	-7462
▁déménage	-7463
stan	-7464
▁américaines	-7465
▁ciel	-7466
▁million	-7467
▁administrateur	-7468
▁séqu	-7469
▁empire	-7470
usine	-7471
alphabet	-7472
▁passagers	-7473
▁gratte	-7474
▁tap	-7475
▁destinée	-7476
▁hectares	-7477
préfecture	-7478
phy	-7479
rets	-7480
▁inhumé	-7481
▁éte	-7482
▁macédoine	-7483
nu	-7484
ancée	-7485
fait	-7486
▁porter	-7487
▁Étab	-7488
▁provence	-7489
aris	-7490
onia	-7491
quiert	-7492
▁johnson	-7493
pk	-7494
▁vos	-7495
phal	-7496
▁particularité	-7497
incl	-7498
▁franz	-7499
▁cancer	-7500
▁Édouard	-7501
fia	-7502
hyp	-7503
▁verre	-7504
▁étages	-7505
▁clermont	-7506
▁prennent	-7507
▁mathématicien	-7508
▁désignation	-7509
médiaire	-7510
▁lord	-7511
▁épousa	-7512
▁comprenait	-7513
reb	-7514
▁regard	-7515
▁formant	-7516
▁louise	-7517
▁établie	-7518
▁inférieure	-7519
▁christophe	-7520
▁chefs	-7521
▁règles	-7522
gén	-7523
▁ivan	-7524
pie	-7525
▁réalisés	-7526
orée	-7527
▁écl	-7528
▁verte	-7529
station	-7530
saône	-7531
ovice	-7532
mances	-7533
▁libert	-7534
▁antique	-7535
zel	-7536
illage	-7537
étaires	-7538
▁pression	-7539
▁pronon	-7540
▁roland	-7541
▁prenant	-7542
américaine	-7543
▁contraint	-7544
▁redécoupage	-7545
▁philosophe	-7546
échecs	-7547
▁diale	-7548
▁composés	-7549
ody	-7550
▁garçon	-7551
▁hil	-7552
▁sanctu	-7553
opold	-7554
écrit	-7555
▁maîtrise	-7556
▁vainqueurs	-7557
esses	-7558
▁déclare	-7559
▁formations	-7560
iden	-7561
dus	-7562
mira	-7563
▁hér	-7564
unique	-7565
automne	-7566
▁anglo	-7567
▁plais	-7568
champion	-7569
▁acqu	-7570
▁young	-7571
aisne	-7572
▁galaxie	-7573
uan	-7574
èler	-7575
ection	-7576
▁gratu	-7577
alliance	-7578
▁concurr	-7579
▁davis	-7580
▁vendus	-7581
▁diego	-7582
▁pédag	-7583
▁sas	-7584
compos	-7585
cil	-7586
▁stéph	-7587
rose	-7588
ouz	-7589
olphe	-7590
▁fis	-7591
▁game	-7592
▁extrait	-7593
▁seigneurie	-7594
▁toit	-7595
actualité	-7596
▁feuille	-7597
▁conférences	-7598
abbé	-7599
▁performances	-7600
war	-7601
▁rendu	-7602
diction	-7603
cat	-7604
▁instruments	-7605
▁capital	-7606
iana	-7607
▁nas	-7608
▁00000	-7609
ctur	-7610
uter	-7611
▁wta	-7612
▁protéger	-7613
▁proch	-7614
▁mairie	-7615
▁pouvait	-7616
ect	-7617
borg	-7618
▁micros	-7619
▁jérusalem	-7620
▁suic	-7621
▁exclusivement	-7622
▁consist	-7623
▁dak	-7624
▁mous	-7625
atinat	-7626
▁modern	-7627
cell	-7628
deleine	-7629
▁wilhelm	-7630
oku	-7631
▁raj	-7632
▁chapitre	-7633
oly	-7634
▁québécoise	-7635
uro	-7636
toire	-7637
▁individuel	-7638
erc	-7639
▁rivières	-7640
▁mécanique	-7641
audi	-7642
▁colonie	-7643
▁pieds	-7644
▁samuel	-7645
▁israél	-7646
▁mél	-7647
exemp	-7648
▁estim	-7649
icat	-7650
till	-7651
▁dent	-7652
aska	-7653
▁lum	-7654
▁way	-7655
▁sortant	-7656
▁matern	-7657
▁dizaine	-7658
▁valence	-7659
pyrénées	-7660
allier	-7661
▁julie	-7662
face	-7663
▁flu	-7664
▁publiques	-7665
▁finaliste	-7666
inateur	-7667
emplacement	-7668
▁day	-7669
▁nucléaire	-7670
▁cens	-7671
étant	-7672
traction	-7673
pop	-7674
▁démont	-7675
▁forter	-7676
▁suédoise	-7677
▁commissaire	-7678
▁vladi	-7679
antoine	-7680
ior	-7681
▁georg	-7682
▁cannes	-7683
▁physi	-7684
▁élevée	-7685
▁pierres	-7686
osph	-7687
▁coré	-7688
delà	-7689
êques	-7690
▁law	-7691
owice	-7692
uscule	-7693
▁licenci	-7694
pont	-7695
maritime	-7696
▁présidentielle	-7697
▁jord	-7698
▁juive	-7699
▁inclus	-7700
▁églises	-7701
▁qualifié	-7702
lidae	-7703
▁isab	-7704
rix	-7705
▁divisions	-7706
ranée	-7707
▁wilaya	-7708
ertainment	-7709
▁répand	-7710
▁prestig	-7711
▁condition	-7712
▁séminaire	-7713
▁sais	-7714
aventure	-7715
kk	-7716
▁soup	-7717
eu	-7718
▁gand	-7719
▁totalement	-7720
atte	-7721
▁complè	-7722
▁square	-7723
▁établit	-7724
▁anna	-7725
raits	-7726
▁sable	-7727
lif	-7728
▁east	-7729
▁judic	-7730
opposition	-7731
▁dominic	-7732
▁commém	-7733
ouche	-7734
▁exposition	-7735
rine	-7736
▁mcc	-7737
lès	-7738
onna	-7739
▁peau	-7740
ases	-7741
▁jardins	-7742
▁annuelle	-7743
▁francesco	-7744
pit	-7745
luant	-7746
▁renfor	-7747
▁procure	-7748
gés	-7749
▁tac	-7750
▁mexico	-7751
▁humaine	-7752
oct	-7753
▁participations	-7754
▁pes	-7755
enregistrement	-7756
itants	-7757
▁socorro	-7758
▁benjam	-7759
▁dresse	-7760
▁dot	-7761
▁linear	-7762
geor	-7763
▁recom	-7764
bastien	-7765
isses	-7766
▁numéros	-7767
▁séd	-7768
inatoires	-7769
▁connait	-7770
▁abrit	-7771
▁admis	-7772
▁arbre	-7773
.).	-7774
cre	-7775
▁participant	-7776
▁med	-7777
▁chelem	-7778
▁typique	-7779
▁répertoire	-7780
cesseur	-7781
invent	-7782
▁lecture	-7783
▁profession	-7784
orne	-7785
pu	-7786
▁stef	-7787
▁religieuses	-7788
▁00°	-7789
▁appréci	-7790
▁victimes	-7791
issage	-7792
▁museum	-7793
▁découvrir	-7794
hib	-7795
▁santi	-7796
▁contexte	-7797
dre	-7798
expl	-7799
▁papier	-7800
▁interne	-7801
▁rééd	-7802
▁multiples	-7803
rif	-7804
aigne	-7805
▁cellules	-7806
▁chien	-7807
▁réparties	-7808
iaire	-7809
▁voisin	-7810
▁més	-7811
vres	-7812
▁pira	-7813
▁actions	-7814
▁défaites	-7815
▁catalogue	-7816
▁culturels	-7817
▁center	-7818
orf	-7819
▁aire	-7820
guinée	-7821
▁Éditions	-7822
▁rup	-7823
▁copa	-7824
▁midi	-7825
▁repose	-7826
▁vén	-7827
èses	-7828
ruption	-7829
▁denis	-7830
arme	-7831
▁rai	-7832
▁talent	-7833
▁letton	-7834
▁regroupant	-7835
▁pèler	-7836
▁tâ	-7837
▁aim	-7838
▁johannes	-7839
▁islam	-7840
▁centres	-7841
yon	-7842
▁cuba	-7843
▁ronde	-7844
▁évent	-7845
▁compositions	-7846
▁phys	-7847
▁déclin	-7848
▁indonésie	-7849
brunswick	-7850
amed	-7851
illons	-7852
▁refuse	-7853
▁cinquante	-7854
▁entertainment	-7855
▁terminant	-7856
▁ira	-7857
▁vul	-7858
▁ov	-7859
▁corporation	-7860
▁longues	-7861
▁show	-7862
rc	-7863
▁généraux	-7864
icaux	-7865
▁mira	-7866
▁interprété	-7867
▁vê	-7868
▁déroulent	-7869
acée	-7870
▁kol	-7871
bourne	-7872
▁gusta	-7873
tenir	-7874
▁pent	-7875
▁détec	-7876
▁gue	-7877
chent	-7878
agés	-7879
wald	-7880
▁recon	-7881
ierry	-7882
▁spectacles	-7883
▁chargée	-7884
▁essai	-7885
▁series	-7886
▁couverture	-7887
zona	-7888
ériques	-7889
▁yougoslavie	-7890
▁cross	-7891
▁intercommun	-7892
rimer	-7893
▁avion	-7894
kir	-7895
luc	-7896
▁sortir	-7897
▁ponts	-7898
▁modernes	-7899
▁buenos	-7900
▁ave	-7901
dun	-7902
isant	-7903
▁libéré	-7904
▁logements	-7905
▁boî	-7906
▁caus	-7907
▁crit	-7908
▁soixante	-7909
▁dénomination	-7910
entri	-7911
▁citoy	-7912
toral	-7913
▁souhait	-7914
▁littéralement	-7915
▁abou	-7916
▁directe	-7917
▁blanches	-7918
▁description	-7919
▁méditerranée	-7920
ency	-7921
itent	-7922
▁quarts	-7923
▁hond	-7924
expédition	-7925
▁panne	-7926
absence	-7927
▁souter	-7928
▁soutenu	-7929
▁histoires	-7930
enz	-7931
▁déclaré	-7932
▁commença	-7933
œufs	-7934
aguay	-7935
▁baill	-7936
▁arabes	-7937
▁sv	-7938
▁mainten	-7939
▁taï	-7940
odoxe	-7941
▁kilométrique	-7942
uch	-7943
cière	-7944
▁vingtaine	-7945
▁ressources	-7946
▁essay	-7947
▁âgé	-7948
▁sauve	-7949
▁effets	-7950
▁paraît	-7951
▁spiritu	-7952
▁dessus	-7953
odon	-7954
alisés	-7955
▁archite	-7956
prov	-7957
▁confl	-7958
▁challen	-7959
eller	-7960
relle	-7961
▁étudier	-7962
▁délégation	-7963
euros	-7964
▁rappel	-7965
▁classes	-7966
anat	-7967
assemble	-7968
êmes	-7969
▁haï	-7970
▁vik	-7971
▁prest	-7972
garde	-7973
▁yves	-7974
▁nigeria	-7975
▁dauph	-7976
▁dessert	-7977
▁australienne	-7978
▁mir	-7979
▁rent	-7980
rection	-7981
▁paysages	-7982
box	-7983
seurs	-7984
▁batteur	-7985
▁trent	-7986
▁intégrée	-7987
▁gy	-7988
▁pouvoirs	-7989
▁fréquente	-7990
rison	-7991
▁amsterdam	-7992
ese	-7993
▁revenir	-7994
fc	-7995
▁reich	-7996
▁procéd	-7997
▁maximum	-7998
▁nie	-7999
▁chimique	-8000
▁isol	-8001
▁mesures	-8002
▁institut	-8003
▁soutient	-8004
nica	-8005
▁organisés	-8006
▁clément	-8007
▁bolivie	-8008
ouchure	-8009
ustin	-8010
nouvelle	-8011
▁prépare	-8012
appellation	-8013
▁audi	-8014
▁assemb	-8015
▁parlée	-8016
▁introduit	-8017
▁décerné	-8018
▁peintres	-8019
...)	-8020
▁satellite	-8021
▁yam	-8022
▁privil	-8023
artillerie	-8024
lanta	-8025
▁édif	-8026
eno	-8027
▁align	-8028
▁argentin	-8029
▁accueilli	-8030
▁</	-8031
▁minor	-8032
▁colorado	-8033
▁syndicat	-8034
ła	-8035
ancouver	-8036
▁décoration	-8037
lab	-8038
œil	-8039
▁portraits	-8040
▁populations	-8041
▁bia	-8042
▁tau	-8043
éat	-8044
▁reconnue	-8045
▁berne	-8046
▁légend	-8047
▁épiscop	-8048
▁éliminatoires	-8049
installer	-8050
▁origines	-8051
mère	-8052
aster	-8053
▁évène	-8054
▁suspend	-8055
▁cadet	-8056
▁apport	-8057
mod	-8058
▁lait	-8059
▁vais	-8060
▁breton	-8061
▁brû	-8062
▁carb	-8063
▁venir	-8064
sionnaire	-8065
""	-8066
▁astronom	-8067
▁terrestre	-8068
ór	-8069
▁arbres	-8070
▁tai	-8071
▁revanche	-8072
▁littéraires	-8073
oshi	-8074
▁cau	-8075
illinois	-8076
▁spectateurs	-8077
▁étend	-8078
▁quitté	-8079
▁institution	-8080
▁tenue	-8081
▁piémont	-8082
▁dirigeant	-8083
▁grandi	-8084
▁samedi	-8085
▁installée	-8086
▁présenter	-8087
▁expérience	-8088
éon	-8089
▁Éc	-8090
▁milliards	-8091
uelles	-8092
▁hyd	-8093
▁entouré	-8094
▁propriétés	-8095
▁trouvé	-8096
▁douce	-8097
▁sncf	-8098
▁utiliser	-8099
▁rassemble	-8100
ily	-8101
▁sélectionnés	-8102
ardi	-8103
▁manne	-8104
▁marty	-8105
▁alan	-8106
▁propor	-8107
sy	-8108
▁usage	-8109
▁irlande	-8110
back	-8111
▁limites	-8112
▁und	-8113
endro	-8114
urge	-8115
▁Étienne	-8116
▁comtés	-8117
rus	-8118
▁parue	-8119
▁réseaux	-8120
unn	-8121
tics	-8122
idiocèse	-8123
oft	-8124
eure	-8125
▁freder	-8126
▁buteur	-8127
▁master	-8128
▁vancouver	-8129
star	-8130
▁possession	-8131
impose	-8132
▁profond	-8133
mens	-8134
itimes	-8135
▁élection	-8136
inscrit	-8137
▁italiens	-8138
▁oiseau	-8139
quemment	-8140
ênes	-8141
▁appelle	-8142
ief	-8143
élique	-8144
▁amical	-8145
▁mario	-8146
▁réunit	-8147
▁hambourg	-8148
▁orchestre	-8149
▁kle	-8150
zant	-8151
▁clin	-8152
▁tome	-8153
▁inn	-8154
elier	-8155
▁humor	-8156
▁inaugurée	-8157
aliment	-8158
▁destru	-8159
▁orthodoxe	-8160
▁partiellement	-8161
▁phon	-8162
▁billboard	-8163
▁législature	-8164
oda	-8165
▁abs	-8166
urance	-8167
lio	-8168
ukraine	-8169
▁benjamin	-8170
▁broad	-8171
▁expose	-8172
▁plaque	-8173
▁enti	-8174
▁refuge	-8175
▁particulière	-8176
èques	-8177
▁triple	-8178
victoire	-8179
nal	-8180
▁had	-8181
▁0,000	-8182
cool	-8183
ello	-8184
▁pascal	-8185
▁associée	-8186
aïd	-8187
▁lyn	-8188
comme	-8189
▁préparation	-8190
christ	-8191
▁centr	-8192
glas	-8193
▁thaïlande	-8194
▁forteresse	-8195
▁revenu	-8196
arab	-8197
▁associations	-8198
▁acade	-8199
▁malaisie	-8200
▁dynam	-8201
enstein	-8202
▁compor	-8203
american	-8204
épouse	-8205
oges	-8206
▁mété	-8207
▁lancée	-8208
▁comptant	-8209
▁vestiges	-8210
▁croissance	-8211
▁tru	-8212
▁kosovo	-8213
tan	-8214
▁ix	-8215
▁lewis	-8216
▁possèdent	-8217
▁mali	-8218
▁décom	-8219
épis	-8220
▁neur	-8221
autorité	-8222
▁||	-8223
Îles	-8224
▁prêt	-8225
▁oppose	-8226
vue	-8227
raient	-8228
provence	-8229
nesota	-8230
▁how	-8231
actions	-8232
▁jouait	-8233
▁francophone	-8234
wal	-8235
▁atel	-8236
▁cuisine	-8237
▁best	-8238
▁actes	-8239
▁préserv	-8240
initiative	-8241
sn	-8242
▁citer	-8243
▁bureaux	-8244
iran	-8245
▁évo	-8246
▁ornith	-8247
▁dramat	-8248
▁régionales	-8249
▁félix	-8250
omi	-8251
▁explique	-8252
assé	-8253
▁application	-8254
▁humides	-8255
▁communal	-8256
▁longs	-8257
▁stadi	-8258
ître	-8259
▁pakistan	-8260
anga	-8261
▁champagne	-8262
▁magist	-8263
▁finance	-8264
▁amateurs	-8265
▁0"	-8266
▁jésus	-8267
▁népal	-8268
▁sombre	-8269
▁hot	-8270
▁jet	-8271
▁bacc	-8272
▁jose	-8273
▁médaillé	-8274
itations	-8275
bol	-8276
▁veuve	-8277
▁décenn	-8278
▁comarque	-8279
▁inconnue	-8280
asc	-8281
ussie	-8282
▁grotte	-8283
ômes	-8284
▁bau	-8285
ić	-8286
▁brest	-8287
roi	-8288
▁maillot	-8289
itte	-8290
nels	-8291
▁choisit	-8292
▁michigan	-8293
▁nan	-8294
▁cordes	-8295
médiatement	-8296
▁touristique	-8297
▁ciné	-8298
▁échange	-8299
▁métropolitaine	-8300
▁marais	-8301
▁portée	-8302
▁versailles	-8303
idés	-8304
▁tiré	-8305
chées	-8306
▁supr	-8307
ouk	-8308
▁Év	-8309
▁génie	-8310
▁tracé	-8311
▁saints	-8312
opie	-8313
▁montée	-8314
▁mobile	-8315
énagement	-8316
▁christoph	-8317
atiques	-8318
lez	-8319
oke	-8320
▁idé	-8321
▁immédiatement	-8322
ichi	-8323
▁parcour	-8324
▁sélectionneur	-8325
▁vede	-8326
▁amour	-8327
▁artif	-8328
▁laissé	-8329
maur	-8330
oria	-8331
▁subst	-8332
▁objectif	-8333
▁della	-8334
▁accepte	-8335
▁Établie	-8336
ound	-8337
▁fera	-8338
▁fores	-8339
▁israël	-8340
▁catalogne	-8341
▁pennsylvanie	-8342
opp	-8343
onnier	-8344
opol	-8345
▁gilbert	-8346
▁param	-8347
▁cie	-8348
▁press	-8349
▁canadiens	-8350
▁développée	-8351
inson	-8352
▁ruines	-8353
▁donnent	-8354
▁illust	-8355
▁décédée	-8356
▁transfert	-8357
jus	-8358
▁university	-8359
▁ash	-8360
▁vendredi	-8361
▁cavalerie	-8362
thé	-8363
▁manga	-8364
▁fan	-8365
▁amie	-8366
▁goût	-8367
▁liée	-8368
▁défend	-8369
▁salvad	-8370
▁tchécoslovaquie	-8371
organ	-8372
▁contenu	-8373
plus	-8374
▁chat	-8375
▁louv	-8376
oj	-8377
▁adopté	-8378
ther	-8379
▁établissements	-8380
▁qualifiés	-8381
▁progressivement	-8382
▁étude	-8383
▁gagner	-8384
▁valeurs	-8385
▁vide	-8386
▁industrielle	-8387
▁amp	-8388
igi	-8389
▁totalité	-8390
agan	-8391
cette	-8392
▁burg	-8393
▁dy	-8394
▁déroulé	-8395
germain	-8396
▁sommets	-8397
▁puy	-8398
accue	-8399
▁étrangers	-8400
▁regist	-8401
▁siégeant	-8402
▁fréquemment	-8403
ouvoir	-8404
▁sucre	-8405
▁dialec	-8406
▁flamand	-8407
ingénieur	-8408
▁nationalité	-8409
sile	-8410
exécu	-8411
▁alexand	-8412
haute	-8413
▁linguistique	-8414
chec	-8415
adapt	-8416
▁chrétienne	-8417
▁classées	-8418
▁neuvième	-8419
ache	-8420
▁vigueur	-8421
international	-8422
'«	-8423
▁tropicales	-8424
▁continentales	-8425
▁cylind	-8426
▁ford	-8427
▁vass	-8428
▁benoît	-8429
▁prusse	-8430
▁lam	-8431
▁animal	-8432
▁venant	-8433
owski	-8434
▁unies	-8435
▁cah	-8436
▁règle	-8437
avantage	-8438
▁vio	-8439
▁gang	-8440
▁représentent	-8441
▁photo	-8442
▁tw	-8443
ignan	-8444
▁exter	-8445
élic	-8446
▁jun	-8447
▁considère	-8448
▁ambassadeur	-8449
oué	-8450
ulsion	-8451
▁marquée	-8452
rock	-8453
ettes	-8454
▁francs	-8455
élect	-8456
▁syste	-8457
▁francophones	-8458
ids	-8459
ties	-8460
▁ful	-8461
▁coups	-8462
italien	-8463
▁sierra	-8464
▁suprême	-8465
mur	-8466
▁agricoles	-8467
tch	-8468
▁khan	-8469
▁pist	-8470
▁gilles	-8471
▁branches	-8472
▁sculpt	-8473
▁connaiss	-8474
▁créateur	-8475
▁abd	-8476
tellig	-8477
chef	-8478
soci	-8479
▁chantier	-8480
▁vertic	-8481
zon	-8482
enny	-8483
▁traversé	-8484
▁qualifiées	-8485
région	-8486
▁lauréat	-8487
▁western	-8488
▁toile	-8489
▁affili	-8490
▁cél	-8491
▁fermé	-8492
▁Écosse	-8493
▁continentale	-8494
diff	-8495
iidae	-8496
▁écrire	-8497
▁remix	-8498
ouc	-8499
ièvre	-8500
▁ministres	-8501
▁pł	-8502
▁carn	-8503
▁atelier	-8504
00.0000	-8505
▁tempor	-8506
oste	-8507
▁viet	-8508
▁ballet	-8509
▁véhicule	-8510
intro	-8511
▁carré	-8512
▁convain	-8513
ware	-8514
▁révèle	-8515
▁contribué	-8516
▁facilement	-8517
▁sap	-8518
▁détient	-8519
éraux	-8520
athon	-8521
▁copenh	-8522
▁adultes	-8523
▁universitaires	-8524
lyn	-8525
amen	-8526
▁guinée	-8527
anus	-8528
▁bulgare	-8529
hip	-8530
chette	-8531
▁phylog	-8532
arctique	-8533
▁spéciale	-8534
gne	-8535
beau	-8536
tration	-8537
▁relégués	-8538
▁abandonné	-8539
▁jusque	-8540
▁détruite	-8541
▁championship	-8542
▁annex	-8543
▁sociaux	-8544
oule	-8545
▁voyages	-8546
intéresse	-8547
▁mohamed	-8548
▁bio	-8549
▁tarn	-8550
▁régionaux	-8551
▁programmation	-8552
uefa	-8553
▁choses	-8554
ignons	-8555
tait	-8556
ocy	-8557
amir	-8558
atsu	-8559
euro	-8560
more	-8561
cho	-8562
aïque	-8563
▁auto	-8564
▁mann	-8565
▁synonyme	-8566
palatinat	-8567
▁structures	-8568
▁travaillant	-8569
▁rd	-8570
chy	-8571
orb	-8572
▁bla	-8573
▁viêt	-8574
useppe	-8575
▁définition	-8576
▁mob	-8577
▁acte	-8578
▁déch	-8579
▁nomination	-8580
▁frib	-8581
▁chor	-8582
▁musicales	-8583
oura	-8584
rè	-8585
▁pistes	-8586
▁palmar	-8587
ston	-8588
▁british	-8589
▁complètement	-8590
armes	-8591
aliser	-8592
▁0-	-8593
avion	-8594
▁contribue	-8595
odor	-8596
▁santiago	-8597
onnement	-8598
▁arménien	-8599
▁complex	-8600
▁vaisseau	-8601
▁besoin	-8602
▁épousé	-8603
▁entré	-8604
aman	-8605
▁pun	-8606
tico	-8607
▁stephen	-8608
▁automatique	-8609
ification	-8610
▁drag	-8611
▁revers	-8612
▁manchester	-8613
icatif	-8614
▁deviennent	-8615
ams	-8616
rivant	-8617
▁capable	-8618
aves	-8619
mant	-8620
▁portail	-8621
▁pôle	-8622
▁surviv	-8623
▁0000/0000	-8624
kom	-8625
▁tang	-8626
▁minnesota	-8627
▁quasi	-8628
▁doublé	-8629
▁hongroise	-8630
▁sortis	-8631
▁expédition	-8632
reaux	-8633
▁connec	-8634
▁antérieures	-8635
chron	-8636
▁manoir	-8637
▁douglas	-8638
▁intégra	-8639
▁copenhague	-8640
▁faute	-8641
▁fusionne	-8642
▁suffrages	-8643
▁disponibles	-8644
opa	-8645
▁remplacés	-8646
▁commerciale	-8647
▁kazakh	-8648
arth	-8649
illo	-8650
▁dijon	-8651
ahn	-8652
▁statistique	-8653
_00	-8654
▁neut	-8655
octobre	-8656
▁différent	-8657
atif	-8658
tri	-8659
▁nich	-8660
ellent	-8661
▁prédé	-8662
▁marins	-8663
▁nommés	-8664
▁ves	-8665
▁accueillir	-8666
▁remarquable	-8667
▁humain	-8668
▁tat	-8669
rano	-8670
▁bang	-8671
▁marne	-8672
bab	-8673
mons	-8674
▁risque	-8675
▁america	-8676
▁moteurs	-8677
▁doyen	-8678
▁giuseppe	-8679
▁natation	-8680
▁prie	-8681
▁trio	-8682
▁apparu	-8683
▁liés	-8684
expéri	-8685
▁resté	-8686
▁tibét	-8687
rob	-8688
▁buff	-8689
▁viii	-8690
vol	-8691
▁microrégion	-8692
▁horiz	-8693
chin	-8694
▁proposé	-8695
loie	-8696
▁accède	-8697
▁sicile	-8698
▁solution	-8699
angulaire	-8700
▁comédien	-8701
uns	-8702
itié	-8703
▁centi	-8704
▁difficultés	-8705
▁ok	-8706
oper	-8707
▁spar	-8708
auréat	-8709
▁obtint	-8710
▁périph	-8711
▁destination	-8712
band	-8713
▁matériaux	-8714
▁kenne	-8715
▁décroche	-8716
hausen	-8717
▁changé	-8718
▁honneur	-8719
duire	-8720
▁prisonniers	-8721
▁wol	-8722
▁natal	-8723
▁golf	-8724
▁meurtre	-8725
▁roumain	-8726
▁principauté	-8727
▁jura	-8728
municip	-8729
Ét	-8730
assass	-8731
▁tunnel	-8732
▁botaniste	-8733
ube	-8734
▁liens	-8735
▁mount	-8736
▁machines	-8737
▁wallonne	-8738
ńsk	-8739
aube	-8740
▁moines	-8741
▁restaurant	-8742
gel	-8743
qua	-8744
▁pc	-8745
elly	-8746
▁traces	-8747
▁symp	-8748
▁charlotte	-8749
▁humains	-8750
▁graphique	-8751
▁sultan	-8752
▁lap	-8753
georges	-8754
▁séparation	-8755
mort	-8756
andro	-8757
ressionn	-8758
oupe	-8759
laves	-8760
▁quoi	-8761
▁occidental	-8762
grad	-8763
▁jud	-8764
êcher	-8765
cédemment	-8766
aviation	-8767
▁lancement	-8768
vill	-8769
aca	-8770
▁rebaptis	-8771
▁participants	-8772
▁appellation	-8773
▁belges	-8774
▁arrivée	-8775
kat	-8776
▁taylor	-8777
▁interprétée	-8778
neuf	-8779
▁moselle	-8780
▁arme	-8781
ipzig	-8782
▁romains	-8783
▁massachusetts	-8784
cast	-8785
version	-8786
▁intér	-8787
ness	-8788
inent	-8789
ovision	-8790
▁aud	-8791
enay	-8792
▁exécuté	-8793
▁estimations	-8794
lib	-8795
▁cf	-8796
cées	-8797
aval	-8798
▁éle	-8799
embour	-8800
▁bilan	-8801
▁athènes	-8802
▁bordure	-8803
▁promouvoir	-8804
▁alpin	-8805
▁draft	-8806
▁hur	-8807
agnol	-8808
aurus	-8809
▁state	-8810
▁germanique	-8811
▁hart	-8812
▁pasteur	-8813
row	-8814
▁méditerrané	-8815
mag	-8816
▁usine	-8817
▁mondiaux	-8818
américains	-8819
▁well	-8820
aillon	-8821
▁boxeur	-8822
▁basilique	-8823
▁mexicain	-8824
▁paroissi	-8825
gau	-8826
▁pauvre	-8827
▁harry	-8828
▁lignée	-8829
rance	-8830
mif	-8831
sar	-8832
▁paraguay	-8833
itées	-8834
outre	-8835
▁shar	-8836
▁with	-8837
▁monop	-8838
▁lombardie	-8839
otr	-8840
sau	-8841
▁repos	-8842
truis	-8843
▁recensements	-8844
rimés	-8845
▁retrouvé	-8846
alors	-8847
▁baccal	-8848
▁photos	-8849
oya	-8850
▁terrains	-8851
▁playstation	-8852
▁ec	-8853
▁ecclésiastique	-8854
avril	-8855
burgh	-8856
▁retrouvent	-8857
▁archéologique	-8858
▁danger	-8859
chel	-8860
▁road	-8861
▁brand	-8862
▁évêques	-8863
quisition	-8864
▁amér	-8865
arel	-8866
ports	-8867
▁laisser	-8868
▁quotidienne	-8869
▁nombres	-8870
cés	-8871
vard	-8872
▁effic	-8873
▁moine	-8874
▁thierry	-8875
odi	-8876
▁bient	-8877
▁désert	-8878
▁flandre	-8879
adaptation	-8880
▁législative	-8881
▁habituellement	-8882
rienne	-8883
sky	-8884
tils	-8885
▁monténé	-8886
rices	-8887
▁fruit	-8888
▁graveur	-8889
urer	-8890
offic	-8891
▁figurent	-8892
pan	-8893
▁lat	-8894
▁beauté	-8895
▁technologies	-8896
▁pedro	-8897
érif	-8898
▁stanley	-8899
▁bientôt	-8900
▁facil	-8901
▁paysage	-8902
aci	-8903
▁casc	-8904
▁rêve	-8905
▁suites	-8906
▁francfort	-8907
▁sanctuaire	-8908
▁possibilité	-8909
▁put	-8910
▁idées	-8911
▁mystérie	-8912
orgue	-8913
provin	-8914
▁libra	-8915
▁étudiant	-8916
▁chyp	-8917
▁joy	-8918
▁solaire	-8919
▁od	-8920
▁000)	-8921
▁chaînes	-8922
▁générique	-8923
▁client	-8924
▁seules	-8925
naie	-8926
enfance	-8927
▁familiale	-8928
▁influence	-8929
▁hell	-8930
charles	-8931
▁ate	-8932
▁bologne	-8933
▁blessure	-8934
posi	-8935
▁0).	-8936
▁kom	-8937
▁virtu	-8938
▁publicité	-8939
▁complément	-8940
▁chose	-8941
archidiocèse	-8942
▁ajout	-8943
venu	-8944
▁team	-8945
▁dixième	-8946
▁fortune	-8947
▁télévisées	-8948
',	-8949
ele	-8950
▁paras	-8951
▁enseignant	-8952
▁érigé	-8953
iler	-8954
▁avions	-8955
▁remise	-8956
▁collectif	-8957
oo	-8958
élène	-8959
▁provincial	-8960
artistes	-8961
▁tunisien	-8962
zew	-8963
▁jor	-8964
▁aval	-8965
technique	-8966
▁assassiné	-8967
ergé	-8968
ower	-8969
apper	-8970
▁chaud	-8971
▁stars	-8972
▁marques	-8973
▁palmarès	-8974
▁léger	-8975
▁nikol	-8976
▁leipzig	-8977
▁deg	-8978
▁salvador	-8979
▁byzant	-8980
▁barre	-8981
▁academy	-8982
▁directrice	-8983
▁chronologie	-8984
▁due	-8985
▁lisbonne	-8986
▁écrivains	-8987
ulé	-8988
dale	-8989
▁définie	-8990
▁assi	-8991
▁dem	-8992
▁voisins	-8993
▁oriental	-8994
avo	-8995
bad	-8996
roc	-8997
èvres	-8998
▁cast	-8999
▁gaul	-9000
▁pousse	-9001
ïa	-9002
ançon	-9003
▁#	-9004
hem	-9005
▁kor	-9006
▁bonus	-9007
▁influencé	-9008
unesco	-9009
oiseau	-9010
▁conservation	-9011
▁institutions	-9012
zyn	-9013
ïde	-9014
▁cultures	-9015
▁décident	-9016
èvre	-9017
▁tél	-9018
▁chaire	-9019
nat	-9020
mateur	-9021
▁afflu	-9022
▁chance	-9023
▁baccalauréat	-9024
mac	-9025
▁...	-9026
▁kas	-9027
▁voile	-9028
élie	-9029
▁évoque	-9030
▁ench	-9031
▁pair	-9032
▁radom	-9033
▁consacrer	-9034
▁0)	-9035
▁hipp	-9036
▁rect	-9037
ophy	-9038
ramme	-9039
▁remportent	-9040
▁progress	-9041
▁caen	-9042
▁vins	-9043
▁pharm	-9044
▁diction	-9045
▁réel	-9046
▁révolutionnaire	-9047
ramment	-9048
▁dramaturge	-9049
ple	-9050
zin	-9051
ulée	-9052
▁passa	-9053
berge	-9054
▁fixe	-9055
▁qualifications	-9056
onds	-9057
▁batterie	-9058
▁extérieur	-9059
bir	-9060
alexandre	-9061
▁réputation	-9062
eg	-9063
aile	-9064
▁Égypte	-9065
▁conduite	-9066
▁kay	-9067
até	-9068
▁dob	-9069
▁dall	-9070
▁variétés	-9071
▁gré	-9072
▁mak	-9073
erb	-9074
▁ig	-9075
estra	-9076
▁belles	-9077
vert	-9078
▁'.	-9079
▁précédemment	-9080
▁statistiques	-9081
▁book	-9082
▁zim	-9083
épisode	-9084
▁proportion	-9085
cile	-9086
▁bec	-9087
▁insec	-9088
▁jouée	-9089
▁centaine	-9090
▁originaires	-9091
▁uruguay	-9092
▁laté	-9093
▁littoral	-9094
bli	-9095
▁columbia	-9096
▁câ	-9097
▁pilotes	-9098
▁recevoir	-9099
viation	-9100
▁cambridge	-9101
▁chang	-9102
cos	-9103
ghan	-9104
mund	-9105
▁aigu	-9106
▁rives	-9107
rentissage	-9108
▁%.	-9109
▁maximale	-9110
▁méthodes	-9111
tiles	-9112
▁brut	-9113
atoires	-9114
▁lubusz	-9115
neuve	-9116
▁johnny	-9117
hire	-9118
effectif	-9119
▁bertrand	-9120
▁françoise	-9121
▁cé	-9122
▁céléb	-9123
▁perte	-9124
▁donald	-9125
▁musées	-9126
▁rester	-9127
mentation	-9128
▁variante	-9129
vous	-9130
▁fox	-9131
▁remplaçant	-9132
▁compatriote	-9133
point	-9134
▁campagnes	-9135
ïn	-9136
▁fib	-9137
obtenir	-9138
▁prés	-9139
▁affron	-9140
▁conçue	-9141
mia	-9142
▁concl	-9143
▁tentative	-9144
œuvres	-9145
▁fouilles	-9146
quoi	-9147
existe	-9148
▁fic	-9149
orique	-9150
▁foncé	-9151
▁explor	-9152
▁colonne	-9153
▁tf	-9154
▁commis	-9155
onymie	-9156
▁gustave	-9157
▁apparaissent	-9158
▁bade	-9159
▁budget	-9160
▁rica	-9161
▁chiffre	-9162
isi	-9163
yph	-9164
omon	-9165
aret	-9166
▁porn	-9167
▁andrew	-9168
▁erre	-9169
accomp	-9170
▁anvers	-9171
▁quantité	-9172
▁géographie	-9173
azur	-9174
vens	-9175
illère	-9176
▁éviter	-9177
▁organisations	-9178
ogique	-9179
▁distinc	-9180
▁ferr	-9181
▁monnaie	-9182
▁queensland	-9183
det	-9184
kol	-9185
▁capt	-9186
▁catholiques	-9187
▁têtes	-9188
▁arrivé	-9189
eni	-9190
uls	-9191
▁pense	-9192
▁bâle	-9193
urte	-9194
▁conseils	-9195
orts	-9196
▁leg	-9197
▁glas	-9198
▁wilson	-9199
▁révolte	-9200
▁scolaire	-9201
▁alent	-9202
dt	-9203
▁carlo	-9204
▁anderson	-9205
▁laissant	-9206
▁supérieures	-9207
uler	-9208
tawa	-9209
▁subit	-9210
▁rus	-9211
antiqu	-9212
him	-9213
▁sard	-9214
▁mauvais	-9215
attention	-9216
▁récompensé	-9217
▁viennent	-9218
bant	-9219
▁bey	-9220
▁vicom	-9221
inos	-9222
▁jal	-9223
active	-9224
ordogne	-9225
▁déclen	-9226
gie	-9227
▁anthony	-9228
▁habitant	-9229
▁phénomène	-9230
▁acquiert	-9231
▁charente	-9232
ial	-9233
gart	-9234
▁vau	-9235
▁amen	-9236
▁guyane	-9237
▁démissionne	-9238
▁disputer	-9239
▁diplomate	-9240
▁riz	-9241
arché	-9242
▁abord	-9243
▁rétab	-9244
▁states	-9245
▁visiteurs	-9246
▁chanc	-9247
▁financière	-9248
▁naturelles	-9249
▁még	-9250
▁sph	-9251
▁mammif	-9252
six	-9253
wich	-9254
▁lundi	-9255
▁ontario	-9256
▁décal	-9257
▁brad	-9258
▁contro	-9259
▁finales	-9260
▁vladimir	-9261
▁signature	-9262
groupe	-9263
culaire	-9264
▁express	-9265
▁rt	-9266
vienne	-9267
▁zag	-9268
▁gord	-9269
tillon	-9270
▁monaco	-9271
▁reprendre	-9272
▁partenaire	-9273
▁wiel	-9274
▁débit	-9275
▁institute	-9276
▁destruction	-9277
▁municipales	-9278
alth	-9279
▁"00	-9280
meur	-9281
▁fine	-9282
▁relégué	-9283
mane	-9284
▁fournit	-9285
▁bonn	-9286
▁compagnies	-9287
ablan	-9288
métrage	-9289
▁taches	-9290
▁heinrich	-9291
▁cesse	-9292
▁sauvage	-9293
▁image	-9294
▁singap	-9295
▁00)	-9296
▁clé	-9297
estine	-9298
▁affecté	-9299
▁ic	-9300
▁panama	-9301
êne	-9302
▁communément	-9303
ippe	-9304
irée	-9305
▁procureur	-9306
boy	-9307
royal	-9308
▁helsinki	-9309
▁rangers	-9310
▁volonté	-9311
ensive	-9312
▁étage	-9313
▁portugaise	-9314
abs	-9315
hos	-9316
▁bbc	-9317
▁vietnam	-9318
quêtes	-9319
▁protoc	-9320
aménagement	-9321
▁hospital	-9322
▁gamb	-9323
▁réflex	-9324
▁annuel	-9325
▁édit	-9326
▁peuples	-9327
aku	-9328
angers	-9329
▁collaboré	-9330
▁shang	-9331
▁sophie	-9332
▁fusionné	-9333
▁extension	-9334
▁august	-9335
▁militant	-9336
▁couramment	-9337
'.	-9338
kie	-9339
▁grandit	-9340
▁saône	-9341
▁hous	-9342
▁syrie	-9343
▁espagnols	-9344
énique	-9345
difices	-9346
▁déterminer	-9347
kes	-9348
▁croy	-9349
▁appareil	-9350
▁protégée	-9351
cker	-9352
▁Îles	-9353
▁00"	-9354
onnées	-9355
▁jak	-9356
oum	-9357
▁meuse	-9358
...).	-9359
▁frontières	-9360
▁sections	-9361
démocrate	-9362
▁policiers	-9363
trop	-9364
ismes	-9365
right	-9366
urrent	-9367
▁mr	-9368
huile	-9369
▁unic	-9370
▁individus	-9371
▁poursuivre	-9372
omique	-9373
▁yu	-9374
▁week	-9375
▁importance	-9376
▁fonctionnement	-9377
▁propriétaires	-9378
▁miami	-9379
inaires	-9380
icz	-9381
▁wild	-9382
▁émet	-9383
centre	-9384
élevage	-9385
▁indust	-9386
▁stéphane	-9387
▁bann	-9388
pat	-9389
mala	-9390
▁kit	-9391
▁critères	-9392
▁présentes	-9393
▁concentration	-9394
▁dimensions	-9395
▁communaut	-9396
▁maladi	-9397
▁comportement	-9398
amas	-9399
▁sum	-9400
human	-9401
▁repr	-9402
feu	-9403
▁kin	-9404
▁vou	-9405
▁bank	-9406
▁visant	-9407
▁confluence	-9408
isra	-9409
ologues	-9410
▁taïwan	-9411
▁rim	-9412
▁(0,00	-9413
sey	-9414
▁mér	-9415
▁seigneurs	-9416
idique	-9417
▁bases	-9418
▁algérien	-9419
atives	-9420
galles	-9421
▁applications	-9422
aza	-9423
beek	-9424
▁joint	-9425
août	-9426
héra	-9427
▁sév	-9428
▁opus	-9429
▁domes	-9430
▁fribourg	-9431
irie	-9432
ohio	-9433
▁rappro	-9434
▁sauver	-9435
▁changer	-9436
open	-9437
▁gonz	-9438
▁lucien	-9439
▁conserver	-9440
ов	-9441
erte	-9442
▁costu	-9443
▁adolesc	-9444
urtemberg	-9445
▁american	-9446
oven	-9447
eneuve	-9448
maz	-9449
▁tuer	-9450
▁scorpions	-9451
▁cologne	-9452
rys	-9453
▁surveill	-9454
000.	-9455
yron	-9456
▁ludwig	-9457
dés	-9458
rest	-9459
enses	-9460
▁toulon	-9461
▁abrégé	-9462
▁accompagne	-9463
▁ence	-9464
▁logiciels	-9465
▁représentations	-9466
aéro	-9467
▁rarement	-9468
kel	-9469
▁affluents	-9470
▁rappelle	-9471
▁og	-9472
owiec	-9473
▁grim	-9474
▁bohême	-9475
york	-9476
▁marco	-9477
▁soudan	-9478
ová	-9479
▁gel	-9480
▁pomp	-9481
▁dial	-9482
▁présidente	-9483
thiopie	-9484
▁soldat	-9485
interpré	-9486
▁bourgeois	-9487
▁hc	-9488
hara	-9489
ilde	-9490
intégra	-9491
▁notion	-9492
▁restes	-9493
axe	-9494
rons	-9495
▁équipé	-9496
▁apparait	-9497
▁fondament	-9498
▁marti	-9499
▁miguel	-9500
▁paraître	-9501
▁chrom	-9502
▁brou	-9503
▁mené	-9504
▁dange	-9505
▁recruté	-9506
inge	-9507
insk	-9508
▁now	-9509
ology	-9510
▁indienne	-9511
héri	-9512
ml	-9513
▁croate	-9514
▁hugo	-9515
▁ibn	-9516
escal	-9517
frère	-9518
▁réception	-9519
▁intervient	-9520
anciennement	-9521
gard	-9522
plan	-9523
▁fêtes	-9524
▁restera	-9525
▁souverain	-9526
érir	-9527
▁fos	-9528
▁bateaux	-9529
▁classements	-9530
▁greg	-9531
essentiel	-9532
▁architectur	-9533
▁majoritairement	-9534
▁lob	-9535
▁anime	-9536
▁écrites	-9537
▁indépendants	-9538
▁general	-9539
îmes	-9540
▁homonyme	-9541
▁chrétien	-9542
éranie	-9543
▁dimension	-9544
ters	-9545
▁notes	-9546
▁employés	-9547
▁hollywood	-9548
ning	-9549
oudre	-9550
▁campus	-9551
inations	-9552
had	-9553
ios	-9554
▁gaston	-9555
▁attribue	-9556
▁incluant	-9557
chon	-9558
head	-9559
▁menée	-9560
▁figures	-9561
▁manches	-9562
▁philosoph	-9563
anny	-9564
▁anat	-9565
▁provinciale	-9566
▁lituanie	-9567
▁coéquip	-9568
▁puissant	-9569
▁mannequin	-9570
font	-9571
▁bug	-9572
▁liga	-9573
affluent	-9574
hir	-9575
▁définit	-9576
▁esprit	-9577
▁magasin	-9578
▁travailla	-9579
vant	-9580
▁vél	-9581
▁enquête	-9582
▁dessous	-9583
▁parisienne	-9584
wart	-9585
▁humaines	-9586
amiral	-9587
▁hollande	-9588
rase	-9589
▁élo	-9590
▁nint	-9591
▁clients	-9592
cour	-9593
astroph	-9594
▁phases	-9595
▁louisiane	-9596
▁tas	-9597
▁interdit	-9598
▁melbourne	-9599
▁papou	-9600
hof	-9601
zno	-9602
▁opp	-9603
▁path	-9604
sives	-9605
▁chercheurs	-9606
▁dress	-9607
▁intérêt	-9608
▁produc	-9609
▁distribué	-9610
▁adversaires	-9611
▁poursuite	-9612
wi	-9613
tivités	-9614
lah	-9615
alistes	-9616
▁kansas	-9617
▁ele	-9618
▁affich	-9619
▁prévue	-9620
éth	-9621
ométrie	-9622
aller	-9623
▁bleue	-9624
▁chale	-9625
▁emmanuel	-9626
▁tad	-9627
▁meck	-9628
▁absor	-9629
▁intelle	-9630
▁exécutif	-9631
▁opposition	-9632
▁abbé	-9633
▁vocation	-9634
▁tele	-9635
▁vols	-9636
quatre	-9637
▁planètes	-9638
▁monter	-9639
▁00%	-9640
antaine	-9641
▁life	-9642
▁dres	-9643
odique	-9644
cension	-9645
▁réduit	-9646
▁baptisé	-9647
▁procédé	-9648
▁centaines	-9649
fol	-9650
view	-9651
▁cape	-9652
nelles	-9653
▁conjo	-9654
érations	-9655
▁enseigné	-9656
gow	-9657
venue	-9658
▁Éric	-9659
▁acadé	-9660
▁milieux	-9661
▁stadium	-9662
▁rallye	-9663
▁norme	-9664
rivière	-9665
▁nintendo	-9666
vey	-9667
alisées	-9668
▁wallon	-9669
▁colonnes	-9670
▁transformation	-9671
▁simples	-9672
▁ateliers	-9673
▁punk	-9674
ador	-9675
▁chab	-9676
▁haies	-9677
nac	-9678
▁len	-9679
▁établis	-9680
inus	-9681
▁nel	-9682
▁juridique	-9683
▁bulle	-9684
▁barbara	-9685
▁hebdomadaire	-9686
▁récent	-9687
yss	-9688
▁motor	-9689
aband	-9690
arbre	-9691
▁serpent	-9692
▁collines	-9693
▁coût	-9694
▁cruz	-9695
▁parcs	-9696
▁noires	-9697
▁circuits	-9698
▁maladies	-9699
▁intellectu	-9700
▁disposition	-9701
▁besançon	-9702
mic	-9703
▁disposi	-9704
rue	-9705
▁pietro	-9706
▁rede	-9707
▁piotr	-9708
▁sportifs	-9709
▁xx	-9710
▁rangs	-9711
▁0-0).	-9712
▁soirée	-9713
▁kre	-9714
▁pall	-9715
veland	-9716
▁metteur	-9717
attle	-9718
▁alphonse	-9719
▁événement	-9720
ocie	-9721
▁cog	-9722
▁:"	-9723
▁gothique	-9724
▁latitude	-9725
▁namur	-9726
▁fabrique	-9727
tet	-9728
ilton	-9729
▁dates	-9730
▁étudia	-9731
coréen	-9732
▁abandonne	-9733
▁moham	-9734
▁prisonnier	-9735
▁kou	-9736
▁descendants	-9737
aer	-9738
cam	-9739
▁chercheur	-9740
▁singapour	-9741
sep	-9742
ury	-9743
▁canons	-9744
ké	-9745
section	-9746
▁vacances	-9747
▁apparitions	-9748
wick	-9749
▁lem	-9750
▁hass	-9751
▁pyra	-9752
▁diplômée	-9753
embouchure	-9754
▁électoral	-9755
ika	-9756
▁escal	-9757
arl	-9758
▁poit	-9759
▁tournées	-9760
▁présentant	-9761
ül	-9762
▁tril	-9763
▁tramway	-9764
▁spec	-9765
▁devrait	-9766
cinq	-9767
pool	-9768
▁cob	-9769
▁tul	-9770
▁documentaires	-9771
sour	-9772
▁décoré	-9773
élo	-9774
▁yan	-9775
▁entame	-9776
▁organisme	-9777
sière	-9778
▁dénon	-9779
▁métal	-9780
▁immobil	-9781
▁ukraine	-9782
▁pavillon	-9783
▁guate	-9784
▁analys	-9785
▁publiées	-9786
ondo	-9787
arche	-9788
▁arist	-9789
lation	-9790
yne	-9791
▁veille	-9792
akov	-9793
str	-9794
▁góra	-9795
inspire	-9796
▁are	-9797
▁mare	-9798
objectif	-9799
itage	-9800
endroit	-9801
dification	-9802
▁brièvement	-9803
éraire	-9804
▁générales	-9805
▁conséquent	-9806
sté	-9807
usa	-9808
identif	-9809
▁name	-9810
▁poules	-9811
vidence	-9812
achat	-9813
▁journalistes	-9814
nicolas	-9815
▁spécif	-9816
▁respect	-9817
fo	-9818
ako	-9819
▁(*	-9820
▁ss	-9821
asso	-9822
▁rid	-9823
isère	-9824
▁conquête	-9825
▁organisées	-9826
▁consommation	-9827
agua	-9828
▁rain	-9829
amitié	-9830
▁baud	-9831
▁xiv	-9832
▁découvertes	-9833
▁osc	-9834
littéra	-9835
▁fabriqué	-9836
▁hip	-9837
▁kiev	-9838
▁tourner	-9839
2.	-9840
▁liées	-9841
▁tendance	-9842
alsace	-9843
▁arros	-9844
▁découpage	-9845
▁officiers	-9846
▁orientales	-9847
▁longe	-9848
▁dick	-9849
▁hers	-9850
▁convo	-9851
▁séoul	-9852
▁dublin	-9853
▁prieuré	-9854
sim	-9855
lectricité	-9856
debourg	-9857
▁marqués	-9858
cir	-9859
▁arbitre	-9860
▁disparaît	-9861
león	-9862
▁crime	-9863
▁comprise	-9864
▁variable	-9865
▁	-9866
e	-9867
a	-9868
n	-9869
s	-9870
i	-9871
t	-9872
r	-9873
l	-9874
o	-9875
u	-9876
d	-9877
c	-9878
m	-9879
p	-9880
0	-9881
é	-9882
g	-9883
v	-9884
,	-9885
.	-9886
b	-9887
h	-9888
f	-9889
'	-9890
q	-9891
à	-9892
y	-9893
"	-9894
è	-9895
-	-9896
x	-9897
j	-9898
k	-9899
(	-9900
)	-9901
z	-9902
w	-9903
:	-9904
ê	-9905
’	-9906
ç	-9907
É	-9908
ô	-9909
â	-9910
ï	-9911
î	-9912
«	-9913
»	-9914
ù	-9915
;	-9916
œ	-9917
À	-9918
/	-9919
ó	-9920
û	-9921
á	-9922
%	-9923
í	-9924
>	-9925
<	-9926
ü	-9927
ö	-9928
ł	-9929
°	-9930
ë	-9931
=	-9932
–	-9933
ō	-9934
ä	-9935
|	-9936
š	-9937
]	-9938
[	-9939
!	-9940
&	-9941
_	-9942
ć	-9943
č	-9944
ˈ	-9945
—	-9946
+	-9947
ń	-9948
Ł	-9949
ɔ	-9950
?	-9951
а	-9952
ã	-9953
ú	-9954
ñ	-9955
Î	-9956
ę	-9957
о	-9958
и	-9959
ź	-9960
ū	-9961
ɛ	-9962
ā	-9963
ř	-9964
ø	-9965
е	-9966
ž	-9967
ś	-9968
2	-9969
н	-9970
Â	-9971
р	-9972
ě	-9973
*	-9974
ا	-9975
в	-9976
ą	-9977
ă	-9978
×	-9979
ß	-9980
Š	-9981
å	-9982
л	-9983
ż	-9984
к	-9985
͡	-9986
Č	-9987
#	-9988
ș	-9989
ý	-9990
æ	-9991
с	-9992
ț	-9993
т	-9994
ı	-9995
ɨ	-9996
